{
  "version": "1.0",
  "truncation": null,
  "padding": null,
  "added_tokens": [
    {
      "id": 0,
      "content": "[START]",
      "single_word": false,
      "lstrip": false,
      "rstrip": false,
      "normalized": false,
      "special": true
    },
    {
      "id": 1,
      "content": "[END]",
      "single_word": false,
      "lstrip": false,
      "rstrip": false,
      "normalized": false,
      "special": true
    },
    {
      "id": 2,
      "content": "[UNK]",
      "single_word": false,
      "lstrip": false,
      "rstrip": false,
      "normalized": false,
      "special": true
    },
    {
      "id": 3,
      "content": "[PAD]",
      "single_word": false,
      "lstrip": false,
      "rstrip": false,
      "normalized": false,
      "special": true
    },
    {
      "id": 4,
      "content": "[SEP]",
      "single_word": false,
      "lstrip": false,
      "rstrip": false,
      "normalized": false,
      "special": true
    }
  ],
  "normalizer": null,
  "pre_tokenizer": {
    "type": "Whitespace"
  },
  "post_processor": null,
  "decoder": null,
  "model": {
    "type": "BPE",
    "dropout": null,
    "unk_token": "[UNK]",
    "continuing_subword_prefix": "|",
    "end_of_word_suffix": null,
    "fuse_unk": false,
    "vocab": {
      "[START]": 0,
      "[END]": 1,
      "[UNK]": 2,
      "[PAD]": 3,
      "[SEP]": 4,
      "!": 5,
      "\"": 6,
      "'": 7,
      ",": 8,
      "-": 9,
      ".": 10,
      "/": 11,
      "0": 12,
      "1": 13,
      "2": 14,
      "3": 15,
      "4": 16,
      "5": 17,
      "6": 18,
      "7": 19,
      "8": 20,
      "9": 21,
      ":": 22,
      ";": 23,
      "?": 24,
      "A": 25,
      "B": 26,
      "C": 27,
      "D": 28,
      "E": 29,
      "F": 30,
      "G": 31,
      "H": 32,
      "I": 33,
      "J": 34,
      "K": 35,
      "L": 36,
      "M": 37,
      "N": 38,
      "O": 39,
      "P": 40,
      "Q": 41,
      "R": 42,
      "S": 43,
      "T": 44,
      "U": 45,
      "V": 46,
      "W": 47,
      "X": 48,
      "Y": 49,
      "Z": 50,
      "[": 51,
      "]": 52,
      "_": 53,
      "`": 54,
      "a": 55,
      "b": 56,
      "c": 57,
      "d": 58,
      "e": 59,
      "f": 60,
      "g": 61,
      "h": 62,
      "i": 63,
      "j": 64,
      "k": 65,
      "l": 66,
      "m": 67,
      "n": 68,
      "o": 69,
      "p": 70,
      "q": 71,
      "r": 72,
      "s": 73,
      "t": 74,
      "u": 75,
      "v": 76,
      "w": 77,
      "x": 78,
      "y": 79,
      "z": 80,
      "|e": 81,
      "|b": 82,
      "|l": 83,
      "|s": 84,
      "|p": 85,
      "|o": 86,
      "|r": 87,
      "|t": 88,
      "|k": 89,
      "|i": 90,
      "|d": 91,
      "|u": 92,
      "|n": 93,
      "|g": 94,
      "|c": 95,
      "|h": 96,
      "|a": 97,
      "|f": 98,
      "|m": 99,
      "|y": 100,
      "|w": 101,
      "|v": 102,
      "|z": 103,
      "|j": 104,
      "|K": 105,
      "|H": 106,
      "|F": 107,
      "|S": 108,
      "|x": 109,
      "|W": 110,
      "|T": 111,
      "|q": 112,
      "|N": 113,
      "|A": 114,
      "|G": 115,
      "|P": 116,
      "|B": 117,
      "|I": 118,
      "|C": 119,
      "|M": 120,
      "|-": 121,
      "|!": 122,
      "|.": 123,
      "|]": 124,
      "|2": 125,
      "|R": 126,
      "|O": 127,
      "|U": 128,
      "|7": 129,
      "|E": 130,
      "|D": 131,
      "|'": 132,
      "|L": 133,
      "|V": 134,
      "|6": 135,
      "|\"": 136,
      "|Y": 137,
      "|Z": 138,
      "|J": 139,
      "|0": 140,
      "|,": 141,
      "|5": 142,
      "|3": 143,
      "|9": 144,
      "|Q": 145,
      "|1": 146,
      "|8": 147,
      "|X": 148,
      "|4": 149,
      "|?": 150,
      "|:": 151,
      "|_": 152,
      "|er": 153,
      "|en": 154,
      "|ch": 155,
      "|in": 156,
      "|he": 157,
      "|es": 158,
      "|an": 159,
      "|st": 160,
      "|on": 161,
      "|ie": 162,
      "the": 163,
      "|it": 164,
      "|at": 165,
      "|or": 166,
      "|ar": 167,
      "|al": 168,
      "|as": 169,
      "|ed": 170,
      "|el": 171,
      "|nd": 172,
      "|is": 173,
      "|ich": 174,
      "|ur": 175,
      "|et": 176,
      "in": 177,
      "|re": 178,
      "|us": 179,
      "|le": 180,
      "|ing": 181,
      "of": 182,
      "|un": 183,
      "|ig": 184,
      "|il": 185,
      "|te": 186,
      "|ro": 187,
      "to": 188,
      "|ion": 189,
      "der": 190,
      "|ol": 191,
      "|ic": 192,
      "|em": 193,
      "|ut": 194,
      "ein": 195,
      "|om": 196,
      "|am": 197,
      "|eh": 198,
      "is": 199,
      "The": 200,
      "|ter": 201,
      "|ir": 202,
      "th": 203,
      "|ent": 204,
      "|ra": 205,
      "be": 206,
      "die": 207,
      "al": 208,
      "|ung": 209,
      "and": 210,
      "|ein": 211,
      "|ou": 212,
      "|ot": 213,
      "und": 214,
      "|ere": 215,
      "|uf": 216,
      "|and": 217,
      "|de": 218,
      "|sch": 219,
      "|ach": 220,
      "|ly": 221,
      "|ge": 222,
      "|im": 223,
      "|ten": 224,
      "st": 225,
      "|ec": 226,
      "an": 227,
      "|iv": 228,
      "|icht": 229,
      "|um": 230,
      "|ies": 231,
      "|der": 232,
      "ist": 233,
      "|den": 234,
      "er": 235,
      "|ow": 236,
      "|la": 237,
      "|ist": 238,
      "|ier": 239,
      "|ber": 240,
      "|eg": 241,
      "|eit": 242,
      "|ad": 243,
      "was": 244,
      "|uch": 245,
      "on": 246,
      "|lich": 247,
      "|ab": 248,
      "|isch": 249,
      "|ation": 250,
      "|est": 251,
      "|uer": 252,
      "|ver": 253,
      "|ess": 254,
      "|ann": 255,
      "for": 256,
      "ver": 257,
      "|os": 258,
      "In": 259,
      "|ell": 260,
      "|ah": 261,
      "als": 262,
      "|ul": 263,
      "|ck": 264,
      "das": 265,
      "are": 266,
      "|ts": 267,
      "den": 268,
      "Die": 269,
      "|ers": 270,
      "St": 271,
      "|ind": 272,
      "|id": 273,
      "|ay": 274,
      "|gen": 275,
      "|ith": 276,
      "|ru": 277,
      "|ce": 278,
      "|ct": 279,
      "Sch": 280,
      "im": 281,
      "sich": 282,
      "he": 283,
      "|ehr": 284,
      "nicht": 285,
      "|th": 286,
      "|if": 287,
      "zu": 288,
      "|op": 289,
      "auf": 290,
      "|av": 291,
      "|ass": 292,
      "|och": 293,
      "von": 294,
      "|ik": 295,
      "|end": 296,
      "un": 297,
      "as": 298,
      "with": 299,
      "sch": 300,
      "|pp": 301,
      "Th": 302,
      "|ei": 303,
      "|ef": 304,
      "mit": 305,
      "|ben": 306,
      "war": 307,
      "you": 308,
      "|ech": 309,
      "|ak": 310,
      "|all": 311,
      "|ill": 312,
      "|ag": 313,
      "con": 314,
      "|ort": 315,
      "Er": 316,
      "|nt": 317,
      "|ld": 318,
      "des": 319,
      "aus": 320,
      "sp": 321,
      "He": 322,
      "|und": 323,
      "|ain": 324,
      "|ib": 325,
      "that": 326,
      "wir": 327,
      "|art": 328,
      "man": 329,
      "|od": 330,
      "wur": 331,
      "|ast": 332,
      "es": 333,
      "|ew": 334,
      "|rom": 335,
      "|ant": 336,
      "eine": 337,
      "|se": 338,
      "|kt": 339,
      "|au": 340,
      "|etz": 341,
      "|af": 342,
      "|enn": 343,
      "|ep": 344,
      "it": 345,
      "not": 346,
      "|ht": 347,
      "|iel": 348,
      "sein": 349,
      "|our": 350,
      "dem": 351,
      "wh": 352,
      "com": 353,
      "pro": 354,
      "ab": 355,
      "|oll": 356,
      "hat": 357,
      "Der": 358,
      "|men": 359,
      "so": 360,
      "at": 361,
      "ih": 362,
      "|ert": 363,
      "Sie": 364,
      "|ave": 365,
      "|ern": 366,
      "sie": 367,
      "ex": 368,
      "|ang": 369,
      "|uss": 370,
      "|ust": 371,
      "Al": 372,
      "his": 373,
      "ch": 374,
      "|ive": 375,
      "|ug": 376,
      "|ub": 377,
      "sh": 378,
      "|aus": 379,
      "An": 380,
      "|ine": 381,
      "sind": 382,
      "|ien": 383,
      "wurde": 384,
      "|eb": 385,
      "|og": 386,
      "from": 387,
      "auch": 388,
      "|ally": 389,
      "|ren": 390,
      "|ischen": 391,
      "also": 392,
      "fuer": 393,
      "|her": 394,
      "|mer": 395,
      "this": 396,
      "|ity": 397,
      "|rie": 398,
      "|ost": 399,
      "|ap": 400,
      "re": 401,
      "have": 402,
      "|ud": 403,
      "Ver": 404,
      "|ip": 405,
      "|ard": 406,
      "Das": 407,
      "|ame": 408,
      "|ear": 409,
      "wer": 410,
      "|eber": 411,
      "can": 412,
      "do": 413,
      "or": 414,
      "Sp": 415,
      "|esch": 416,
      "It": 417,
      "|iz": 418,
      "|ore": 419,
      "|ok": 420,
      "|erm": 421,
      "all": 422,
      "|ran": 423,
      "|sen": 424,
      "|urch": 425,
      "by": 426,
      "|ong": 427,
      "dies": 428,
      "ne": 429,
      "|ould": 430,
      "wird": 431,
      "|ate": 432,
      "me": 433,
      "|aet": 434,
      "wor": 435,
      "|elt": 436,
      "Un": 437,
      "werden": 438,
      "|eck": 439,
      "|ous": 440,
      "Wh": 441,
      "|sp": 442,
      "|oh": 443,
      "|ial": 444,
      "|igen": 445,
      "has": 446,
      "|ated": 447,
      "Ein": 448,
      "her": 449,
      "wie": 450,
      "|uen": 451,
      "|ne": 452,
      "|ild": 453,
      "|ze": 454,
      "|ick": 455,
      "se": 456,
      "ueber": 457,
      "we": 458,
      "nach": 459,
      "|ungen": 460,
      "noch": 461,
      "|ue": 462,
      "|ight": 463,
      "|ater": 464,
      "|ect": 465,
      "were": 466,
      "|ian": 467,
      "|out": 468,
      "lo": 469,
      "|ia": 470,
      "ich": 471,
      "|iert": 472,
      "|we": 473,
      "|ff": 474,
      "|schaf": 475,
      "tim": 476,
      "|rit": 477,
      "|ack": 478,
      "vor": 479,
      "pr": 480,
      "einen": 481,
      "|pt": 482,
      "en": 483,
      "|eren": 484,
      "am": 485,
      "comp": 486,
      "|ure": 487,
      "de": 488,
      "|ition": 489,
      "|aen": 490,
      "Es": 491,
      "|ste": 492,
      "there": 493,
      "|ark": 494,
      "one": 495,
      "|tern": 496,
      "|ens": 497,
      "co": 498,
      "Ar": 499,
      "pla": 500,
      "|ahr": 501,
      "ar": 502,
      "|ord": 503,
      "le": 504,
      "zw": 505,
      "|ische": 506,
      "|chen": 507,
      "Ch": 508,
      "|eine": 509,
      "go": 510,
      "|ied": 511,
      "|cc": 512,
      "|ome": 513,
      "|ely": 514,
      "|ont": 515,
      "|ige": 516,
      "|one": 517,
      "|iss": 518,
      "|ae": 519,
      "|ment": 520,
      "kann": 521,
      "|ger": 522,
      "|fter": 523,
      "|per": 524,
      "tra": 525,
      "|orm": 526,
      "|iff": 527,
      "gro": 528,
      "|ther": 529,
      "du": 530,
      "hab": 531,
      "us": 532,
      "Mit": 533,
      "|ice": 534,
      "mo": 535,
      "um": 536,
      "|egen": 537,
      "|age": 538,
      "|ete": 539,
      "|wo": 540,
      "|qu": 541,
      "will": 542,
      "time": 543,
      "ad": 544,
      "bei": 545,
      "|ute": 546,
      "|lo": 547,
      "|ry": 548,
      "unter": 549,
      "Im": 550,
      "This": 551,
      "ent": 552,
      "work": 553,
      "|ction": 554,
      "Pro": 555,
      "|ungs": 556,
      "|ult": 557,
      "durch": 558,
      "|alt": 559,
      "|du": 560,
      "Nach": 561,
      "ag": 562,
      "|ire": 563,
      "nur": 564,
      "su": 565,
      "|ehen": 566,
      "part": 567,
      "off": 568,
      "zur": 569,
      "Dies": 570,
      "|urg": 571,
      "|los": 572,
      "zum": 573,
      "|omm": 574,
      "|ek": 575,
      "einer": 576,
      "res": 577,
      "|ise": 578,
      "|land": 579,
      "|etzt": 580,
      "Auf": 581,
      "out": 582,
      "|ical": 583,
      "|ve": 584,
      "|ish": 585,
      "up": 586,
      "|sten": 587,
      "|ake": 588,
      "|way": 589,
      "|schaft": 590,
      "no": 591,
      "|erk": 592,
      "|ings": 593,
      "|ike": 594,
      "|itz": 595,
      "|ner": 596,
      "|auf": 597,
      "|sel": 598,
      "kn": 599,
      "|nen": 600,
      "mehr": 601,
      "So": 602,
      "|anz": 603,
      "int": 604,
      "|ond": 605,
      "|ary": 606,
      "einem": 607,
      "Le": 608,
      "|ac": 609,
      "gen": 610,
      "|adt": 611,
      "|ide": 612,
      "your": 613,
      "|ink": 614,
      "|gt": 615,
      "|ibt": 616,
      "|ound": 617,
      "|irst": 618,
      "|ase": 619,
      "only": 620,
      "|ehl": 621,
      "geh": 622,
      "|wn": 623,
      "Or": 624,
      "|ett": 625,
      "Be": 626,
      "bes": 627,
      "|geb": 628,
      "ihr": 629,
      "|ven": 630,
      "|ail": 631,
      "|rei": 632,
      "ste": 633,
      "|beit": 634,
      "oder": 635,
      "te": 636,
      "|ob": 637,
      "|itt": 638,
      "had": 639,
      "Aus": 640,
      "|ueck": 641,
      "|ree": 642,
      "|amp": 643,
      "|ors": 644,
      "There": 645,
      "|be": 646,
      "|uehr": 647,
      "|igh": 648,
      "year": 649,
      "|ade": 650,
      "|ign": 651,
      "rec": 652,
      "Ab": 653,
      "|able": 654,
      "two": 655,
      "|assen": 656,
      "|fl": 657,
      "|very": 658,
      "|me": 659,
      "You": 660,
      "|unt": 661,
      "|cht": 662,
      "aber": 663,
      "|als": 664,
      "Zeit": 665,
      "cont": 666,
      "dass": 667,
      "app": 668,
      "soll": 669,
      "|ric": 670,
      "Ne": 671,
      "|atz": 672,
      "bet": 673,
      "|les": 674,
      "first": 675,
      "jed": 676,
      "|che": 677,
      "|ss": 678,
      "she": 679,
      "bec": 680,
      "|are": 681,
      "|lichen": 682,
      "|reich": 683,
      "Ich": 684,
      "|ons": 685,
      "|att": 686,
      "She": 687,
      "|ges": 688,
      "How": 689,
      "Her": 690,
      "|ph": 691,
      "Vor": 692,
      "weit": 693,
      "|ions": 694,
      "|own": 695,
      "Ber": 696,
      "they": 697,
      "qu": 698,
      "|ite": 699,
      "|ennen": 700,
      "|ations": 701,
      "him": 702,
      "|amm": 703,
      "|oer": 704,
      "|ft": 705,
      "|erv": 706,
      "|ank": 707,
      "|erman": 708,
      "ro": 709,
      "|ieren": 710,
      "|liche": 711,
      "|ler": 712,
      "get": 713,
      "|ents": 714,
      "lie": 715,
      "bef": 716,
      "again": 717,
      "haben": 718,
      "|up": 719,
      "like": 720,
      "|rat": 721,
      "ko": 722,
      "Fl": 723,
      "|burg": 724,
      "|eut": 725,
      "any": 726,
      "|ivers": 727,
      "reg": 728,
      "|ational": 729,
      "but": 730,
      "|lin": 731,
      "|fen": 732,
      "|ces": 733,
      "its": 734,
      "wieder": 735,
      "|leich": 736,
      "|aech": 737,
      "Te": 738,
      "|ath": 739,
      "fl": 740,
      "|gel": 741,
      "|ance": 742,
      "more": 743,
      "other": 744,
      "into": 745,
      "|ans": 746,
      "|hal": 747,
      "|olog": 748,
      "|keit": 749,
      "We": 750,
      "|ahl": 751,
      "German": 752,
      "alle": 753,
      "cl": 754,
      "sc": 755,
      "|annt": 756,
      "la": 757,
      "mus": 758,
      "pl": 759,
      "|ever": 760,
      "been": 761,
      "over": 762,
      "|ommen": 763,
      "|az": 764,
      "|eln": 765,
      "beg": 766,
      "dar": 767,
      "mal": 768,
      "|ho": 769,
      "mach": 770,
      "about": 771,
      "dis": 772,
      "schon": 773,
      "|old": 774,
      "Man": 775,
      "wurden": 776,
      "|mal": 777,
      "|amil": 778,
      "stud": 779,
      "Do": 780,
      "Mar": 781,
      "|urn": 782,
      "|zeit": 783,
      "play": 784,
      "sel": 785,
      "bis": 786,
      "|aehr": 787,
      "\".": 788,
      "bu": 789,
      "|ory": 790,
      "Am": 791,
      "|essen": 792,
      "|hen": 793,
      "|omet": 794,
      "|tw": 795,
      "|oc": 796,
      "rel": 797,
      "new": 798,
      "|gl": 799,
      "|ubl": 800,
      "|ierte": 801,
      "bo": 802,
      "pe": 803,
      "Schw": 804,
      "|ret": 805,
      "|schen": 806,
      "does": 807,
      "|emein": 808,
      "still": 809,
      "imp": 810,
      "end": 811,
      "loc": 812,
      "|ister": 813,
      "|els": 814,
      "fin": 815,
      "zwei": 816,
      "gibt": 817,
      "At": 818,
      "their": 819,
      "|read": 820,
      "|gh": 821,
      "per": 822,
      "|its": 823,
      "|dition": 824,
      "muss": 825,
      "|erd": 826,
      "ges": 827,
      "|bar": 828,
      "|oss": 829,
      "my": 830,
      "|utz": 831,
      "|uring": 832,
      "|ried": 833,
      "After": 834,
      "For": 835,
      "|elle": 836,
      "|ress": 837,
      "What": 838,
      "|imm": 839,
      "|pl": 840,
      "seine": 841,
      "bel": 842,
      "|form": 843,
      "|iet": 844,
      "|roug": 845,
      "Wie": 846,
      "|ium": 847,
      "Land": 848,
      "|inder": 849,
      "|ron": 850,
      "|ellen": 851,
      "Gru": 852,
      "|io": 853,
      "|eld": 854,
      "after": 855,
      "should": 856,
      "mir": 857,
      "Re": 858,
      "cons": 859,
      "|ange": 860,
      "|fol": 861,
      "|ahn": 862,
      "used": 863,
      "|ingen": 864,
      "|iger": 865,
      "|atur": 866,
      "|ilt": 867,
      "long": 868,
      "|fer": 869,
      "ind": 870,
      "|app": 871,
      "well": 872,
      "|oin": 873,
      "ins": 874,
      "gew": 875,
      "diff": 876,
      "every": 877,
      "now": 878,
      "|oth": 879,
      "then": 880,
      "|red": 881,
      "|ious": 882,
      "|net": 883,
      "|act": 884,
      "|res": 885,
      "|ool": 886,
      "viel": 887,
      "|hr": 888,
      "seiner": 889,
      "comm": 890,
      "|ellt": 891,
      "who": 892,
      "ge": 893,
      "|issen": 894,
      "|ced": 895,
      "Was": 896,
      "|ilm": 897,
      "would": 898,
      "|aut": 899,
      "just": 900,
      "|ause": 901,
      "|inn": 902,
      "Reg": 903,
      "|lies": 904,
      "Stadt": 905,
      "|onn": 906,
      "dist": 907,
      "act": 908,
      "uns": 909,
      "Wir": 910,
      "|xt": 911,
      "dieser": 912,
      "|ucht": 913,
      "immer": 914,
      "|ople": 915,
      "|ose": 916,
      "bl": 917,
      "rep": 918,
      "|ible": 919,
      "kein": 920,
      "|ism": 921,
      "His": 922,
      "most": 923,
      "which": 924,
      "|ri": 925,
      "|ym": 926,
      "ele": 927,
      "|ohn": 928,
      "|ken": 929,
      "pre": 930,
      "dr": 931,
      "|iele": 932,
      "On": 933,
      "|igt": 934,
      "|ues": 935,
      "|olle": 936,
      "hier": 937,
      "|ient": 938,
      "very": 939,
      "That": 940,
      "|vel": 941,
      "some": 942,
      "rem": 943,
      "hin": 944,
      "ber": 945,
      "|gest": 946,
      "|heit": 947,
      "|gend": 948,
      "|ehn": 949,
      "They": 950,
      "gel": 951,
      "|ble": 952,
      "|ile": 953,
      "|ward": 954,
      "car": 955,
      "etw": 956,
      "|ahren": 957,
      "Ma": 958,
      "Fra": 959,
      "But": 960,
      "|ider": 961,
      "|rough": 962,
      "|ock": 963,
      "Als": 964,
      "|orn": 965,
      "exp": 966,
      "|stand": 967,
      "under": 968,
      "here": 969,
      "|bst": 970,
      "|berg": 971,
      "br": 972,
      "|isten": 973,
      "bek": 974,
      "Unter": 975,
      "|mp": 976,
      "inter": 977,
      "En": 978,
      "|uth": 979,
      "people": 980,
      "Bei": 981,
      "|aupt": 982,
      "|wer": 983,
      "|yst": 984,
      "want": 985,
      "Is": 986,
      "|itaet": 987,
      "|fach": 988,
      "sm": 989,
      "|ys": 990,
      "And": 991,
      "did": 992,
      "As": 993,
      "best": 994,
      "|zeich": 995,
      "them": 996,
      "pol": 997,
      "back": 998,
      "|ways": 999,
      "hand": 1000,
      "|ald": 1001,
      "|gr": 1002,
      "koennen": 1003,
      "|ale": 1004,
      "|ular": 1005,
      "Pl": 1006,
      "|hed": 1007,
      "|gan": 1008,
      "could": 1009,
      "Mus": 1010,
      "inc": 1011,
      "know": 1012,
      "|acht": 1013,
      "|fall": 1014,
      "Fran": 1015,
      "Univers": 1016,
      "Auch": 1017,
      "|eft": 1018,
      "|oen": 1019,
      "sec": 1020,
      "|ets": 1021,
      "|ready": 1022,
      "Um": 1023,
      "Diese": 1024,
      "|ster": 1025,
      "|aten": 1026,
      "par": 1027,
      "|pen": 1028,
      "|fe": 1029,
      "|abei": 1030,
      "call": 1031,
      "how": 1032,
      "|aeter": 1033,
      "tr": 1034,
      "War": 1035,
      "same": 1036,
      "|air": 1037,
      "already": 1038,
      "|ific": 1039,
      "hatte": 1040,
      "|ystem": 1041,
      "|ued": 1042,
      "Gesch": 1043,
      "|ift": 1044,
      "Kl": 1045,
      "main": 1046,
      "Ste": 1047,
      "|igkeit": 1048,
      "Eur": 1049,
      "many": 1050,
      "|ll": 1051,
      "|ays": 1052,
      "heute": 1053,
      "acc": 1054,
      "three": 1055,
      "|other": 1056,
      "Br": 1057,
      "Kar": 1058,
      "|entlich": 1059,
      "|zen": 1060,
      "Bl": 1061,
      "|ins": 1062,
      "|ammen": 1063,
      "through": 1064,
      "|tra": 1065,
      "wenn": 1066,
      "|hing": 1067,
      "|ix": 1068,
      "|asse": 1069,
      "|ma": 1070,
      "years": 1071,
      "found": 1072,
      "Par": 1073,
      "|ieb": 1074,
      "waren": 1075,
      "|eter": 1076,
      "|egt": 1077,
      "city": 1078,
      "|indet": 1079,
      "ihre": 1080,
      "|ual": 1081,
      "|itte": 1082,
      "|ently": 1083,
      "sub": 1084,
      "keine": 1085,
      "lang": 1086,
      "Geb": 1087,
      "place": 1088,
      "|unkt": 1089,
      "|ke": 1090,
      "always": 1091,
      "|stru": 1092,
      "|ities": 1093,
      "|dern": 1094,
      "|ember": 1095,
      "|vent": 1096,
      "|eff": 1097,
      "name": 1098,
      "|round": 1099,
      "|ved": 1100,
      "dec": 1101,
      "than": 1102,
      "produ": 1103,
      "diese": 1104,
      "eing": 1105,
      "ob": 1106,
      "jedoch": 1107,
      "Fre": 1108,
      "|ough": 1109,
      "If": 1110,
      "|let": 1111,
      "liegt": 1112,
      "|ates": 1113,
      "|ives": 1114,
      "dam": 1115,
      "|rist": 1116,
      "|aer": 1117,
      "need": 1118,
      "|ace": 1119,
      "|rich": 1120,
      "way": 1121,
      "|entr": 1122,
      "dire": 1123,
      "|lage": 1124,
      "sehr": 1125,
      "|agen": 1126,
      "|ohl": 1127,
      "Se": 1128,
      "|ife": 1129,
      "|ters": 1130,
      "|ower": 1131,
      "Eine": 1132,
      "|off": 1133,
      "Jahr": 1134,
      "ass": 1135,
      "|unden": 1136,
      "|amen": 1137,
      "|ott": 1138,
      "|ommt": 1139,
      "|omp": 1140,
      "|ather": 1141,
      "form": 1142,
      "Welt": 1143,
      "gre": 1144,
      "|ement": 1145,
      "vom": 1146,
      "tran": 1147,
      "|oren": 1148,
      "|ule": 1149,
      "|day": 1150,
      "gef": 1151,
      "Bo": 1152,
      "|ollow": 1153,
      "|orth": 1154,
      "ger": 1155,
      "publ": 1156,
      "Sa": 1157,
      "Mo": 1158,
      "geb": 1159,
      "child": 1160,
      "|gesch": 1161,
      "|arm": 1162,
      "Bes": 1163,
      "|ood": 1164,
      "|ks": 1165,
      "Ad": 1166,
      "|get": 1167,
      "Zw": 1168,
      "versch": 1169,
      "|ually": 1170,
      "|orf": 1171,
      "mich": 1172,
      "|ants": 1173,
      "drei": 1174,
      "what": 1175,
      "|weise": 1176,
      "if": 1177,
      "ihm": 1178,
      "Kon": 1179,
      "|aum": 1180,
      "dann": 1181,
      "|ehmen": 1182,
      "gleich": 1183,
      "|yp": 1184,
      "|eder": 1185,
      "|ict": 1186,
      "bro": 1187,
      "|richt": 1188,
      "mein": 1189,
      "school": 1190,
      "bra": 1191,
      "Tra": 1192,
      "doch": 1193,
      "Ges": 1194,
      "|ional": 1195,
      "da": 1196,
      "|ines": 1197,
      "Fuer": 1198,
      "made": 1199,
      "spec": 1200,
      "|ischer": 1201,
      "look": 1202,
      "|usammen": 1203,
      "|elf": 1204,
      "gra": 1205,
      "|ative": 1206,
      "However": 1207,
      "stand": 1208,
      "|aend": 1209,
      "|reis": 1210,
      "fe": 1211,
      "ph": 1212,
      "Gro": 1213,
      "With": 1214,
      "sur": 1215,
      "gut": 1216,
      "|stell": 1217,
      "gesch": 1218,
      "|ics": 1219,
      "etwas": 1220,
      "|ieder": 1221,
      "beh": 1222,
      "|irt": 1223,
      "|erent": 1224,
      "|teil": 1225,
      "|oint": 1226,
      "Europ": 1227,
      "Deut": 1228,
      "|ince": 1229,
      "Berlin": 1230,
      "four": 1231,
      "sol": 1232,
      "Auss": 1233,
      "build": 1234,
      "|self": 1235,
      "konn": 1236,
      "|zu": 1237,
      "too": 1238,
      "|echn": 1239,
      "vers": 1240,
      "El": 1241,
      "Wenn": 1242,
      "old": 1243,
      "mar": 1244,
      "|ielt": 1245,
      "own": 1246,
      "|ially": 1247,
      "spe": 1248,
      "supp": 1249,
      "|alk": 1250,
      "Kinder": 1251,
      "later": 1252,
      "|alten": 1253,
      "pres": 1254,
      "son": 1255,
      "even": 1256,
      "fre": 1257,
      "|eten": 1258,
      "Teil": 1259,
      "right": 1260,
      "follow": 1261,
      "Du": 1262,
      "Men": 1263,
      "num": 1264,
      "All": 1265,
      "became": 1266,
      "located": 1267,
      "when": 1268,
      "Haupt": 1269,
      "Gra": 1270,
      "Zu": 1271,
      "|aehl": 1272,
      "take": 1273,
      "|rieg": 1274,
      "einfach": 1275,
      "sollte": 1276,
      "|sche": 1277,
      "area": 1278,
      "Ge": 1279,
      "mon": 1280,
      "|hip": 1281,
      "|enden": 1282,
      "verb": 1283,
      "|ically": 1284,
      "|erson": 1285,
      "Wer": 1286,
      "ho": 1287,
      "Me": 1288,
      "|mann": 1289,
      "Und": 1290,
      "cour": 1291,
      "|ander": 1292,
      "Pr": 1293,
      "weiter": 1294,
      "|liess": 1295,
      "cre": 1296,
      "|iver": 1297,
      "Pol": 1298,
      "vier": 1299,
      "|ital": 1300,
      "Ih": 1301,
      "|thing": 1302,
      "|ders": 1303,
      "poss": 1304,
      "verw": 1305,
      "|ished": 1306,
      "|urz": 1307,
      "To": 1308,
      "|rict": 1309,
      "geht": 1310,
      "bed": 1311,
      "|lease": 1312,
      "|stadt": 1313,
      "gegen": 1314,
      "|ina": 1315,
      "serv": 1316,
      "habe": 1317,
      "Hand": 1318,
      "|eglich": 1319,
      "dep": 1320,
      "|ipp": 1321,
      "import": 1322,
      "|heim": 1323,
      "selbst": 1324,
      "famil": 1325,
      "When": 1326,
      "bas": 1327,
      "|fuehr": 1328,
      "ben": 1329,
      "|ats": 1330,
      "|ists": 1331,
      "train": 1332,
      "|ived": 1333,
      "Str": 1334,
      "|akes": 1335,
      "wen": 1336,
      "eines": 1337,
      "somet": 1338,
      "|asser": 1339,
      "Leben": 1340,
      "|unk": 1341,
      "|ierung": 1342,
      "high": 1343,
      "|iter": 1344,
      "bre": 1345,
      "kle": 1346,
      "seinen": 1347,
      "ac": 1348,
      "ihn": 1349,
      "|vor": 1350,
      "|ized": 1351,
      "lar": 1352,
      "|uenf": 1353,
      "|ween": 1354,
      "called": 1355,
      "No": 1356,
      "|osition": 1357,
      "Tod": 1358,
      "|esen": 1359,
      "Gemein": 1360,
      "|nah": 1361,
      "fr": 1362,
      "Dar": 1363,
      "hist": 1364,
      "deut": 1365,
      "che": 1366,
      "ref": 1367,
      "different": 1368,
      "|row": 1369,
      "Seine": 1370,
      "|igin": 1371,
      "Seit": 1372,
      "fuehr": 1373,
      "ganz": 1374,
      "Ho": 1375,
      "ear": 1376,
      "start": 1377,
      "|nis": 1378,
      "between": 1379,
      "wa": 1380,
      "think": 1381,
      "Sta": 1382,
      "|ows": 1383,
      "|ody": 1384,
      "|rib": 1385,
      "zurueck": 1386,
      "|urt": 1387,
      "|oes": 1388,
      "erst": 1389,
      "Ent": 1390,
      "Dan": 1391,
      "during": 1392,
      "|aelt": 1393,
      "sow": 1394,
      "make": 1395,
      "|hne": 1396,
      "|ccess": 1397,
      "good": 1398,
      "gu": 1399,
      "cap": 1400,
      "|bo": 1401,
      "geho": 1402,
      "water": 1403,
      "|ason": 1404,
      "bere": 1405,
      "nichts": 1406,
      "|gru": 1407,
      "often": 1408,
      "art": 1409,
      "Gen": 1410,
      "Bund": 1411,
      "|ieden": 1412,
      "col": 1413,
      "pra": 1414,
      "def": 1415,
      "gar": 1416,
      "kommt": 1417,
      "|wards": 1418,
      "last": 1419,
      "|enk": 1420,
      "|uft": 1421,
      "Min": 1422,
      "these": 1423,
      "|ativ": 1424,
      "|velop": 1425,
      "Hier": 1426,
      "Sh": 1427,
      "Co": 1428,
      "Wor": 1429,
      "hel": 1430,
      "|mitt": 1431,
      "|reck": 1432,
      "sl": 1433,
      "|min": 1434,
      "fol": 1435,
      "member": 1436,
      "small": 1437,
      "|ject": 1438,
      "red": 1439,
      "spaeter": 1440,
      "|ender": 1441,
      "|emp": 1442,
      "char": 1443,
      "diesem": 1444,
      "Sein": 1445,
      "|lung": 1446,
      "|ution": 1447,
      "|ustr": 1448,
      "|cy": 1449,
      "compan": 1450,
      "Can": 1451,
      "such": 1452,
      "cur": 1453,
      "verl": 1454,
      "konnte": 1455,
      "|lag": 1456,
      "|geben": 1457,
      "sign": 1458,
      "sever": 1459,
      "|ude": 1460,
      "|werk": 1461,
      "|aeng": 1462,
      "Aut": 1463,
      "viele": 1464,
      "|vers": 1465,
      "much": 1466,
      "|nde": 1467,
      "|folg": 1468,
      "Kir": 1469,
      "|ited": 1470,
      "count": 1471,
      "|fess": 1472,
      "|str": 1473,
      "Ort": 1474,
      "|ling": 1475,
      "success": 1476,
      "min": 1477,
      "|ately": 1478,
      "nam": 1479,
      "|ruck": 1480,
      "|gar": 1481,
      "|ichte": 1482,
      "med": 1483,
      "Arbeit": 1484,
      "|piel": 1485,
      "day": 1486,
      "consider": 1487,
      "dont": 1488,
      "|led": 1489,
      "eigen": 1490,
      "sim": 1491,
      "anderen": 1492,
      "|icip": 1493,
      "beim": 1494,
      "addition": 1495,
      "develop": 1496,
      "pass": 1497,
      "|pro": 1498,
      "Ex": 1499,
      "|esse": 1500,
      "known": 1501,
      "|ueber": 1502,
      "|ident": 1503,
      "head": 1504,
      "|ature": 1505,
      "|arbeit": 1506,
      "Spiel": 1507,
      "air": 1508,
      "|eng": 1509,
      "Ober": 1510,
      "|ves": 1511,
      "|halb": 1512,
      "|ful": 1513,
      "|ator": 1514,
      "second": 1515,
      "without": 1516,
      "Ph": 1517,
      "use": 1518,
      "|aster": 1519,
      "|ekt": 1520,
      "|haus": 1521,
      "Ant": 1522,
      "|stit": 1523,
      "several": 1524,
      "|ily": 1525,
      "|rieb": 1526,
      "|rag": 1527,
      "|etter": 1528,
      "Christ": 1529,
      "schw": 1530,
      "Ind": 1531,
      "cle": 1532,
      "|esser": 1533,
      "|esst": 1534,
      "|halten": 1535,
      "remain": 1536,
      "family": 1537,
      "Ro": 1538,
      "town": 1539,
      "|cial": 1540,
      "|endet": 1541,
      "|echt": 1542,
      "commun": 1543,
      "|ief": 1544,
      "jetzt": 1545,
      "|ende": 1546,
      "run": 1547,
      "cor": 1548,
      "being": 1549,
      "seinem": 1550,
      "|kehr": 1551,
      "down": 1552,
      "att": 1553,
      "open": 1554,
      "today": 1555,
      "arbeit": 1556,
      "steht": 1557,
      "important": 1558,
      "|inter": 1559,
      "|ages": 1560,
      "str": 1561,
      "Aber": 1562,
      "|eum": 1563,
      "fru": 1564,
      "nie": 1565,
      "|inger": 1566,
      "Ger": 1567,
      "|uck": 1568,
      "Von": 1569,
      "|wick": 1570,
      "lot": 1571,
      "term": 1572,
      "team": 1573,
      "see": 1574,
      "Durch": 1575,
      "fuenf": 1576,
      "|aw": 1577,
      "|rach": 1578,
      "left": 1579,
      "gr": 1580,
      "ser": 1581,
      "intern": 1582,
      "|gew": 1583,
      "|ahre": 1584,
      "land": 1585,
      "|asch": 1586,
      "|ides": 1587,
      "One": 1588,
      "system": 1589,
      "|ision": 1590,
      "children": 1591,
      "pop": 1592,
      "|outh": 1593,
      "|rot": 1594,
      "|dem": 1595,
      "|ctor": 1596,
      "|erdem": 1597,
      "|ouse": 1598,
      "Mal": 1599,
      "clos": 1600,
      "ret": 1601,
      "|akt": 1602,
      "Bet": 1603,
      "emp": 1604,
      "|ield": 1605,
      "|bert": 1606,
      "|hof": 1607,
      "music": 1608,
      "cann": 1609,
      "|ester": 1610,
      "Mitt": 1611,
      "bekannt": 1612,
      "|ating": 1613,
      "ke": 1614,
      "var": 1615,
      "besch": 1616,
      "took": 1617,
      "einz": 1618,
      "put": 1619,
      "West": 1620,
      "|bau": 1621,
      "district": 1622,
      "Ba": 1623,
      "|br": 1624,
      "|for": 1625,
      "|ms": 1626,
      "ersten": 1627,
      "|oph": 1628,
      "|etzen": 1629,
      "|ultur": 1630,
      "gener": 1631,
      "|aechst": 1632,
      "trans": 1633,
      "befindet": 1634,
      "|oman": 1635,
      "polit": 1636,
      "Da": 1637,
      "woll": 1638,
      "world": 1639,
      "|aehrend": 1640,
      "beste": 1641,
      "University": 1642,
      "|ael": 1643,
      "|stein": 1644,
      "works": 1645,
      "writ": 1646,
      "disc": 1647,
      "met": 1648,
      "|tens": 1649,
      "dir": 1650,
      "happ": 1651,
      "lies": 1652,
      "|enten": 1653,
      "|cted": 1654,
      "complet": 1655,
      "Famil": 1656,
      "leg": 1657,
      "|azu": 1658,
      "|nung": 1659,
      "|unter": 1660,
      "bus": 1661,
      "star": 1662,
      "group": 1663,
      "hal": 1664,
      "|ilit": 1665,
      "|ull": 1666,
      "eng": 1667,
      "Gr": 1668,
      "|hin": 1669,
      "origin": 1670,
      "against": 1671,
      "Fahr": 1672,
      "mat": 1673,
      "|ser": 1674,
      "|inen": 1675,
      "|fu": 1676,
      "Grund": 1677,
      "zusammen": 1678,
      "|ght": 1679,
      "alles": 1680,
      "ihrer": 1681,
      "because": 1682,
      "bitte": 1683,
      "five": 1684,
      "times": 1685,
      "|falls": 1686,
      "Wasser": 1687,
      "|eres": 1688,
      "tw": 1689,
      "|ogra": 1690,
      "film": 1691,
      "|ump": 1692,
      "really": 1693,
      "worked": 1694,
      "Mon": 1695,
      "bla": 1696,
      "|rech": 1697,
      "|anden": 1698,
      "real": 1699,
      "Herr": 1700,
      "Kn": 1701,
      "Pa": 1702,
      "|ris": 1703,
      "el": 1704,
      "schn": 1705,
      "mu": 1706,
      "|ize": 1707,
      "|rop": 1708,
      "Film": 1709,
      "|urs": 1710,
      "mark": 1711,
      "andere": 1712,
      "ja": 1713,
      "|olf": 1714,
      "wuer": 1715,
      "Art": 1716,
      "ev": 1717,
      "organ": 1718,
      "|tend": 1719,
      "Hol": 1720,
      "possible": 1721,
      "|vert": 1722,
      "|unde": 1723,
      "During": 1724,
      "|angen": 1725,
      "|aben": 1726,
      "zwischen": 1727,
      "|rad": 1728,
      "must": 1729,
      "|tem": 1730,
      "|schaften": 1731,
      "resp": 1732,
      "Bundes": 1733,
      "Dam": 1734,
      "|immt": 1735,
      "something": 1736,
      "dabei": 1737,
      "life": 1738,
      "turn": 1739,
      "|geh": 1740,
      "Gre": 1741,
      "bar": 1742,
      "|lagen": 1743,
      "before": 1744,
      "|ivid": 1745,
      "church": 1746,
      "point": 1747,
      "|yn": 1748,
      "Its": 1749,
      "dich": 1750,
      "|ures": 1751,
      "Des": 1752,
      "Sued": 1753,
      "Bru": 1754,
      "letz": 1755,
      "|ppe": 1756,
      "sk": 1757,
      "|oten": 1758,
      "Deutsch": 1759,
      "|lass": 1760,
      "|aking": 1761,
      "|isen": 1762,
      "|eiden": 1763,
      "building": 1764,
      "Bar": 1765,
      "|org": 1766,
      "few": 1767,
      "able": 1768,
      "cannot": 1769,
      "dort": 1770,
      "care": 1771,
      "|ichtig": 1772,
      "Mann": 1773,
      "|ionen": 1774,
      "conc": 1775,
      "Car": 1776,
      "em": 1777,
      "|ept": 1778,
      "Verb": 1779,
      "eff": 1780,
      "inv": 1781,
      "occ": 1782,
      "Jahre": 1783,
      "side": 1784,
      "|ork": 1785,
      "|opp": 1786,
      "|ogen": 1787,
      "each": 1788,
      "|bach": 1789,
      "around": 1790,
      "got": 1791,
      "|uel": 1792,
      "These": 1793,
      "Frau": 1794,
      "Beg": 1795,
      "class": 1796,
      "Musik": 1797,
      "|zie": 1798,
      "|iation": 1799,
      "|cept": 1800,
      "Dabei": 1801,
      "|amt": 1802,
      "lassen": 1803,
      "World": 1804,
      "|man": 1805,
      "|earch": 1806,
      "Bau": 1807,
      "both": 1808,
      "erw": 1809,
      "public": 1810,
      "Gew": 1811,
      "|inden": 1812,
      "Vers": 1813,
      "find": 1814,
      "|ird": 1815,
      "Lu": 1816,
      "far": 1817,
      "|zial": 1818,
      "|eller": 1819,
      "|enter": 1820,
      "|rol": 1821,
      "|ross": 1822,
      "|ument": 1823,
      "gros": 1824,
      "|ese": 1825,
      "leb": 1826,
      "oper": 1827,
      "Every": 1828,
      "number": 1829,
      "|ugen": 1830,
      "|uchen": 1831,
      "|ittle": 1832,
      "|ball": 1833,
      "|reit": 1834,
      "Pf": 1835,
      "Schl": 1836,
      "verschieden": 1837,
      "val": 1838,
      "|uten": 1839,
      "law": 1840,
      "|ils": 1841,
      "Stud": 1842,
      "prov": 1843,
      "My": 1844,
      "|hel": 1845,
      "|ects": 1846,
      "constru": 1847,
      "next": 1848,
      "Gemeinde": 1849,
      "ze": 1850,
      "|staend": 1851,
      "New": 1852,
      "|bahn": 1853,
      "Europe": 1854,
      "Menschen": 1855,
      "Lo": 1856,
      "|ax": 1857,
      "|ppen": 1858,
      "|thers": 1859,
      "gehoert": 1860,
      "eben": 1861,
      "vil": 1862,
      "|ged": 1863,
      "spiel": 1864,
      "Tr": 1865,
      "ir": 1866,
      "beiden": 1867,
      "erste": 1868,
      "|over": 1869,
      "laesst": 1870,
      "Amer": 1871,
      "|schein": 1872,
      "Dort": 1873,
      "Mr": 1874,
      "|ison": 1875,
      "Germany": 1876,
      "Werk": 1877,
      "|iving": 1878,
      "short": 1879,
      "|icher": 1880,
      "belong": 1881,
      "|bild": 1882,
      "aut": 1883,
      "|ology": 1884,
      "Schn": 1885,
      "going": 1886,
      "Nord": 1887,
      "Some": 1888,
      "conn": 1889,
      "Mitgl": 1890,
      "machen": 1891,
      "tre": 1892,
      "bereits": 1893,
      "|aeh": 1894,
      "ohne": 1895,
      "|echte": 1896,
      "company": 1897,
      "|ius": 1898,
      "|schl": 1899,
      "|ior": 1900,
      "meist": 1901,
      "Ur": 1902,
      "|amer": 1903,
      "help": 1904,
      "det": 1905,
      "|lex": 1906,
      "damit": 1907,
      "Den": 1908,
      "sw": 1909,
      "zweit": 1910,
      "|lock": 1911,
      "|of": 1912,
      "|laub": 1913,
      "|tsp": 1914,
      "|etze": 1915,
      "|uh": 1916,
      "|ctions": 1917,
      "Ausserdem": 1918,
      "Bahn": 1919,
      "rest": 1920,
      "|igung": 1921,
      "|ime": 1922,
      "another": 1923,
      "Schul": 1924,
      "|isst": 1925,
      "|ament": 1926,
      "Ko": 1927,
      "Sw": 1928,
      "|iew": 1929,
      "abs": 1930,
      "|ahlreich": 1931,
      "Kle": 1932,
      "Vol": 1933,
      "Dem": 1934,
      "Qu": 1935,
      "|bt": 1936,
      "|eckt": 1937,
      "|sport": 1938,
      "|loss": 1939,
      "Will": 1940,
      "|uehl": 1941,
      "|asst": 1942,
      "Why": 1943,
      "Bed": 1944,
      "|ochen": 1945,
      "|ritt": 1946,
      "vis": 1947,
      "verst": 1948,
      "Gl": 1949,
      "free": 1950,
      "mag": 1951,
      "nun": 1952,
      "techn": 1953,
      "|ueh": 1954,
      "|raft": 1955,
      "|licher": 1956,
      "never": 1957,
      "away": 1958,
      "|haf": 1959,
      "oft": 1960,
      "Fe": 1961,
      "Jahren": 1962,
      "|zt": 1963,
      "|zeichnet": 1964,
      "Fried": 1965,
      "lead": 1966,
      "kam": 1967,
      "|med": 1968,
      "himself": 1969,
      "langu": 1970,
      "Ob": 1971,
      "gilt": 1972,
      "considered": 1973,
      "|lar": 1974,
      "|cess": 1975,
      "|orts": 1976,
      "where": 1977,
      "ihren": 1978,
      "|fore": 1979,
      "|zug": 1980,
      "erh": 1981,
      "|ably": 1982,
      "|echs": 1983,
      "Ihr": 1984,
      "po": 1985,
      "state": 1986,
      "Frank": 1987,
      "gab": 1988,
      "Alle": 1989,
      "|rieben": 1990,
      "gest": 1991,
      "|ments": 1992,
      "|len": 1993,
      "|gang": 1994,
      "|aeuf": 1995,
      "ble": 1996,
      "our": 1997,
      "|ches": 1998,
      "|ends": 1999,
      "Med": 2000,
      "rece": 2001,
      "came": 2002,
      "dre": 2003,
      "little": 2004,
      "|con": 2005,
      "|vo": 2006,
      "|aint": 2007,
      "connect": 2008,
      "colle": 2009,
      "|alen": 2010,
      "course": 2011,
      "Oh": 2012,
      "|zer": 2013,
      "south": 2014,
      "Fol": 2015,
      "|by": 2016,
      "|irat": 2017,
      "appear": 2018,
      "north": 2019,
      "statt": 2020,
      "|ationen": 2021,
      "|ience": 2022,
      "|ane": 2023,
      "station": 2024,
      "Today": 2025,
      "Wo": 2026,
      "|ingt": 2027,
      "|ecken": 2028,
      "Son": 2029,
      "typ": 2030,
      "|ffen": 2031,
      "allem": 2032,
      "|uenst": 2033,
      "Ende": 2034,
      "|ility": 2035,
      "Ham": 2036,
      "erk": 2037,
      "Universitaet": 2038,
      "wo": 2039,
      "|zw": 2040,
      "auth": 2041,
      "|schied": 2042,
      "Pra": 2043,
      "hund": 2044,
      "|fahr": 2045,
      "|esten": 2046,
      "|opf": 2047,
      "mov": 2048,
      "Kann": 2049,
      "fun": 2050,
      "|cle": 2051,
      "|schliess": 2052,
      "show": 2053,
      "est": 2054,
      "|abe": 2055,
      "|idd": 2056,
      "|zig": 2057,
      "|sk": 2058,
      "National": 2059,
      "|hes": 2060,
      "Damit": 2061,
      "Verw": 2062,
      "|erin": 2063,
      "played": 2064,
      "Sal": 2065,
      "voll": 2066,
      "Fern": 2067,
      "Ha": 2068,
      "national": 2069,
      "|oot": 2070,
      "|isk": 2071,
      "neue": 2072,
      "|aeus": 2073,
      "muessen": 2074,
      "offic": 2075,
      "contin": 2076,
      "Rep": 2077,
      "|ams": 2078,
      "read": 2079,
      "|ording": 2080,
      "curr": 2081,
      "Not": 2082,
      "Dieser": 2083,
      "Ap": 2084,
      "|achsen": 2085,
      "kommen": 2086,
      "|ness": 2087,
      "|most": 2088,
      "|ined": 2089,
      "book": 2090,
      "\",": 2091,
      "|hem": 2092,
      "|rechen": 2093,
      "top": 2094,
      "Intern": 2095,
      "result": 2096,
      "|ienst": 2097,
      "weiss": 2098,
      "darauf": 2099,
      "kurz": 2100,
      "|utter": 2101,
      "dra": 2102,
      "|agt": 2103,
      "Dann": 2104,
      "|rem": 2105,
      "denn": 2106,
      "Neben": 2107,
      "Weit": 2108,
      "light": 2109,
      "|bum": 2110,
      "bew": 2111,
      "Ital": 2112,
      "waere": 2113,
      "village": 2114,
      "|til": 2115,
      "|iven": 2116,
      "|ired": 2117,
      "|osed": 2118,
      "|zeug": 2119,
      "|erst": 2120,
      "|iness": 2121,
      "|uff": 2122,
      "case": 2123,
      "|imes": 2124,
      "won": 2125,
      "|uech": 2126,
      "|este": 2127,
      "|bed": 2128,
      "|ele": 2129,
      "|feld": 2130,
      "|wie": 2131,
      "|ereich": 2132,
      "Sohn": 2133,
      "bor": 2134,
      "zun": 2135,
      "ander": 2136,
      "Ju": 2137,
      "stehen": 2138,
      "lange": 2139,
      "sing": 2140,
      "|ones": 2141,
      "|ismus": 2142,
      "big": 2143,
      "|erous": 2144,
      "|ette": 2145,
      "|ierten": 2146,
      "perform": 2147,
      "line": 2148,
      "|gemein": 2149,
      "|inz": 2150,
      "Only": 2151,
      "Are": 2152,
      "gerade": 2153,
      "capital": 2154,
      "center": 2155,
      "mod": 2156,
      "|fort": 2157,
      "Who": 2158,
      "Deutschland": 2159,
      "Haus": 2160,
      "Ka": 2161,
      "fur": 2162,
      "toget": 2163,
      "Ze": 2164,
      "euch": 2165,
      "together": 2166,
      "zahlreich": 2167,
      "special": 2168,
      "Bew": 2169,
      "eas": 2170,
      "|bes": 2171,
      "|rift": 2172,
      "|ights": 2173,
      "Platz": 2174,
      "Fr": 2175,
      "|ash": 2176,
      "power": 2177,
      "|ene": 2178,
      "Mein": 2179,
      "vo": 2180,
      "|iges": 2181,
      "built": 2182,
      "wuerde": 2183,
      "|aden": 2184,
      "koenn": 2185,
      "gek": 2186,
      "|alter": 2187,
      "|reten": 2188,
      "|yl": 2189,
      "stre": 2190,
      "profess": 2191,
      "elect": 2192,
      "incl": 2193,
      "|iga": 2194,
      "week": 2195,
      "|riff": 2196,
      "|orgen": 2197,
      "|allen": 2198,
      "exist": 2199,
      "|lossen": 2200,
      "Flug": 2201,
      "international": 2202,
      "Sk": 2203,
      "|iner": 2204,
      "don": 2205,
      "|ov": 2206,
      "|rik": 2207,
      "|lauf": 2208,
      "Engl": 2209,
      "|ennt": 2210,
      "|ata": 2211,
      "|omin": 2212,
      "Now": 2213,
      "say": 2214,
      "six": 2215,
      "Lebens": 2216,
      "|lie": 2217,
      "|aid": 2218,
      "|itu": 2219,
      "prote": 2220,
      "histor": 2221,
      "|atuer": 2222,
      "|ought": 2223,
      "however": 2224,
      "Namen": 2225,
      "|stoff": 2226,
      "|ape": 2227,
      "Americ": 2228,
      "Pla": 2229,
      "fast": 2230,
      "|sam": 2231,
      "Inter": 2232,
      "Verein": 2233,
      "|aenger": 2234,
      "Ihre": 2235,
      "Ele": 2236,
      "Komm": 2237,
      "Please": 2238,
      "|igentlich": 2239,
      "|ots": 2240,
      "macht": 2241,
      "|endung": 2242,
      "better": 2243,
      "repres": 2244,
      "|aende": 2245,
      "|iod": 2246,
      "Heute": 2247,
      "Kre": 2248,
      "bin": 2249,
      "|oung": 2250,
      "|halt": 2251,
      "order": 2252,
      "|loy": 2253,
      "Then": 2254,
      "sehen": 2255,
      "|achen": 2256,
      "chang": 2257,
      "priv": 2258,
      "studied": 2259,
      "named": 2260,
      "|uz": 2261,
      "|iddle": 2262,
      "Fin": 2263,
      "Ist": 2264,
      "|krieg": 2265,
      "|fra": 2266,
      "process": 2267,
      "mehrere": 2268,
      "Nicht": 2269,
      "equ": 2270,
      "exc": 2271,
      "partic": 2272,
      "clear": 2273,
      "dieses": 2274,
      "sowie": 2275,
      "Joh": 2276,
      "bit": 2277,
      "|li": 2278,
      "Hoch": 2279,
      "|ps": 2280,
      "quick": 2281,
      "|punkt": 2282,
      "|aed": 2283,
      "|weg": 2284,
      "|ense": 2285,
      "hard": 2286,
      "|iden": 2287,
      "|gestellt": 2288,
      "married": 2289,
      "|minist": 2290,
      "Familie": 2291,
      "|reas": 2292,
      "gem": 2293,
      "|avon": 2294,
      "|augh": 2295,
      "Sc": 2296,
      "please": 2297,
      "|ulation": 2298,
      "|rank": 2299,
      "construction": 2300,
      "Gef": 2301,
      "|einander": 2302,
      "|abl": 2303,
      "conf": 2304,
      "desc": 2305,
      "bedeut": 2306,
      "Koen": 2307,
      "stark": 2308,
      "erfolg": 2309,
      "|omat": 2310,
      "|erne": 2311,
      "|uess": 2312,
      "Con": 2313,
      "del": 2314,
      "may": 2315,
      "tru": 2316,
      "|aff": 2317,
      "mean": 2318,
      "word": 2319,
      "Austr": 2320,
      "|ple": 2321,
      "|kommen": 2322,
      "|aj": 2323,
      "prob": 2324,
      "dest": 2325,
      "|ices": 2326,
      "Where": 2327,
      "others": 2328,
      "Bra": 2329,
      "|arten": 2330,
      "almost": 2331,
      "|uchs": 2332,
      "|aette": 2333,
      "|gebiet": 2334,
      "|blem": 2335,
      "Band": 2336,
      "Krieg": 2337,
      "west": 2338,
      "|iere": 2339,
      "|eile": 2340,
      "completely": 2341,
      "rad": 2342,
      "|ars": 2343,
      "|elte": 2344,
      "appro": 2345,
      "|osten": 2346,
      "Char": 2347,
      "adv": 2348,
      "|ality": 2349,
      "|unicip": 2350,
      "why": 2351,
      "Produ": 2352,
      "ur": 2353,
      "room": 2354,
      "everything": 2355,
      "Gu": 2356,
      "|pla": 2357,
      "|ames": 2358,
      "teil": 2359,
      "Ben": 2360,
      "May": 2361,
      "Nor": 2362,
      "|atter": 2363,
      "|unst": 2364,
      "exper": 2365,
      "rail": 2366,
      "|satz": 2367,
      "|umm": 2368,
      "requ": 2369,
      "|auer": 2370,
      "seit": 2371,
      "zie": 2372,
      "|abel": 2373,
      "studierte": 2374,
      "Vert": 2375,
      "Just": 2376,
      "fact": 2377,
      "|que": 2378,
      "groes": 2379,
      "gross": 2380,
      "mainly": 2381,
      "front": 2382,
      "|int": 2383,
      "einmal": 2384,
      "prop": 2385,
      "home": 2386,
      "|eher": 2387,
      "|echsel": 2388,
      "means": 2389,
      "father": 2390,
      "list": 2391,
      "large": 2392,
      "|grund": 2393,
      "Gegen": 2394,
      "gep": 2395,
      "|omen": 2396,
      "|eht": 2397,
      "|untain": 2398,
      "|aehlt": 2399,
      "cast": 2400,
      "person": 2401,
      "|ries": 2402,
      "|ichten": 2403,
      "things": 2404,
      "arch": 2405,
      "field": 2406,
      "|wirt": 2407,
      "Johann": 2408,
      "fest": 2409,
      "|fang": 2410,
      "ange": 2411,
      "enough": 2412,
      "keinen": 2413,
      "|ograph": 2414,
      "vol": 2415,
      "wel": 2416,
      "|oeff": 2417,
      "|tt": 2418,
      "|aur": 2419,
      "office": 2420,
      "Viel": 2421,
      "|gleich": 2422,
      "weitere": 2423,
      "|aetz": 2424,
      "|fahren": 2425,
      "|lae": 2426,
      "|verb": 2427,
      "|afuer": 2428,
      "Wil": 2429,
      "Tag": 2430,
      "fire": 2431,
      "som": 2432,
      "until": 2433,
      "comes": 2434,
      "|utzt": 2435,
      "Hal": 2436,
      "Rad": 2437,
      "Roman": 2438,
      "|vern": 2439,
      "|entral": 2440,
      "Bel": 2441,
      "bad": 2442,
      "milit": 2443,
      "oeff": 2444,
      "|uge": 2445,
      "|aterial": 2446,
      "hum": 2447,
      "|schule": 2448,
      "once": 2449,
      "diesen": 2450,
      "genau": 2451,
      "Even": 2452,
      "anim": 2453,
      "|cken": 2454,
      "hinter": 2455,
      "dazu": 2456,
      "bur": 2457,
      "longer": 2458,
      "great": 2459,
      "further": 2460,
      "|zahl": 2461,
      "stat": 2462,
      "|aetig": 2463,
      "usually": 2464,
      "|itch": 2465,
      "|ified": 2466,
      "lives": 2467,
      "|ention": 2468,
      "meisten": 2469,
      "Gener": 2470,
      "Ir": 2471,
      "|urm": 2472,
      "Spe": 2473,
      "|ization": 2474,
      "community": 2475,
      "author": 2476,
      "Bild": 2477,
      "Met": 2478,
      "due": 2479,
      "|dert": 2480,
      "present": 2481,
      "particular": 2482,
      "Go": 2483,
      "ed": 2484,
      "nah": 2485,
      "|less": 2486,
      "stop": 2487,
      "|genden": 2488,
      "From": 2489,
      "Rueck": 2490,
      "Vater": 2491,
      "wind": 2492,
      "|ker": 2493,
      "einige": 2494,
      "verm": 2495,
      "Danach": 2496,
      "Em": 2497,
      "|unc": 2498,
      "Mag": 2499,
      "band": 2500,
      "prom": 2501,
      "come": 2502,
      "Hel": 2503,
      "let": 2504,
      "|ktion": 2505,
      "Gel": 2506,
      "gru": 2507,
      "went": 2508,
      "|gn": 2509,
      "Bec": 2510,
      "|itel": 2511,
      "among": 2512,
      "ey": 2513,
      "fa": 2514,
      "young": 2515,
      "|son": 2516,
      "|aufen": 2517,
      "record": 2518,
      "former": 2519,
      "wirk": 2520,
      "opp": 2521,
      "|ilomet": 2522,
      "|lic": 2523,
      "|anze": 2524,
      "|atch": 2525,
      "init": 2526,
      "period": 2527,
      "|mittel": 2528,
      "represent": 2529,
      "De": 2530,
      "North": 2531,
      "ide": 2532,
      "|ances": 2533,
      "|rache": 2534,
      "|iste": 2535,
      "|duc": 2536,
      "charac": 2537,
      "Mittel": 2538,
      "schnell": 2539,
      "findet": 2540,
      "municip": 2541,
      "infl": 2542,
      "|aken": 2543,
      "assoc": 2544,
      "song": 2545,
      "|erg": 2546,
      "|ague": 2547,
      "design": 2548,
      "|racht": 2549,
      "|ians": 2550,
      "|stellung": 2551,
      "cant": 2552,
      "jem": 2553,
      "set": 2554,
      "sound": 2555,
      "Because": 2556,
      "Sol": 2557,
      "|heirat": 2558,
      "arr": 2559,
      "support": 2560,
      "besteht": 2561,
      "sett": 2562,
      "wohl": 2563,
      "|vious": 2564,
      "|ided": 2565,
      "administ": 2566,
      "Gross": 2567,
      "history": 2568,
      "Paul": 2569,
      "Person": 2570,
      "kom": 2571,
      "pur": 2572,
      "tun": 2573,
      "moeglich": 2574,
      "|uert": 2575,
      "rele": 2576,
      "Form": 2577,
      "Russ": 2578,
      "|bor": 2579,
      "|ley": 2580,
      "teach": 2581,
      "anything": 2582,
      "following": 2583,
      "Wohn": 2584,
      "Waehrend": 2585,
      "house": 2586,
      "miss": 2587,
      "wants": 2588,
      "ann": 2589,
      "|athol": 2590,
      "id": 2591,
      "|recht": 2592,
      "region": 2593,
      "started": 2594,
      "Buer": 2595,
      "post": 2596,
      "|rench": 2597,
      "|oney": 2598,
      "quest": 2599,
      "Ru": 2600,
      "position": 2601,
      "|tain": 2602,
      "|ination": 2603,
      "|oment": 2604,
      "|adem": 2605,
      "|emper": 2606,
      "wenig": 2607,
      "|lement": 2608,
      "Landes": 2609,
      "language": 2610,
      "|heiratet": 2611,
      "|ware": 2612,
      "|irk": 2613,
      "|aher": 2614,
      "|echts": 2615,
      "season": 2616,
      "Reich": 2617,
      "zunaechst": 2618,
      "naech": 2619,
      "|ehm": 2620,
      "|istic": 2621,
      "ext": 2622,
      "doesnt": 2623,
      "Karl": 2624,
      "Mitglied": 2625,
      "Ser": 2626,
      "dein": 2627,
      "|fa": 2628,
      "|iker": 2629,
      "|spru": 2630,
      "|bl": 2631,
      "|co": 2632,
      "club": 2633,
      "Here": 2634,
      "Kla": 2635,
      "give": 2636,
      "gehen": 2637,
      "reach": 2638,
      "|spiel": 2639,
      "half": 2640,
      "Fuss": 2641,
      "past": 2642,
      "|bs": 2643,
      "|ecess": 2644,
      "davon": 2645,
      "|laech": 2646,
      "|ternehmen": 2647,
      "black": 2648,
      "|hol": 2649,
      "manag": 2650,
      "round": 2651,
      "|line": 2652,
      "|dorf": 2653,
      "|err": 2654,
      "|atten": 2655,
      "Berg": 2656,
      "etwa": 2657,
      "yet": 2658,
      "keep": 2659,
      "Bef": 2660,
      "ging": 2661,
      "|quen": 2662,
      "local": 2663,
      "received": 2664,
      "Comm": 2665,
      "Som": 2666,
      "|ispiel": 2667,
      "|uren": 2668,
      "|eger": 2669,
      "|conom": 2670,
      "ten": 2671,
      "|ying": 2672,
      "|arily": 2673,
      "ant": 2674,
      "|essig": 2675,
      "progr": 2676,
      "|ected": 2677,
      "hoch": 2678,
      "|zogen": 2679,
      "|anc": 2680,
      "blieb": 2681,
      "|atuerlich": 2682,
      "Burg": 2683,
      "Natur": 2684,
      "kon": 2685,
      "|usch": 2686,
      "|etzung": 2687,
      "service": 2688,
      "Dre": 2689,
      "Mot": 2690,
      "allow": 2691,
      "Hauptstadt": 2692,
      "|inc": 2693,
      "|ively": 2694,
      "ausge": 2695,
      "Zweit": 2696,
      "irgend": 2697,
      "Res": 2698,
      "|uld": 2699,
      "death": 2700,
      "govern": 2701,
      "return": 2702,
      "Zur": 2703,
      "sei": 2704,
      "wall": 2705,
      "|ove": 2706,
      "|utt": 2707,
      "Weltkrieg": 2708,
      "includ": 2709,
      "Since": 2710,
      "|reg": 2711,
      "schoen": 2712,
      "entsp": 2713,
      "behind": 2714,
      "Ged": 2715,
      "Wald": 2716,
      "acht": 2717,
      "|wort": 2718,
      "beson": 2719,
      "|issenschaft": 2720,
      "|ederal": 2721,
      "Wies": 2722,
      "crit": 2723,
      "|mar": 2724,
      "tot": 2725,
      "examp": 2726,
      "|ogn": 2727,
      "quickly": 2728,
      "|aeude": 2729,
      "Park": 2730,
      "cir": 2731,
      "|ored": 2732,
      "|leicht": 2733,
      "|aves": 2734,
      "|schafts": 2735,
      "|stead": 2736,
      "Nur": 2737,
      "Jed": 2738,
      "hol": 2739,
      "verheiratet": 2740,
      "Part": 2741,
      "flo": 2742,
      "|ummer": 2743,
      "|epar": 2744,
      "gehoer": 2745,
      "business": 2746,
      "Luft": 2747,
      "Mark": 2748,
      "Weg": 2749,
      "|ume": 2750,
      "allerd": 2751,
      "contain": 2752,
      "become": 2753,
      "allerdings": 2754,
      "av": 2755,
      "live": 2756,
      "|use": 2757,
      "|aup": 2758,
      "individ": 2759,
      "strong": 2760,
      "Lehr": 2761,
      "|ony": 2762,
      "|isiert": 2763,
      "tour": 2764,
      "|uche": 2765,
      "arbeitete": 2766,
      "Port": 2767,
      "|platz": 2768,
      "|isse": 2769,
      "|ards": 2770,
      "Zug": 2771,
      "cr": 2772,
      "meine": 2773,
      "|ych": 2774,
      "lear": 2775,
      "grow": 2776,
      "whole": 2777,
      "interest": 2778,
      "based": 2779,
      "sil": 2780,
      "heraus": 2781,
      "followed": 2782,
      "Bas": 2783,
      "eigentlich": 2784,
      "|stra": 2785,
      "|immer": 2786,
      "soon": 2787,
      "finden": 2788,
      "break": 2789,
      "food": 2790,
      "|ases": 2791,
      "ebenfalls": 2792,
      "|mals": 2793,
      "|yer": 2794,
      "|pper": 2795,
      "research": 2796,
      "happen": 2797,
      "probably": 2798,
      "Zusammen": 2799,
      "sechs": 2800,
      "|ichtet": 2801,
      "fort": 2802,
      "|ellig": 2803,
      "enth": 2804,
      "|ampf": 2805,
      "verwendet": 2806,
      "Hamburg": 2807,
      "Af": 2808,
      "Komp": 2809,
      "fri": 2810,
      "haeuf": 2811,
      "tro": 2812,
      "|wig": 2813,
      "sieht": 2814,
      "seem": 2815,
      "moechte": 2816,
      "Cl": 2817,
      "Mich": 2818,
      "|ared": 2819,
      "stru": 2820,
      "|uchte": 2821,
      "|unktion": 2822,
      "less": 2823,
      "test": 2824,
      "|rip": 2825,
      "|itter": 2826,
      "darf": 2827,
      "respons": 2828,
      "career": 2829,
      "Kunst": 2830,
      "taetig": 2831,
      "|ja": 2832,
      "|ence": 2833,
      "|ieg": 2834,
      "|ival": 2835,
      "|ologie": 2836,
      "Tor": 2837,
      "sym": 2838,
      "|ikan": 2839,
      "change": 2840,
      "cover": 2841,
      "contra": 2842,
      "lebt": 2843,
      "absol": 2844,
      "Har": 2845,
      "Jetzt": 2846,
      "near": 2847,
      "party": 2848,
      "Eng": 2849,
      "Phil": 2850,
      "Hein": 2851,
      "Kopf": 2852,
      "fac": 2853,
      "heisst": 2854,
      "|ope": 2855,
      "pat": 2856,
      "|fuehrt": 2857,
      "Lie": 2858,
      "tit": 2859,
      "inform": 2860,
      "jeder": 2861,
      "Does": 2862,
      "Kirche": 2863,
      "erhielt": 2864,
      "led": 2865,
      "ans": 2866,
      "erhalten": 2867,
      "|zeitig": 2868,
      "Koenig": 2869,
      "Mutter": 2870,
      "Wel": 2871,
      "|eben": 2872,
      "|sb": 2873,
      "|ips": 2874,
      "Geschichte": 2875,
      "Tour": 2876,
      "daugh": 2877,
      "eight": 2878,
      "|kl": 2879,
      "|altung": 2880,
      "App": 2881,
      "Best": 2882,
      "makes": 2883,
      "bezeichnet": 2884,
      "plan": 2885,
      "Muen": 2886,
      "geg": 2887,
      "|iol": 2888,
      "|lau": 2889,
      "|annte": 2890,
      "prim": 2891,
      "yourself": 2892,
      "Also": 2893,
      "Kr": 2894,
      "econom": 2895,
      "ueb": 2896,
      "|uter": 2897,
      "|iple": 2898,
      "Arch": 2899,
      "age": 2900,
      "hour": 2901,
      "|ragen": 2902,
      "|erei": 2903,
      "Stra": 2904,
      "schle": 2905,
      "|nahmen": 2906,
      "signific": 2907,
      "\"\"": 2908,
      "Red": 2909,
      "|ured": 2910,
      "|utes": 2911,
      "|wirtschaft": 2912,
      "learn": 2913,
      "mot": 2914,
      "|innen": 2915,
      "employ": 2916,
      "|tended": 2917,
      "|schluss": 2918,
      "hundred": 2919,
      "Ak": 2920,
      "Buch": 2921,
      "French": 2922,
      "dou": 2923,
      "talk": 2924,
      "|side": 2925,
      "|ration": 2926,
      "|unge": 2927,
      "|aper": 2928,
      "therefore": 2929,
      "|ondere": 2930,
      "speak": 2931,
      "Aug": 2932,
      "|isches": 2933,
      "country": 2934,
      "|rotz": 2935,
      "|schliessend": 2936,
      "South": 2937,
      "educ": 2938,
      "said": 2939,
      "inst": 2940,
      "role": 2941,
      "Lei": 2942,
      "body": 2943,
      "since": 2944,
      "|jekt": 2945,
      "|igte": 2946,
      "|scheid": 2947,
      "senten": 2948,
      "|ika": 2949,
      "Paris": 2950,
      "example": 2951,
      "Nieder": 2952,
      "|osen": 2953,
      "|reiben": 2954,
      "Friedrich": 2955,
      "cal": 2956,
      "hast": 2957,
      "|aar": 2958,
      "begann": 2959,
      "numerous": 2960,
      "successful": 2961,
      "maj": 2962,
      "|bew": 2963,
      "|port": 2964,
      "|mo": 2965,
      "verk": 2966,
      "|cker": 2967,
      "|erence": 2968,
      "Brit": 2969,
      "east": 2970,
      "|furt": 2971,
      "|icult": 2972,
      "|ops": 2973,
      "nothing": 2974,
      "Dieses": 2975,
      "grosse": 2976,
      "Far": 2977,
      "|sh": 2978,
      "|imin": 2979,
      "|ildet": 2980,
      "Your": 2981,
      "|hib": 2982,
      "|ichen": 2983,
      "|ache": 2984,
      "|eite": 2985,
      "reason": 2986,
      "Spaeter": 2987,
      "liegen": 2988,
      "direct": 2989,
      "koennte": 2990,
      "verd": 2991,
      "|idge": 2992,
      "remained": 2993,
      "various": 2994,
      "besser": 2995,
      "|alth": 2996,
      "|ecially": 2997,
      "ask": 2998,
      "|icks": 2999,
      "add": 3000,
      "|oerper": 3001,
      "else": 3002,
      "English": 3003,
      "Ass": 3004,
      "Gleich": 3005,
      "ster": 3006,
      "|cts": 3007,
      "|inge": 3008,
      "|inning": 3009,
      "whe": 3010,
      "Stand": 3011,
      "belie": 3012,
      "castle": 3013,
      "Kont": 3014,
      "ach": 3015,
      "|test": 3016,
      "|reib": 3017,
      "|aechlich": 3018,
      "|standen": 3019,
      "Fru": 3020,
      "Sel": 3021,
      "|schn": 3022,
      "entwick": 3023,
      "pract": 3024,
      "Main": 3025,
      "liter": 3026,
      "thing": 3027,
      "stay": 3028,
      "mostly": 3029,
      "character": 3030,
      "Geg": 3031,
      "Kap": 3032,
      "Techn": 3033,
      "|sych": 3034,
      "|aef": 3035,
      "|yr": 3036,
      "|egel": 3037,
      "verg": 3038,
      "|lands": 3039,
      "Don": 3040,
      "Fall": 3041,
      "link": 3042,
      "|mand": 3043,
      "|voll": 3044,
      "transport": 3045,
      "early": 3046,
      "Kat": 3047,
      "Kind": 3048,
      "|iat": 3049,
      "|na": 3050,
      "|cher": 3051,
      "vert": 3052,
      "neuen": 3053,
      "musste": 3054,
      "Bre": 3055,
      "Fest": 3056,
      "Wes": 3057,
      "gemein": 3058,
      "lost": 3059,
      "|ziel": 3060,
      "|ellschaft": 3061,
      "|selves": 3062,
      "|ula": 3063,
      "entst": 3064,
      "|oud": 3065,
      "|aste": 3066,
      "|antly": 3067,
      "|ission": 3068,
      "folg": 3069,
      "Ja": 3070,
      "|zehn": 3071,
      "|under": 3072,
      "seen": 3073,
      "unterschied": 3074,
      "Jugend": 3075,
      "zahlreiche": 3076,
      "Mod": 3077,
      "Sil": 3078,
      "money": 3079,
      "|aeft": 3080,
      "|mus": 3081,
      "|artment": 3082,
      "champ": 3083,
      "spielte": 3084,
      "|sprueng": 3085,
      "|itor": 3086,
      "|ecke": 3087,
      "|spr": 3088,
      "Sec": 3089,
      "Zum": 3090,
      "cat": 3091,
      "separ": 3092,
      "members": 3093,
      "fall": 3094,
      "night": 3095,
      "natur": 3096,
      "white": 3097,
      "least": 3098,
      "Plan": 3099,
      "Franz": 3100,
      "norm": 3101,
      "|licht": 3102,
      "|affen": 3103,
      "Unternehmen": 3104,
      "hig": 3105,
      "takes": 3106,
      "ersch": 3107,
      "forest": 3108,
      "|auspiel": 3109,
      "press": 3110,
      "dev": 3111,
      "mountain": 3112,
      "working": 3113,
      "relativ": 3114,
      "market": 3115,
      "|oms": 3116,
      "allen": 3117,
      "meas": 3118,
      "gets": 3119,
      "Lin": 3120,
      "|uell": 3121,
      "neben": 3122,
      "Many": 3123,
      "wollte": 3124,
      "Doch": 3125,
      "sn": 3126,
      "|gabe": 3127,
      "|iers": 3128,
      "|adurch": 3129,
      "Dont": 3130,
      "akt": 3131,
      "|ey": 3132,
      "|apan": 3133,
      "recogn": 3134,
      "jemand": 3135,
      "Su": 3136,
      "lim": 3137,
      "|iten": 3138,
      "|ask": 3139,
      "eigenen": 3140,
      "purp": 3141,
      "San": 3142,
      "Sitz": 3143,
      "try": 3144,
      "species": 3145,
      "La": 3146,
      "Name": 3147,
      "Richt": 3148,
      "days": 3149,
      "|ilar": 3150,
      "areas": 3151,
      "offer": 3152,
      "|recke": 3153,
      "gl": 3154,
      "|mit": 3155,
      "|eth": 3156,
      "Insel": 3157,
      "nahm": 3158,
      "|arz": 3159,
      "|indung": 3160,
      "|ffic": 3161,
      "|itzt": 3162,
      "difficult": 3163,
      "ihrem": 3164,
      "|ultural": 3165,
      "military": 3166,
      "Ach": 3167,
      "Comp": 3168,
      "Hans": 3169,
      "Kreis": 3170,
      "pers": 3171,
      "arm": 3172,
      "road": 3173,
      "avail": 3174,
      "|sc": 3175,
      "|yd": 3176,
      "|eful": 3177,
      "|etzte": 3178,
      "|entrum": 3179,
      "cert": 3180,
      "pie": 3181,
      "situ": 3182,
      "|ama": 3183,
      "sued": 3184,
      "|ublik": 3185,
      "Count": 3186,
      "allowed": 3187,
      "Dorf": 3188,
      "cost": 3189,
      "|haeng": 3190,
      "|genommen": 3191,
      "cho": 3192,
      "Bedeut": 3193,
      "wirklich": 3194,
      "Hil": 3195,
      "John": 3196,
      "Alt": 3197,
      "|nahme": 3198,
      "developed": 3199,
      "major": 3200,
      "eg": 3201,
      "|bei": 3202,
      "|hand": 3203,
      "|hard": 3204,
      "|leep": 3205,
      "|ktur": 3206,
      "Acc": 3207,
      "Of": 3208,
      "aff": 3209,
      "|stu": 3210,
      "|iment": 3211,
      "|uern": 3212,
      "|avor": 3213,
      "particip": 3214,
      "increas": 3215,
      "Bla": 3216,
      "Mat": 3217,
      "Mart": 3218,
      "Two": 3219,
      "|iber": 3220,
      "|aemp": 3221,
      "|ements": 3222,
      "those": 3223,
      "|oke": 3224,
      "|anks": 3225,
      "establ": 3226,
      "available": 3227,
      "Most": 3228,
      "Pass": 3229,
      "haette": 3230,
      "|arian": 3231,
      "kannst": 3232,
      "tradition": 3233,
      "Ed": 3234,
      "Vo": 3235,
      "mass": 3236,
      "|met": 3237,
      "|othe": 3238,
      "mitt": 3239,
      "|angel": 3240,
      "neigh": 3241,
      "|anzen": 3242,
      "Ost": 3243,
      "cross": 3244,
      "port": 3245,
      "park": 3246,
      "zehn": 3247,
      "|ienn": 3248,
      "|ivil": 3249,
      "|ichter": 3250,
      "stamm": 3251,
      "|ewe": 3252,
      "social": 3253,
      "|ienen": 3254,
      "Begriff": 3255,
      "Ferns": 3256,
      "anderem": 3257,
      "Bro": 3258,
      "Bay": 3259,
      "|gra": 3260,
      "|yed": 3261,
      "|yle": 3262,
      "|iler": 3263,
      "ground": 3264,
      "Fach": 3265,
      "Wa": 3266,
      "frei": 3267,
      "erreich": 3268,
      "sicher": 3269,
      "|itzer": 3270,
      "Herz": 3271,
      "Licht": 3272,
      "hous": 3273,
      "sect": 3274,
      "|anst": 3275,
      "Parte": 3276,
      "|haft": 3277,
      "Bis": 3278,
      "Pal": 3279,
      "necess": 3280,
      "|ktor": 3281,
      "exact": 3282,
      "|uege": 3283,
      "|ulture": 3284,
      "Erst": 3285,
      "seven": 3286,
      "active": 3287,
      "didnt": 3288,
      "Bern": 3289,
      "Pe": 3290,
      "ap": 3291,
      "hair": 3292,
      "died": 3293,
      "|umb": 3294,
      "unb": 3295,
      "|uncil": 3296,
      "mult": 3297,
      "|jaehr": 3298,
      "|ana": 3299,
      "|ourn": 3300,
      "sieben": 3301,
      "gesp": 3302,
      "Other": 3303,
      "emer": 3304,
      "job": 3305,
      "|haupt": 3306,
      "|egung": 3307,
      "univers": 3308,
      "neun": 3309,
      "Strassen": 3310,
      "automat": 3311,
      "Feuer": 3312,
      "struct": 3313,
      "Both": 3314,
      "los": 3315,
      "|kir": 3316,
      "|itze": 3317,
      "|aving": 3318,
      "common": 3319,
      "|ript": 3320,
      "dog": 3321,
      "game": 3322,
      "|rote": 3323,
      "|raum": 3324,
      "seines": 3325,
      "Sport": 3326,
      "actually": 3327,
      "Museum": 3328,
      "Warum": 3329,
      "Zweiten": 3330,
      "middle": 3331,
      "schwer": 3332,
      "|aender": 3333,
      "beginning": 3334,
      "Volks": 3335,
      "Geld": 3336,
      "Lauf": 3337,
      "Wahl": 3338,
      "|enty": 3339,
      "|schw": 3340,
      "|eiter": 3341,
      "erfolgreich": 3342,
      "Peter": 3343,
      "mind": 3344,
      "taken": 3345,
      "|bol": 3346,
      "scre": 3347,
      "wanted": 3348,
      "|liesslich": 3349,
      "|more": 3350,
      "|ales": 3351,
      "Thats": 3352,
      "published": 3353,
      "|bildung": 3354,
      "Titel": 3355,
      "Wort": 3356,
      "data": 3357,
      "compet": 3358,
      "|meister": 3359,
      "Gebiet": 3360,
      "needs": 3361,
      "feel": 3362,
      "European": 3363,
      "Later": 3364,
      "|lichkeit": 3365,
      "vielen": 3366,
      "popular": 3367,
      "Noch": 3368,
      "hon": 3369,
      "paint": 3370,
      "wr": 3371,
      "waehrend": 3372,
      "|schutz": 3373,
      "|umen": 3374,
      "|anzig": 3375,
      "Beim": 3376,
      "|ymn": 3377,
      "|staendig": 3378,
      "|ai": 3379,
      "|alif": 3380,
      "|uted": 3381,
      "|gef": 3382,
      "|riere": 3383,
      "someone": 3384,
      "development": 3385,
      "series": 3386,
      "describ": 3387,
      "East": 3388,
      "Jos": 3389,
      "Rolle": 3390,
      "|hein": 3391,
      "|imal": 3392,
      "|ibr": 3393,
      "esp": 3394,
      "fuehrt": 3395,
      "fuehrte": 3396,
      "besonders": 3397,
      "Gott": 3398,
      "|liga": 3399,
      "|fel": 3400,
      "|roll": 3401,
      "album": 3402,
      "angeb": 3403,
      "|iesen": 3404,
      "entsch": 3405,
      "|erved": 3406,
      "Eltern": 3407,
      "|medi": 3408,
      "Folge": 3409,
      "Sand": 3410,
      "System": 3411,
      "fail": 3412,
      "rul": 3413,
      "|ning": 3414,
      "|gem": 3415,
      "|scht": 3416,
      "plant": 3417,
      "Max": 3418,
      "circ": 3419,
      "haeufig": 3420,
      "Bereich": 3421,
      "born": 3422,
      "kind": 3423,
      "zwe": 3424,
      "|ring": 3425,
      "|onym": 3426,
      "|sequ": 3427,
      "enter": 3428,
      "ident": 3429,
      "Fur": 3430,
      "Mil": 3431,
      "cou": 3432,
      "mother": 3433,
      "view": 3434,
      "|wa": 3435,
      "|etten": 3436,
      "court": 3437,
      "individual": 3438,
      "Ag": 3439,
      "Besch": 3440,
      "Lond": 3441,
      "natuerlich": 3442,
      "|pra": 3443,
      "|ole": 3444,
      "|rif": 3445,
      "|west": 3446,
      "|zel": 3447,
      "|heits": 3448,
      "|leben": 3449,
      "|scher": 3450,
      "Schauspiel": 3451,
      "Ang": 3452,
      "month": 3453,
      "Did": 3454,
      "|amous": 3455,
      "project": 3456,
      "ihnen": 3457,
      "weil": 3458,
      "See": 3459,
      "Beh": 3460,
      "Ul": 3461,
      "dafuer": 3462,
      "|gs": 3463,
      "|stueck": 3464,
      "Konz": 3465,
      "color": 3466,
      "According": 3467,
      "held": 3468,
      "na": 3469,
      "|ehic": 3470,
      "Schule": 3471,
      "|gramm": 3472,
      "Georg": 3473,
      "Christian": 3474,
      "|uenstler": 3475,
      "gehoerte": 3476,
      "Bedeutung": 3477,
      "Kan": 3478,
      "Well": 3479,
      "wes": 3480,
      "|ara": 3481,
      "|leit": 3482,
      "ern": 3483,
      "|illed": 3484,
      "while": 3485,
      "hatten": 3486,
      "|ohner": 3487,
      "everyone": 3488,
      "London": 3489,
      "Augen": 3490,
      "Kom": 3491,
      "ged": 3492,
      "|ote": 3493,
      "|flaech": 3494,
      "|ased": 3495,
      "inf": 3496,
      "|unft": 3497,
      "third": 3498,
      "stra": 3499,
      "|ochter": 3500,
      "auss": 3501,
      "Per": 3502,
      "Viele": 3503,
      "dig": 3504,
      "|kn": 3505,
      "|teen": 3506,
      "deutschen": 3507,
      "close": 3508,
      "|entlichen": 3509,
      "Anw": 3510,
      "moved": 3511,
      "looks": 3512,
      "created": 3513,
      "benannt": 3514,
      "single": 3515,
      "By": 3516,
      "award": 3517,
      "|ories": 3518,
      "alt": 3519,
      "along": 3520,
      "|epend": 3521,
      "|ption": 3522,
      "understand": 3523,
      "letzten": 3524,
      "kompl": 3525,
      "government": 3526,
      "Gren": 3527,
      "|iam": 3528,
      "|erme": 3529,
      "meant": 3530,
      "|itzen": 3531,
      "Leute": 3532,
      "einges": 3533,
      "river": 3534,
      "|ena": 3535,
      "|chmal": 3536,
      "though": 3537,
      "Heim": 3538,
      "sondern": 3539,
      "similar": 3540,
      "grand": 3541,
      "belongs": 3542,
      "Wilhel": 3543,
      "Ol": 3544,
      "|hab": 3545,
      "rock": 3546,
      "board": 3547,
      "famous": 3548,
      "mues": 3549,
      "rein": 3550,
      "|here": 3551,
      "|emb": 3552,
      "ones": 3553,
      "|ritten": 3554,
      "Proz": 3555,
      "anymore": 3556,
      "itself": 3557,
      "|heiten": 3558,
      "|hausen": 3559,
      "American": 3560,
      "especially": 3561,
      "Alex": 3562,
      "Let": 3563,
      "|lang": 3564,
      "|used": 3565,
      "|ille": 3566,
      "|oute": 3567,
      "|ids": 3568,
      "|ological": 3569,
      "themselves": 3570,
      "vehic": 3571,
      "|druck": 3572,
      "|uk": 3573,
      "|deut": 3574,
      "parts": 3575,
      "Air": 3576,
      "Tran": 3577,
      "wrote": 3578,
      "|par": 3579,
      "|ton": 3580,
      "|ivision": 3581,
      "|stitut": 3582,
      "ehe": 3583,
      "hor": 3584,
      "|kla": 3585,
      "|ellow": 3586,
      "Schm": 3587,
      "doing": 3588,
      "offen": 3589,
      "besten": 3590,
      "grossen": 3591,
      "Lat": 3592,
      "Pet": 3593,
      "Sim": 3594,
      "Tochter": 3595,
      "|ury": 3596,
      "cool": 3597,
      "leben": 3598,
      "plann": 3599,
      "Afterwards": 3600,
      "Ehe": 3601,
      "Hu": 3602,
      "|iben": 3603,
      "|wert": 3604,
      "|ieten": 3605,
      "|iser": 3606,
      "|irm": 3607,
      "|rab": 3608,
      "|auen": 3609,
      "Prov": 3610,
      "Strasse": 3611,
      "|prochen": 3612,
      "original": 3613,
      "natural": 3614,
      "Eisen": 3615,
      "aehn": 3616,
      "|oet": 3617,
      "schm": 3618,
      "regional": 3619,
      "|iety": 3620,
      "geben": 3621,
      "activ": 3622,
      "zeigt": 3623,
      "gemacht": 3624,
      "Mor": 3625,
      "Sicher": 3626,
      "halten": 3627,
      "moment": 3628,
      "walk": 3629,
      "|val": 3630,
      "Theater": 3631,
      "|annten": 3632,
      "|ernen": 3633,
      "Pre": 3634,
      "ever": 3635,
      "trat": 3636,
      "|mut": 3637,
      "|elker": 3638,
      "|urf": 3639,
      "|emm": 3640,
      "Beispiel": 3641,
      "laut": 3642,
      "relig": 3643,
      "production": 3644,
      "Rechts": 3645,
      "animals": 3646,
      "farm": 3647,
      "|hod": 3648,
      "|oster": 3649,
      "phot": 3650,
      "private": 3651,
      "influen": 3652,
      "Dr": 3653,
      "Wolf": 3654,
      "|sicht": 3655,
      "Ins": 3656,
      "genannt": 3657,
      "sollten": 3658,
      "|igkeiten": 3659,
      "Freund": 3660,
      "attack": 3661,
      "Pfl": 3662,
      "Tuer": 3663,
      "daher": 3664,
      "kaum": 3665,
      "|arf": 3666,
      "Einige": 3667,
      "|aupts": 3668,
      "|ournal": 3669,
      "Wien": 3670,
      "foot": 3671,
      "wahr": 3672,
      "|nam": 3673,
      "|aler": 3674,
      "|ceed": 3675,
      "|ollen": 3676,
      "|ously": 3677,
      "level": 3678,
      "traffic": 3679,
      "Seite": 3680,
      "verschiedenen": 3681,
      "|aetzlich": 3682,
      "Col": 3683,
      "Dazu": 3684,
      "Dienst": 3685,
      "eher": 3686,
      "foc": 3687,
      "non": 3688,
      "win": 3689,
      "|iegen": 3690,
      "clean": 3691,
      "wollen": 3692,
      "engine": 3693,
      "title": 3694,
      "Raum": 3695,
      "Wein": 3696,
      "hot": 3697,
      "neg": 3698,
      "|wald": 3699,
      "|ised": 3700,
      "|ults": 3701,
      "|ither": 3702,
      "|udem": 3703,
      "Organ": 3704,
      "|ionship": 3705,
      "training": 3706,
      "Hann": 3707,
      "Japan": 3708,
      "bott": 3709,
      "full": 3710,
      "jewe": 3711,
      "ren": 3712,
      "recht": 3713,
      "|ias": 3714,
      "|gefuehrt": 3715,
      "control": 3716,
      "quite": 3717,
      "Gebaeude": 3718,
      "bleibt": 3719,
      "official": 3720,
      "question": 3721,
      "Masch": 3722,
      "Zudem": 3723,
      "deine": 3724,
      "|ader": 3725,
      "|ruef": 3726,
      "Anschliessend": 3727,
      "|ranz": 3728,
      "|ublic": 3729,
      "|ification": 3730,
      "klein": 3731,
      "current": 3732,
      "|idence": 3733,
      "Jo": 3734,
      "Somet": 3735,
      "Tre": 3736,
      "York": 3737,
      "|olved": 3738,
      "|ufen": 3739,
      "|icken": 3740,
      "began": 3741,
      "drink": 3742,
      "general": 3743,
      "Holz": 3744,
      "responsible": 3745,
      "duer": 3746,
      "men": 3747,
      "nehmen": 3748,
      "|ehe": 3749,
      "|ount": 3750,
      "|gu": 3751,
      "|lymp": 3752,
      "Ern": 3753,
      "modern": 3754,
      "|ftware": 3755,
      "border": 3756,
      "Mehr": 3757,
      "Sm": 3758,
      "|orre": 3759,
      "|urb": 3760,
      "|usp": 3761,
      "|ager": 3762,
      "Fluss": 3763,
      "|ression": 3764,
      "Wirt": 3765,
      "eigene": 3766,
      "|zieh": 3767,
      "Second": 3768,
      "Fil": 3769,
      "hold": 3770,
      "pack": 3771,
      "rot": 3772,
      "|kreis": 3773,
      "|reif": 3774,
      "|illa": 3775,
      "|olution": 3776,
      "regard": 3777,
      "Regel": 3778,
      "Beide": 3779,
      "defin": 3780,
      "garden": 3781,
      "Internet": 3782,
      "ehemal": 3783,
      "Bad": 3784,
      "cust": 3785,
      "komm": 3786,
      "|itten": 3787,
      "|eph": 3788,
      "leave": 3789,
      "hinaus": 3790,
      "|zeichnung": 3791,
      "|besondere": 3792,
      "changed": 3793,
      "railway": 3794,
      "achie": 3795,
      "Baum": 3796,
      "Mass": 3797,
      "Off": 3798,
      "fehl": 3799,
      "low": 3800,
      "sold": 3801,
      "|itive": 3802,
      "|affe": 3803,
      "Span": 3804,
      "gesehen": 3805,
      "Blu": 3806,
      "subject": 3807,
      "Je": 3808,
      "|chte": 3809,
      "goes": 3810,
      "Polit": 3811,
      "Kannst": 3812,
      "currently": 3813,
      "fal": 3814,
      "material": 3815,
      "pay": 3816,
      "wont": 3817,
      "|rig": 3818,
      "|innt": 3819,
      "|itar": 3820,
      "super": 3821,
      "|rought": 3822,
      "|maessig": 3823,
      "gehoeren": 3824,
      "political": 3825,
      "street": 3826,
      "cut": 3827,
      "ill": 3828,
      "pict": 3829,
      "sug": 3830,
      "|ee": 3831,
      "thought": 3832,
      "|aged": 3833,
      "agric": 3834,
      "text": 3835,
      "supposed": 3836,
      "largest": 3837,
      "human": 3838,
      "Rot": 3839,
      "event": 3840,
      "|so": 3841,
      "|wuer": 3842,
      "|eider": 3843,
      "|undert": 3844,
      "track": 3845,
      "|altet": 3846,
      "twenty": 3847,
      "letzte": 3848,
      "done": 3849,
      "weg": 3850,
      "stell": 3851,
      "|ossen": 3852,
      "Schon": 3853,
      "prof": 3854,
      "|ective": 3855,
      "Gruppe": 3856,
      "Stein": 3857,
      "information": 3858,
      "bank": 3859,
      "sour": 3860,
      "schl": 3861,
      "|eiz": 3862,
      "|aust": 3863,
      "problem": 3864,
      "parents": 3865,
      "sometimes": 3866,
      "Mer": 3867,
      "mill": 3868,
      "paar": 3869,
      "zog": 3870,
      "|oun": 3871,
      "|hren": 3872,
      "alten": 3873,
      "space": 3874,
      "|aft": 3875,
      "Einsatz": 3876,
      "scient": 3877,
      "|aehrt": 3878,
      "empf": 3879,
      "|ziehen": 3880,
      "ursprueng": 3881,
      "rather": 3882,
      "sun": 3883,
      "squ": 3884,
      "tell": 3885,
      "|erb": 3886,
      "|atic": 3887,
      "Schiff": 3888,
      "shows": 3889,
      "genutzt": 3890,
      "gesam": 3891,
      "association": 3892,
      "certain": 3893,
      "End": 3894,
      "wid": 3895,
      "|arter": 3896,
      "|urger": 3897,
      "|legen": 3898,
      "|rative": 3899,
      "studies": 3900,
      "handelt": 3901,
      "Entwick": 3902,
      "determ": 3903,
      "faellt": 3904,
      "daughter": 3905,
      "Bitte": 3906,
      "Ev": 3907,
      "Ref": 3908,
      "Vog": 3909,
      "|pret": 3910,
      "|oest": 3911,
      "|wagen": 3912,
      "leaves": 3913,
      "Neu": 3914,
      "grew": 3915,
      "Ihnen": 3916,
      "|strasse": 3917,
      "verschiedene": 3918,
      "First": 3919,
      "Lang": 3920,
      "Mun": 3921,
      "ice": 3922,
      "|ground": 3923,
      "|hl": 3924,
      "|zy": 3925,
      "|endete": 3926,
      "within": 3927,
      "worden": 3928,
      "machine": 3929,
      "Zwei": 3930,
      "Staed": 3931,
      "|wiegend": 3932,
      "General": 3933,
      "Che": 3934,
      "Daten": 3935,
      "Ziel": 3936,
      "aud": 3937,
      "op": 3938,
      "|orary": 3939,
      "veroeff": 3940,
      "|eglichkeit": 3941,
      "frueh": 3942,
      "|viously": 3943,
      "Wochen": 3944,
      "ball": 3945,
      "lived": 3946,
      "|gere": 3947,
      "|MO": 3948,
      "|ands": 3949,
      "verh": 3950,
      "clim": 3951,
      "Selbst": 3952,
      "Krit": 3953,
      "fahren": 3954,
      "|ral": 3955,
      "|ckt": 3956,
      "|oche": 3957,
      "surround": 3958,
      "|uecher": 3959,
      "Jul": 3960,
      "Pat": 3961,
      "Wind": 3962,
      "|stellen": 3963,
      "|leg": 3964,
      "immedi": 3965,
      "entire": 3966,
      "|appen": 3967,
      "cra": 3968,
      "wichtig": 3969,
      "wechsel": 3970,
      "|yal": 3971,
      "|view": 3972,
      "|ums": 3973,
      "|iessen": 3974,
      "|istor": 3975,
      "seat": 3976,
      "dead": 3977,
      "cook": 3978,
      "leicht": 3979,
      "regular": 3980,
      "plays": 3981,
      "|irty": 3982,
      "sonst": 3983,
      "written": 3984,
      "Eis": 3985,
      "|pfl": 3986,
      "|rt": 3987,
      "|gehen": 3988,
      "|esident": 3989,
      "|verkehr": 3990,
      "|osoph": 3991,
      "herum": 3992,
      "gewann": 3993,
      "green": 3994,
      "meinen": 3995,
      "necessary": 3996,
      "Kurz": 3997,
      "Ohne": 3998,
      "|etw": 3999,
      "stellt": 4000,
      "Inform": 4001,
      "|iller": 4002,
      "selten": 4003,
      "final": 4004,
      "kleine": 4005,
      "|nisse": 4006,
      "remains": 4007,
      "easy": 4008,
      "Nie": 4009,
      "RE": 4010,
      "Rel": 4011,
      "|body": 4012,
      "|kauf": 4013,
      "|upp": 4014,
      "|olden": 4015,
      "meet": 4016,
      "population": 4017,
      "Kra": 4018,
      "camp": 4019,
      "glass": 4020,
      "klar": 4021,
      "lower": 4022,
      "temper": 4023,
      "|fre": 4024,
      "|wehr": 4025,
      "|ators": 4026,
      "Erfolg": 4027,
      "matter": 4028,
      "Hinter": 4029,
      "wegen": 4030,
      "|ria": 4031,
      "|VE": 4032,
      "inner": 4033,
      "|ikt": 4034,
      "|akter": 4035,
      "|altungs": 4036,
      "brother": 4037,
      "|MOVE": 4038,
      "brought": 4039,
      "fish": 4040,
      "lay": 4041,
      "mer": 4042,
      "roll": 4043,
      "|kel": 4044,
      "|iqu": 4045,
      "|ores": 4046,
      "|rodu": 4047,
      "|rachen": 4048,
      "Sprache": 4049,
      "jeden": 4050,
      "Boden": 4051,
      "braucht": 4052,
      "key": 4053,
      "naechsten": 4054,
      "REMOVE": 4055,
      "Na": 4056,
      "Op": 4057,
      "Vienn": 4058,
      "wood": 4059,
      "style": 4060,
      "exam": 4061,
      "Ann": 4062,
      "|reng": 4063,
      "door": 4064,
      "|liessen": 4065,
      "buildings": 4066,
      "Before": 4067,
      "program": 4068,
      "wrong": 4069,
      "Liter": 4070,
      "TO": 4071,
      "fert": 4072,
      "nine": 4073,
      "|uesse": 4074,
      "stets": 4075,
      "Stueck": 4076,
      "love": 4077,
      "|aengt": 4078,
      "Beruf": 4079,
      "bring": 4080,
      "police": 4081,
      "|steller": 4082,
      "Frankfurt": 4083,
      "Gold": 4084,
      "Ill": 4085,
      "Sen": 4086,
      "|unately": 4087,
      "|therm": 4088,
      "|avy": 4089,
      "Aller": 4090,
      "|apt": 4091,
      "pred": 4092,
      "Leist": 4093,
      "Orts": 4094,
      "drive": 4095,
      "secret": 4096,
      "extrem": 4097,
      "Gem": 4098,
      "lack": 4099,
      "via": 4100,
      "|bere": 4101,
      "|ox": 4102,
      "|nehmen": 4103,
      "|arch": 4104,
      "|tegr": 4105,
      "|uments": 4106,
      "solche": 4107,
      "Dadurch": 4108,
      "Gast": 4109,
      "Tal": 4110,
      "ter": 4111,
      "wife": 4112,
      "|lant": 4113,
      "|anten": 4114,
      "Erw": 4115,
      "neu": 4116,
      "moder": 4117,
      "invest": 4118,
      "model": 4119,
      "groesste": 4120,
      "believe": 4121,
      "eingesetzt": 4122,
      "blo": 4123,
      "sagen": 4124,
      "|ante": 4125,
      "|uffer": 4126,
      "|geber": 4127,
      "|fluss": 4128,
      "bisher": 4129,
      "gleichen": 4130,
      "phys": 4131,
      "served": 4132,
      "minutes": 4133,
      "terms": 4134,
      "buried": 4135,
      "Rei": 4136,
      "glaub": 4137,
      "|ino": 4138,
      "|ilden": 4139,
      "towards": 4140,
      "|omb": 4141,
      "machte": 4142,
      "Wieder": 4143,
      "initially": 4144,
      "August": 4145,
      "Due": 4146,
      "Dire": 4147,
      "Olymp": 4148,
      "haelt": 4149,
      "ol": 4150,
      "|kra": 4151,
      "|ueb": 4152,
      "heut": 4153,
      "|see": 4154,
      "comb": 4155,
      "|iziert": 4156,
      "|ords": 4157,
      "knows": 4158,
      "Karriere": 4159,
      "electric": 4160,
      "seems": 4161,
      "fight": 4162,
      "ganze": 4163,
      "hall": 4164,
      "|usion": 4165,
      "stellen": 4166,
      "|ags": 4167,
      "Alter": 4168,
      "Nachbar": 4169,
      "Meister": 4170,
      "destro": 4171,
      "hours": 4172,
      "Bur": 4173,
      "Cor": 4174,
      "Miss": 4175,
      "Uhr": 4176,
      "either": 4177,
      "tom": 4178,
      "|oses": 4179,
      "|ails": 4180,
      "Region": 4181,
      "versucht": 4182,
      "Minuten": 4183,
      "turned": 4184,
      "books": 4185,
      "Fot": 4186,
      "Hat": 4187,
      "Pap": 4188,
      "Tel": 4189,
      "join": 4190,
      "psych": 4191,
      "|nach": 4192,
      "|raegt": 4193,
      "anal": 4194,
      "|enner": 4195,
      "exhib": 4196,
      "goal": 4197,
      "befinden": 4198,
      "player": 4199,
      "chem": 4200,
      "occur": 4201,
      "Heinrich": 4202,
      "|ranzoes": 4203,
      "Fle": 4204,
      "Hall": 4205,
      "living": 4206,
      "wicht": 4207,
      "|ios": 4208,
      "|dings": 4209,
      "|cer": 4210,
      "|ural": 4211,
      "|schrift": 4212,
      "spaet": 4213,
      "Forsch": 4214,
      "director": 4215,
      "|garten": 4216,
      "einzel": 4217,
      "Colle": 4218,
      "route": 4219,
      "|ux": 4220,
      "island": 4221,
      "|eget": 4222,
      "Theres": 4223,
      "independ": 4224,
      "|riften": 4225,
      "franzoes": 4226,
      "saf": 4227,
      "sleep": 4228,
      "|oo": 4229,
      "|aerk": 4230,
      "tower": 4231,
      "eins": 4232,
      "Erd": 4233,
      "|ney": 4234,
      "|ensive": 4235,
      "Arm": 4236,
      "selben": 4237,
      "Frauen": 4238,
      "gefunden": 4239,
      "speed": 4240,
      "groups": 4241,
      "|ilometer": 4242,
      "education": 4243,
      "Morgen": 4244,
      "Wei": 4245,
      "Yes": 4246,
      "mem": 4247,
      "|jects": 4248,
      "verf": 4249,
      "ueberhaupt": 4250,
      "names": 4251,
      "erkla": 4252,
      "continued": 4253,
      "pot": 4254,
      "|cent": 4255,
      "|reibt": 4256,
      "|igten": 4257,
      "ausser": 4258,
      "unser": 4259,
      "corre": 4260,
      "Bruder": 4261,
      "fly": 4262,
      "|eign": 4263,
      "|irl": 4264,
      "|aby": 4265,
      "Schu": 4266,
      "Schla": 4267,
      "|echan": 4268,
      "|anken": 4269,
      "gelang": 4270,
      "produced": 4271,
      "Darueber": 4272,
      "Kirchen": 4273,
      "Betrieb": 4274,
      "professional": 4275,
      "Vielleicht": 4276,
      "Nun": 4277,
      "dark": 4278,
      "|stelle": 4279,
      "|isierung": 4280,
      "|ctive": 4281,
      "|issig": 4282,
      "Therefore": 4283,
      "Gros": 4284,
      "weniger": 4285,
      "Daneben": 4286,
      "Werke": 4287,
      "|voelker": 4288,
      "Kreuz": 4289,
      "Winter": 4290,
      "given": 4291,
      "risk": 4292,
      "|aub": 4293,
      "sogar": 4294,
      "|ohen": 4295,
      "|ordnet": 4296,
      "|trag": 4297,
      "method": 4298,
      "install": 4299,
      "Wilhelm": 4300,
      "|thermore": 4301,
      "Dis": 4302,
      "Ott": 4303,
      "Trotz": 4304,
      "fig": 4305,
      "je": 4306,
      "|zaehl": 4307,
      "|arte": 4308,
      "|ingu": 4309,
      "|ucher": 4310,
      "werde": 4311,
      "doc": 4312,
      "|ritte": 4313,
      "Amt": 4314,
      "|utzen": 4315,
      "British": 4316,
      "opt": 4317,
      "pain": 4318,
      "verfu": 4319,
      "|gency": 4320,
      "|ustry": 4321,
      "|eteil": 4322,
      "|attle": 4323,
      "expla": 4324,
      "Geschaef": 4325,
      "approach": 4326,
      "teacher": 4327,
      "exactly": 4328,
      "Rom": 4329,
      "nature": 4330,
      "sagt": 4331,
      "anders": 4332,
      "erfol": 4333,
      "|uerz": 4334,
      "|osp": 4335,
      "Heil": 4336,
      "|rief": 4337,
      "umf": 4338,
      "|resp": 4339,
      "|zeichen": 4340,
      "particularly": 4341,
      "established": 4342,
      "Bus": 4343,
      "Hast": 4344,
      "Lud": 4345,
      "Rhein": 4346,
      "bist": 4347,
      "|mark": 4348,
      "|ilen": 4349,
      "story": 4350,
      "|ube": 4351,
      "Verkehr": 4352,
      "|weis": 4353,
      "using": 4354,
      "weiteren": 4355,
      "indic": 4356,
      "|gangen": 4357,
      "forms": 4358,
      "Seiten": 4359,
      "folgenden": 4360,
      "Fort": 4361,
      "Hund": 4362,
      "Mu": 4363,
      "bir": 4364,
      "dru": 4365,
      "divers": 4366,
      "gas": 4367,
      "gerne": 4368,
      "sense": 4369,
      "|bla": 4370,
      "|iting": 4371,
      "|usst": 4372,
      "|immen": 4373,
      "|ulen": 4374,
      "chair": 4375,
      "Saison": 4376,
      "geboren": 4377,
      "Deutschen": 4378,
      "closed": 4379,
      "liess": 4380,
      "Bek": 4381,
      "Fa": 4382,
      "Kur": 4383,
      "Sl": 4384,
      "path": 4385,
      "suffer": 4386,
      "|ober": 4387,
      "|omer": 4388,
      "|schu": 4389,
      "|ended": 4390,
      "condition": 4391,
      "Angel": 4392,
      "orient": 4393,
      "|griff": 4394,
      "gegenueber": 4395,
      "bleiben": 4396,
      "municipal": 4397,
      "England": 4398,
      "Back": 4399,
      "Eg": 4400,
      "Get": 4401,
      "Post": 4402,
      "Tur": 4403,
      "Tru": 4404,
      "Wann": 4405,
      "|lungen": 4406,
      "|lied": 4407,
      "|iegel": 4408,
      "|ammer": 4409,
      "bevor": 4410,
      "Strom": 4411,
      "Schloss": 4412,
      "Union": 4413,
      "Arme": 4414,
      "Champ": 4415,
      "anyone": 4416,
      "Mensch": 4417,
      "|nahm": 4418,
      "Grand": 4419,
      "groessten": 4420,
      "Wieso": 4421,
      "Leip": 4422,
      "Fen": 4423,
      "Sing": 4424,
      "Such": 4425,
      "Turn": 4426,
      "fand": 4427,
      "susp": 4428,
      "|nete": 4429,
      "|urer": 4430,
      "|emeter": 4431,
      "|andid": 4432,
      "|iess": 4433,
      "abgesch": 4434,
      "soc": 4435,
      "Team": 4436,
      "access": 4437,
      "Sax": 4438,
      "Staats": 4439,
      "connection": 4440,
      "bi": 4441,
      "fem": 4442,
      "|iag": 4443,
      "|ites": 4444,
      "iss": 4445,
      "|ichts": 4446,
      "spielt": 4447,
      "Heid": 4448,
      "princ": 4449,
      "|etting": 4450,
      "|uehrt": 4451,
      "sollen": 4452,
      "self": 4453,
      "blue": 4454,
      "hands": 4455,
      "|iebt": 4456,
      "Europa": 4457,
      "Fir": 4458,
      "Mel": 4459,
      "Rec": 4460,
      "Wegen": 4461,
      "richtig": 4462,
      "wuchs": 4463,
      "watch": 4464,
      "|bel": 4465,
      "alte": 4466,
      "China": 4467,
      "Programm": 4468,
      "monaster": 4469,
      "Hof": 4470,
      "voice": 4471,
      "|ymnas": 4472,
      "Sub": 4473,
      "caus": 4474,
      "|ufact": 4475,
      "|anger": 4476,
      "shap": 4477,
      "|udd": 4478,
      "|folge": 4479,
      "kleinen": 4480,
      "|stitute": 4481,
      "transl": 4482,
      "municipality": 4483,
      "covered": 4484,
      "Dav": 4485,
      "Fehl": 4486,
      "Jan": 4487,
      "Nam": 4488,
      "cy": 4489,
      "ep": 4490,
      "|urop": 4491,
      "|oul": 4492,
      "extens": 4493,
      "ship": 4494,
      "Profess": 4495,
      "|ekte": 4496,
      "besuchte": 4497,
      "|plan": 4498,
      "surv": 4499,
      "Elekt": 4500,
      "administrative": 4501,
      "County": 4502,
      "immediately": 4503,
      "Zahl": 4504,
      "deg": 4505,
      "gave": 4506,
      "|wise": 4507,
      "Text": 4508,
      "flow": 4509,
      "meiner": 4510,
      "International": 4511,
      "Richtung": 4512,
      "Eben": 4513,
      "passen": 4514,
      "|ining": 4515,
      "|lad": 4516,
      "|gesetzt": 4517,
      "relations": 4518,
      "|ietet": 4519,
      "surf": 4520,
      "Poliz": 4521,
      "Eing": 4522,
      "dan": 4523,
      "kl": 4524,
      "upper": 4525,
      "|ilder": 4526,
      "extra": 4527,
      "finally": 4528,
      "|ipped": 4529,
      "check": 4530,
      "function": 4531,
      "Martin": 4532,
      "Munich": 4533,
      "Preis": 4534,
      "cro": 4535,
      "ll": 4536,
      "search": 4537,
      "zerst": 4538,
      "|ises": 4539,
      "|rae": 4540,
      "|imme": 4541,
      "|liches": 4542,
      "|ikal": 4543,
      "manufact": 4544,
      "playing": 4545,
      "|stitution": 4546,
      "Bahnhof": 4547,
      "reached": 4548,
      "total": 4549,
      "floor": 4550,
      "couple": 4551,
      "Oder": 4552,
      "Wahr": 4553,
      "cold": 4554,
      "master": 4555,
      "|oert": 4556,
      "|eint": 4557,
      "verz": 4558,
      "Instead": 4559,
      "Anfang": 4560,
      "|gelegt": 4561,
      "students": 4562,
      "industry": 4563,
      "|iction": 4564,
      "Priv": 4565,
      "spielen": 4566,
      "Sommer": 4567,
      "Partei": 4568,
      "More": 4569,
      "bird": 4570,
      "cit": 4571,
      "cop": 4572,
      "card": 4573,
      "sand": 4574,
      "|sa": 4575,
      "|kte": 4576,
      "|ging": 4577,
      "|hundert": 4578,
      "|wand": 4579,
      "|atory": 4580,
      "Thom": 4581,
      "sports": 4582,
      "|aught": 4583,
      "Nacht": 4584,
      "Bez": 4585,
      "regel": 4586,
      "Furthermore": 4587,
      "|emetery": 4588,
      "fund": 4589,
      "pos": 4590,
      "wert": 4591,
      "|band": 4592,
      "|seite": 4593,
      "|vision": 4594,
      "|aren": 4595,
      "|ush": 4596,
      "|oles": 4597,
      "|ims": 4598,
      "|izes": 4599,
      "|ideo": 4600,
      "konnten": 4601,
      "|hemat": 4602,
      "|fortunately": 4603,
      "Maybe": 4604,
      "|lauben": 4605,
      "purpose": 4606,
      "Emp": 4607,
      "Federal": 4608,
      "bran": 4609,
      "swe": 4610,
      "|itect": 4611,
      "|aschen": 4612,
      "|eitet": 4613,
      "|ustrie": 4614,
      "outside": 4615,
      "repla": 4616,
      "damals": 4617,
      "direction": 4618,
      "gradu": 4619,
      "discuss": 4620,
      "Bundesliga": 4621,
      "effect": 4622,
      "|scheinlich": 4623,
      "Mrs": 4624,
      "Verwaltungs": 4625,
      "Salz": 4626,
      "Michael": 4627,
      "High": 4628,
      "Tage": 4629,
      "zeit": 4630,
      "|aters": 4631,
      "|asons": 4632,
      "|ilities": 4633,
      "|olit": 4634,
      "|oper": 4635,
      "|gebaut": 4636,
      "|teilung": 4637,
      "version": 4638,
      "radio": 4639,
      "Vienna": 4640,
      "games": 4641,
      "|iated": 4642,
      "|uet": 4643,
      "|anw": 4644,
      "thous": 4645,
      "erricht": 4646,
      "health": 4647,
      "|ibility": 4648,
      "|izin": 4649,
      "Which": 4650,
      "|lob": 4651,
      "appoint": 4652,
      "Markt": 4653,
      "keiner": 4654,
      "wenige": 4655,
      "sowohl": 4656,
      "leads": 4657,
      "Italien": 4658,
      "eyes": 4659,
      "Buerger": 4660,
      "critic": 4661,
      "primarily": 4662,
      "sterreich": 4663,
      "danach": 4664,
      "Mill": 4665,
      "poin": 4666,
      "|erve": 4667,
      "|lei": 4668,
      "|eits": 4669,
      "box": 4670,
      "attention": 4671,
      "Look": 4672,
      "Druck": 4673,
      "Kal": 4674,
      "Koerper": 4675,
      "bal": 4676,
      "tax": 4677,
      "|ential": 4678,
      "Schuel": 4679,
      "|sprach": 4680,
      "|ordin": 4681,
      "elekt": 4682,
      "according": 4683,
      "founded": 4684,
      "direkt": 4685,
      "deutsche": 4686,
      "companies": 4687,
      "serious": 4688,
      "Ludwig": 4689,
      "Fenster": 4690,
      "Akt": 4691,
      "Id": 4692,
      "Kor": 4693,
      "Ton": 4694,
      "fra": 4695,
      "|alien": 4696,
      "|elter": 4697,
      "inn": 4698,
      "|ica": 4699,
      "|ulated": 4700,
      "Schrift": 4701,
      "attra": 4702,
      "Immer": 4703,
      "recomm": 4704,
      "carried": 4705,
      "|ivided": 4706,
      "Cla": 4707,
      "Mir": 4708,
      "dessen": 4709,
      "nimmt": 4710,
      "ru": 4711,
      "|pf": 4712,
      "|atives": 4713,
      "|igent": 4714,
      "deren": 4715,
      "|istischen": 4716,
      "schla": 4717,
      "shoot": 4718,
      "arms": 4719,
      "Projekt": 4720,
      "|folger": 4721,
      "Wirk": 4722,
      "accept": 4723,
      "|recken": 4724,
      "runs": 4725,
      "southern": 4726,
      "Afric": 4727,
      "pressure": 4728,
      "Bor": 4729,
      "Ros": 4730,
      "netw": 4731,
      "sat": 4732,
      "sure": 4733,
      "|jahr": 4734,
      "|het": 4735,
      "|stant": 4736,
      "|asen": 4737,
      "einigen": 4738,
      "|omot": 4739,
      "erfor": 4740,
      "|ada": 4741,
      "esc": 4742,
      "Another": 4743,
      "energ": 4744,
      "|aehe": 4745,
      "trains": 4746,
      "applic": 4747,
      "museum": 4748,
      "obs": 4749,
      "|richten": 4750,
      "protection": 4751,
      "focus": 4752,
      "Rest": 4753,
      "Val": 4754,
      "bald": 4755,
      "yellow": 4756,
      "|zuf": 4757,
      "|amb": 4758,
      "|rennt": 4759,
      "doctor": 4760,
      "Einzel": 4761,
      "Jahres": 4762,
      "Minister": 4763,
      "|auptsaechlich": 4764,
      "Eck": 4765,
      "Sor": 4766,
      "Vors": 4767,
      "Woche": 4768,
      "burn": 4769,
      "|orrow": 4770,
      "anges": 4771,
      "schrieb": 4772,
      "above": 4773,
      "|ohnt": 4774,
      "hervor": 4775,
      "Arten": 4776,
      "consists": 4777,
      "France": 4778,
      "formed": 4779,
      "|gehend": 4780,
      "|ymnasium": 4781,
      "Nik": 4782,
      "Norm": 4783,
      "Pil": 4784,
      "Rem": 4785,
      "bildet": 4786,
      "cell": 4787,
      "ra": 4788,
      "|haelt": 4789,
      "|ingly": 4790,
      "|uerst": 4791,
      "|ausend": 4792,
      "enc": 4793,
      "Frage": 4794,
      "Besides": 4795,
      "Everyone": 4796,
      "symbol": 4797,
      "Bere": 4798,
      "dient": 4799,
      "fell": 4800,
      "lik": 4801,
      "|uend": 4802,
      "|ears": 4803,
      "|okrat": 4804,
      "|flug": 4805,
      "|azz": 4806,
      "daran": 4807,
      "Blut": 4808,
      "|uehle": 4809,
      "|zwischen": 4810,
      "stammt": 4811,
      "Dank": 4812,
      "Geh": 4813,
      "Rh": 4814,
      "Song": 4815,
      "Would": 4816,
      "civil": 4817,
      "eat": 4818,
      "fut": 4819,
      "|ched": 4820,
      "|une": 4821,
      "altern": 4822,
      "noerd": 4823,
      "Bevoelker": 4824,
      "anyway": 4825,
      "prevent": 4826,
      "redu": 4827,
      "zweiten": 4828,
      "propert": 4829,
      "Motor": 4830,
      "nahe": 4831,
      "Ac": 4832,
      "cities": 4833,
      "|teile": 4834,
      "|rance": 4835,
      "|ecker": 4836,
      "|lose": 4837,
      "|atures": 4838,
      "Exp": 4839,
      "|atholic": 4840,
      "Allerdings": 4841,
      "birth": 4842,
      "Bett": 4843,
      "Have": 4844,
      "Herm": 4845,
      "Jew": 4846,
      "Samm": 4847,
      "et": 4848,
      "rac": 4849,
      "|oon": 4850,
      "|ringen": 4851,
      "|go": 4852,
      "Statt": 4853,
      "Einen": 4854,
      "jedes": 4855,
      "Addition": 4856,
      "Prinz": 4857,
      "Klein": 4858,
      "Austria": 4859,
      "Gar": 4860,
      "Kultur": 4861,
      "Tro": 4862,
      "lag": 4863,
      "|pite": 4864,
      "|neh": 4865,
      "|ieben": 4866,
      "|ehow": 4867,
      "schliesslich": 4868,
      "Einw": 4869,
      "untersch": 4870,
      "|gesamt": 4871,
      "report": 4872,
      "|ockey": 4873,
      "slow": 4874,
      "arbeitet": 4875,
      "higher": 4876,
      "Sometimes": 4877,
      "tut": 4878,
      "|sweise": 4879,
      "|fried": 4880,
      "denen": 4881,
      "Stutt": 4882,
      "vorher": 4883,
      "gewesen": 4884,
      "interpret": 4885,
      "|fallen": 4886,
      "brown": 4887,
      "Staat": 4888,
      "niemand": 4889,
      "Irgend": 4890,
      "Fussball": 4891,
      "months": 4892,
      "|respond": 4893,
      "Bi": 4894,
      "Ga": 4895,
      "deb": 4896,
      "federal": 4897,
      "funktion": 4898,
      "sem": 4899,
      "women": 4900,
      "|gress": 4901,
      "|mund": 4902,
      "|teilt": 4903,
      "|rochen": 4904,
      "|icy": 4905,
      "|schiff": 4906,
      "Inn": 4907,
      "School": 4908,
      "notice": 4909,
      "beide": 4910,
      "Kloster": 4911,
      "Studium": 4912,
      "zweite": 4913,
      "|uhl": 4914,
      "words": 4915,
      "Leipzig": 4916,
      "City": 4917,
      "Meine": 4918,
      "Qual": 4919,
      "log": 4920,
      "wine": 4921,
      "youth": 4922,
      "|bereich": 4923,
      "|head": 4924,
      "|ona": 4925,
      "integr": 4926,
      "Stelle": 4927,
      "|sequen": 4928,
      "except": 4929,
      "displa": 4930,
      "Amts": 4931,
      "location": 4932,
      "distrib": 4933,
      "Blick": 4934,
      "Graf": 4935,
      "across": 4936,
      "refer": 4937,
      "Baden": 4938,
      "bestehen": 4939,
      "neighbor": 4940,
      "Ah": 4941,
      "Del": 4942,
      "Gut": 4943,
      "Kilometer": 4944,
      "Milit": 4945,
      "bem": 4946,
      "fle": 4947,
      "favor": 4948,
      "juen": 4949,
      "mist": 4950,
      "nieder": 4951,
      "sal": 4952,
      "|bet": 4953,
      "|gaben": 4954,
      "|vier": 4955,
      "ganzen": 4956,
      "idea": 4957,
      "Muenchen": 4958,
      "Eigen": 4959,
      "Mos": 4960,
      "frag": 4961,
      "viol": 4962,
      "|eden": 4963,
      "Their": 4964,
      "hear": 4965,
      "|ehrt": 4966,
      "conte": 4967,
      "|ension": 4968,
      "|oerder": 4969,
      "|aecht": 4970,
      "unsere": 4971,
      "|blems": 4972,
      "|heless": 4973,
      "|liament": 4974,
      "friend": 4975,
      "multiple": 4976,
      "Blueten": 4977,
      "monastery": 4978,
      "citiz": 4979,
      "bietet": 4980,
      "kamen": 4981,
      "laeng": 4982,
      "|kon": 4983,
      "|chten": 4984,
      "|asion": 4985,
      "Stunden": 4986,
      "|aenge": 4987,
      "plants": 4988,
      "Schwer": 4989,
      "frueher": 4990,
      "magaz": 4991,
      "teilweise": 4992,
      "economic": 4993,
      "Lass": 4994,
      "TV": 4995,
      "|lam": 4996,
      "|ima": 4997,
      "|adays": 4998,
      "council": 4999,
      "looking": 5000,
      "completed": 5001,
      "sentences": 5002,
      "directly": 5003,
      "Thomas": 5004,
      "Denk": 5005,
      "Saint": 5006,
      "divided": 5007,
      "fil": 5008,
      "mess": 5009,
      "tal": 5010,
      "|inde": 5011,
      "|orden": 5012,
      "|arently": 5013,
      "|oted": 5014,
      "Strecke": 5015,
      "disapp": 5016,
      "Maria": 5017,
      "consist": 5018,
      "friends": 5019,
      "structure": 5020,
      "Joseph": 5021,
      "Hab": 5022,
      "Ra": 5023,
      "Tom": 5024,
      "Wissen": 5025,
      "girl": 5026,
      "jud": 5027,
      "kilomet": 5028,
      "rob": 5029,
      "vict": 5030,
      "|sburg": 5031,
      "|park": 5032,
      "|hest": 5033,
      "|onment": 5034,
      "insp": 5035,
      "ang": 5036,
      "|ills": 5037,
      "league": 5038,
      "entstanden": 5039,
      "preserved": 5040,
      "|ograf": 5041,
      "switch": 5042,
      "happened": 5043,
      "Tiere": 5044,
      "ae": 5045,
      "cla": 5046,
      "hing": 5047,
      "jump": 5048,
      "oil": 5049,
      "|kunft": 5050,
      "|aries": 5051,
      "|ental": 5052,
      "coming": 5053,
      "attended": 5054,
      "Alb": 5055,
      "Alles": 5056,
      "Album": 5057,
      "|nerg": 5058,
      "finished": 5059,
      "department": 5060,
      "|fuehrung": 5061,
      "deutlich": 5062,
      "architect": 5063,
      "Fred": 5064,
      "Kraft": 5065,
      "Kuenstler": 5066,
      "Sym": 5067,
      "pil": 5068,
      "tree": 5069,
      "|bank": 5070,
      "|fass": 5071,
      "|welt": 5072,
      "|chter": 5073,
      "intens": 5074,
      "|ehnt": 5075,
      "|otten": 5076,
      "Stat": 5077,
      "|echten": 5078,
      "deep": 5079,
      "musical": 5080,
      "disp": 5081,
      "Whats": 5082,
      "legal": 5083,
      "competition": 5084,
      "awarded": 5085,
      "energy": 5086,
      "King": 5087,
      "bilden": 5088,
      "dro": 5089,
      "|oerm": 5090,
      "|fred": 5091,
      "|teid": 5092,
      "|omes": 5093,
      "|iesst": 5094,
      "|anne": 5095,
      "heat": 5096,
      "Essen": 5097,
      "decided": 5098,
      "performance": 5099,
      "Norden": 5100,
      "released": 5101,
      "|sequently": 5102,
      "kilometers": 5103,
      "Ball": 5104,
      "fair": 5105,
      "hauptsaechlich": 5106,
      "kennen": 5107,
      "rain": 5108,
      "raus": 5109,
      "|weit": 5110,
      "thus": 5111,
      "stab": 5112,
      "|last": 5113,
      "|abhaeng": 5114,
      "|renz": 5115,
      "|auft": 5116,
      "Ausbildung": 5117,
      "roof": 5118,
      "insbesondere": 5119,
      "Grab": 5120,
      "Anton": 5121,
      "visit": 5122,
      "university": 5123,
      "rules": 5124,
      "planned": 5125,
      "|riage": 5126,
      "blood": 5127,
      "Polizei": 5128,
      "Typ": 5129,
      "bloss": 5130,
      "pen": 5131,
      "|buch": 5132,
      "|bru": 5133,
      "|kay": 5134,
      "|cl": 5135,
      "|esent": 5136,
      "inhab": 5137,
      "|ola": 5138,
      "|uther": 5139,
      "beaut": 5140,
      "|schlag": 5141,
      "stage": 5142,
      "|istische": 5143,
      "worth": 5144,
      "|zeugen": 5145,
      "weather": 5146,
      "|aenden": 5147,
      "Problem": 5148,
      "|inken": 5149,
      "jedem": 5150,
      "newsp": 5151,
      "bestimmt": 5152,
      "Freib": 5153,
      "hoech": 5154,
      "occup": 5155,
      "|schliesslich": 5156,
      "Republic": 5157,
      "bedeutet": 5158,
      "significant": 5159,
      "Bach": 5160,
      "Ide": 5161,
      "Kant": 5162,
      "avo": 5163,
      "site": 5164,
      "|itable": 5165,
      "|eland": 5166,
      "|reicht": 5167,
      "stone": 5168,
      "|antwort": 5169,
      "Uns": 5170,
      "mehreren": 5171,
      "beginnt": 5172,
      "opened": 5173,
      "starb": 5174,
      "belonged": 5175,
      "settlement": 5176,
      "jeweils": 5177,
      "scientific": 5178,
      "Bib": 5179,
      "Mont": 5180,
      "Middle": 5181,
      "aelter": 5182,
      "har": 5183,
      "|vis": 5184,
      "erinn": 5185,
      "heart": 5186,
      "|ained": 5187,
      "|ipl": 5188,
      "|ection": 5189,
      "|strument": 5190,
      "simple": 5191,
      "hundert": 5192,
      "eye": 5193,
      "contract": 5194,
      "houses": 5195,
      "entscheiden": 5196,
      "Heimat": 5197,
      "duerfen": 5198,
      "Sam": 5199,
      "king": 5200,
      "mix": 5201,
      "|wend": 5202,
      "|asste": 5203,
      "|ennung": 5204,
      "|zeuge": 5205,
      "zwo": 5206,
      "boy": 5207,
      "Saetze": 5208,
      "guy": 5209,
      "simp": 5210,
      "lebte": 5211,
      "experience": 5212,
      "Hen": 5213,
      "Hin": 5214,
      "Laut": 5215,
      "Rock": 5216,
      "cases": 5217,
      "domin": 5218,
      "echt": 5219,
      "|ique": 5220,
      "|ufe": 5221,
      "State": 5222,
      "engl": 5223,
      "|aengen": 5224,
      "results": 5225,
      "Real": 5226,
      "fuehren": 5227,
      "|minister": 5228,
      "Robert": 5229,
      "beschaeft": 5230,
      "Weitere": 5231,
      "administration": 5232,
      "muesste": 5233,
      "Literatur": 5234,
      "Cont": 5235,
      "Teile": 5236,
      "cent": 5237,
      "central": 5238,
      "host": 5239,
      "loud": 5240,
      "|asc": 5241,
      "instead": 5242,
      "|gegeben": 5243,
      "|istisch": 5244,
      "|pped": 5245,
      "study": 5246,
      "endlich": 5247,
      "surp": 5248,
      "|unkte": 5249,
      "countries": 5250,
      "Weiter": 5251,
      "|uessel": 5252,
      "Kriegs": 5253,
      "described": 5254,
      "Com": 5255,
      "God": 5256,
      "Jeder": 5257,
      "Mad": 5258,
      "Vier": 5259,
      "gold": 5260,
      "setzt": 5261,
      "|iations": 5262,
      "|ding": 5263,
      "|vels": 5264,
      "erne": 5265,
      "|elling": 5266,
      "spricht": 5267,
      "Verl": 5268,
      "advert": 5269,
      "Abend": 5270,
      "Flor": 5271,
      "|bruch": 5272,
      "Deshalb": 5273,
      "somew": 5274,
      "Dreh": 5275,
      "included": 5276,
      "vergessen": 5277,
      "Dach": 5278,
      "Haben": 5279,
      "Over": 5280,
      "Rich": 5281,
      "kur": 5282,
      "|bon": 5283,
      "|fr": 5284,
      "|jo": 5285,
      "|..": 5286,
      "|legt": 5287,
      "|ros": 5288,
      "Sied": 5289,
      "env": 5290,
      "blind": 5291,
      "|geschichte": 5292,
      "Autor": 5293,
      "einzige": 5294,
      "involved": 5295,
      "languages": 5296,
      "movie": 5297,
      "true": 5298,
      "normal": 5299,
      "|flaeche": 5300,
      "correct": 5301,
      "points": 5302,
      "Cour": 5303,
      "Dist": 5304,
      "Lieb": 5305,
      "Naehe": 5306,
      "Sin": 5307,
      "cultural": 5308,
      "ober": 5309,
      "wissen": 5310,
      "|aess": 5311,
      "|ita": 5312,
      "|orie": 5313,
      "|elve": 5314,
      "|raen": 5315,
      "erho": 5316,
      "problems": 5317,
      "|ranken": 5318,
      "places": 5319,
      "|auten": 5320,
      "Spieler": 5321,
      "correspond": 5322,
      "|vertheless": 5323,
      "|overed": 5324,
      "connected": 5325,
      "type": 5326,
      "Entwicklung": 5327,
      "College": 5328,
      "future": 5329,
      "Fisch": 5330,
      "fallen": 5331,
      "gute": 5332,
      "hers": 5333,
      "table": 5334,
      "|bung": 5335,
      "|oid": 5336,
      "|mon": 5337,
      "|uster": 5338,
      "genug": 5339,
      "|othing": 5340,
      "Fragen": 5341,
      "Brun": 5342,
      "broad": 5343,
      "standard": 5344,
      "weiterhin": 5345,
      "Bank": 5346,
      "Energ": 5347,
      "Gab": 5348,
      "Loes": 5349,
      "Offen": 5350,
      "Ta": 5351,
      "fuehl": 5352,
      "|lete": 5353,
      "|hang": 5354,
      "|fan": 5355,
      "|ether": 5356,
      "|gegen": 5357,
      "Innen": 5358,
      "aller": 5359,
      "vorh": 5360,
      "|rix": 5361,
      "technology": 5362,
      "poor": 5363,
      "appeared": 5364,
      "northern": 5365,
      "|aeuser": 5366,
      "excl": 5367,
      "folgten": 5368,
      "shaped": 5369,
      "Kampf": 5370,
      "Rud": 5371,
      "River": 5372,
      "Sat": 5373,
      "ak": 5374,
      "dial": 5375,
      "laenger": 5376,
      "mention": 5377,
      "|ham": 5378,
      "|stieg": 5379,
      "|asche": 5380,
      "Start": 5381,
      "|rupt": 5382,
      "|aker": 5383,
      "commer": 5384,
      "|iziel": 5385,
      "|weig": 5386,
      "compar": 5387,
      "|orning": 5388,
      "expect": 5389,
      "Moeglichkeit": 5390,
      "Kindern": 5391,
      "|board": 5392,
      "|ledge": 5393,
      "|rechend": 5394,
      "anderer": 5395,
      "voellig": 5396,
      "changes": 5397,
      "gesamte": 5398,
      "independent": 5399,
      "network": 5400,
      "herself": 5401,
      "Gibt": 5402,
      "Jack": 5403,
      "Kol": 5404,
      "Mach": 5405,
      "Zentrum": 5406,
      "action": 5407,
      "libr": 5408,
      "mil": 5409,
      "nar": 5410,
      "|ny": 5411,
      "|vest": 5412,
      "|andelt": 5413,
      "|ehrte": 5414,
      "ausschliesslich": 5415,
      "essen": 5416,
      "|etzlich": 5417,
      "ended": 5418,
      "afterwards": 5419,
      "Without": 5420,
      "guest": 5421,
      "starts": 5422,
      "Mitglieder": 5423,
      "easily": 5424,
      "|liothe": 5425,
      "literature": 5426,
      "situation": 5427,
      "|aliforn": 5428,
      "Provinz": 5429,
      "Feld": 5430,
      "Sek": 5431,
      "Web": 5432,
      "|rete": 5433,
      "|kre": 5434,
      "|dessen": 5435,
      "|nel": 5436,
      "|aat": 5437,
      "inj": 5438,
      "|roh": 5439,
      "|egte": 5440,
      "Stil": 5441,
      "exec": 5442,
      "|aps": 5443,
      "contrib": 5444,
      "lieber": 5445,
      "distance": 5446,
      "earth": 5447,
      "Mannschaft": 5448,
      "trees": 5449,
      "historical": 5450,
      "Produkt": 5451,
      "contains": 5452,
      "calc": 5453,
      "Stuttg": 5454,
      "Denn": 5455,
      "Fuehr": 5456,
      "Lok": 5457,
      "Lets": 5458,
      "taking": 5459,
      "|rel": 5460,
      "|wegen": 5461,
      "|wissen": 5462,
      "|zent": 5463,
      "|laend": 5464,
      "Stad": 5465,
      "Schle": 5466,
      "|ending": 5467,
      "|quar": 5468,
      "verbunden": 5469,
      "|hafen": 5470,
      "folgte": 5471,
      "erfolgt": 5472,
      "Ke": 5473,
      "Nutz": 5474,
      "Our": 5475,
      "Wag": 5476,
      "kept": 5477,
      "nice": 5478,
      "wissenschaft": 5479,
      "|ko": 5480,
      "|ha": 5481,
      "|waer": 5482,
      "|inner": 5483,
      "unf": 5484,
      "|iens": 5485,
      "United": 5486,
      "|weif": 5487,
      "coat": 5488,
      "trade": 5489,
      "perf": 5490,
      "value": 5491,
      "vorhanden": 5492,
      "Bav": 5493,
      "Catholic": 5494,
      "Kauf": 5495,
      "Rein": 5496,
      "komp": 5497,
      "|lings": 5498,
      "|sl": 5499,
      "|uelle": 5500,
      "|amin": 5501,
      "|ires": 5502,
      "anderes": 5503,
      "|berger": 5504,
      "zudem": 5505,
      "condu": 5506,
      "Ersten": 5507,
      "musst": 5508,
      "Gesellschaft": 5509,
      "Auto": 5510,
      "twice": 5511,
      "Frankreich": 5512,
      "performed": 5513,
      "Personen": 5514,
      "schlecht": 5515,
      "Voice": 5516,
      "thousand": 5517,
      "Dres": 5518,
      "Dafuer": 5519,
      "Fel": 5520,
      "Han": 5521,
      "Oper": 5522,
      "Pers": 5523,
      "Recht": 5524,
      "Sant": 5525,
      "Wal": 5526,
      "face": 5527,
      "ta": 5528,
      "|setzt": 5529,
      "|oved": 5530,
      "|uem": 5531,
      "|wind": 5532,
      "|statt": 5533,
      "sozial": 5534,
      "|iente": 5535,
      "|aeum": 5536,
      "besitzt": 5537,
      "welche": 5538,
      "arrang": 5539,
      "championship": 5540,
      "army": 5541,
      "relationship": 5542,
      "Stuttgart": 5543,
      "Hor": 5544,
      "Hung": 5545,
      "Tages": 5546,
      "Wetter": 5547,
      "hit": 5548,
      "pick": 5549,
      "temp": 5550,
      "zaehl": 5551,
      "|nungen": 5552,
      "|stron": 5553,
      "|onie": 5554,
      "|usaetzlich": 5555,
      "streng": 5556,
      "Stell": 5557,
      "Ergeb": 5558,
      "spread": 5559,
      "|renzt": 5560,
      "counter": 5561,
      "entrance": 5562,
      "Proble": 5563,
      "Origin": 5564,
      "remember": 5565,
      "marriage": 5566,
      "|arbeiter": 5567,
      "Indian": 5568,
      "|fahrt": 5569,
      "draw": 5570,
      "Italian": 5571,
      "older": 5572,
      "errichtet": 5573,
      "aeuss": 5574,
      "Cup": 5575,
      "Nob": 5576,
      "Tier": 5577,
      "Westen": 5578,
      "|kur": 5579,
      "|cast": 5580,
      "|fern": 5581,
      "|wor": 5582,
      "|wasser": 5583,
      "|schau": 5584,
      "|essel": 5585,
      "forg": 5586,
      "Veranst": 5587,
      "League": 5588,
      "flows": 5589,
      "|ueste": 5590,
      "|ohlen": 5591,
      "twelve": 5592,
      "province": 5593,
      "Glas": 5594,
      "|emperatur": 5595,
      "Geschaefts": 5596,
      "Kenn": 5597,
      "Os": 5598,
      "morning": 5599,
      "nu": 5600,
      "pian": 5601,
      "sens": 5602,
      "zer": 5603,
      "|burger": 5604,
      "|iete": 5605,
      "Star": 5606,
      "traegt": 5607,
      "Flu": 5608,
      "phil": 5609,
      "|gruppe": 5610,
      "Geraet": 5611,
      "teams": 5612,
      "|recher": 5613,
      "|elevision": 5614,
      "ziehen": 5615,
      "Lehrer": 5616,
      "majority": 5617,
      "failed": 5618,
      "simply": 5619,
      "Nein": 5620,
      "Publik": 5621,
      "cry": 5622,
      "date": 5623,
      "fiel": 5624,
      "harm": 5625,
      "iron": 5626,
      "kathol": 5627,
      "|lungs": 5628,
      "|pe": 5629,
      "|ril": 5630,
      "|dienst": 5631,
      "|isieren": 5632,
      "|leist": 5633,
      "|ulpt": 5634,
      "warm": 5635,
      "|allel": 5636,
      "sofort": 5637,
      "Sprach": 5638,
      "|ensatz": 5639,
      "|aeuft": 5640,
      "entstand": 5641,
      "|igned": 5642,
      "Weiss": 5643,
      "Gruppen": 5644,
      "|richtung": 5645,
      "|aendig": 5646,
      "speaking": 5647,
      "|rolle": 5648,
      "answer": 5649,
      "Fernseh": 5650,
      "verhinder": 5651,
      "Gymnasium": 5652,
      "Hoff": 5653,
      "Last": 5654,
      "lake": 5655,
      "|dre": 5656,
      "|vant": 5657,
      "theater": 5658,
      "|ico": 5659,
      "|ication": 5660,
      "Stimme": 5661,
      "|ikel": 5662,
      "reicht": 5663,
      "|ohr": 5664,
      "agre": 5665,
      "|attet": 5666,
      "schools": 5667,
      "happy": 5668,
      "events": 5669,
      "Friedhof": 5670,
      "returned": 5671,
      "Frueh": 5672,
      "Privat": 5673,
      "Cast": 5674,
      "Unt": 5675,
      "dunk": 5676,
      "|beg": 5677,
      "|lig": 5678,
      "|iar": 5679,
      "|anlage": 5680,
      "|iglich": 5681,
      "|icient": 5682,
      "erf": 5683,
      "|erner": 5684,
      "|rieges": 5685,
      "reasons": 5686,
      "Church": 5687,
      "|ishop": 5688,
      "benoet": 5689,
      "Sueden": 5690,
      "concern": 5691,
      "Kommun": 5692,
      "Russian": 5693,
      "whether": 5694,
      "Hilfe": 5695,
      "ehemaligen": 5696,
      "zwoelf": 5697,
      "Leit": 5698,
      "Mund": 5699,
      "Satz": 5700,
      "late": 5701,
      "|lassen": 5702,
      "|yth": 5703,
      "|weile": 5704,
      "erg": 5705,
      "|iken": 5706,
      "sport": 5707,
      "coach": 5708,
      "Mitte": 5709,
      "|agegen": 5710,
      "industr": 5711,
      "acqu": 5712,
      "Great": 5713,
      "technical": 5714,
      "America": 5715,
      "links": 5716,
      "destroyed": 5717,
      "|blaetter": 5718,
      "|waerts": 5719,
      "Funktion": 5720,
      "Gest": 5721,
      "Liste": 5722,
      "Zust": 5723,
      "ero": 5724,
      "faehrt": 5725,
      "listen": 5726,
      "|ka": 5727,
      "|stehen": 5728,
      "|ising": 5729,
      "|essere": 5730,
      "Init": 5731,
      "Stamm": 5732,
      "|gebung": 5733,
      "Darauf": 5734,
      "|werke": 5735,
      "Bauch": 5736,
      "|opping": 5737,
      "absolv": 5738,
      "stellte": 5739,
      "Ear": 5740,
      "aelt": 5741,
      "block": 5742,
      "hell": 5743,
      "range": 5744,
      "saw": 5745,
      "tick": 5746,
      "|volution": 5747,
      "|unsch": 5748,
      "|iced": 5749,
      "erschein": 5750,
      "thats": 5751,
      "|aeume": 5752,
      "unterstu": 5753,
      "|itted": 5754,
      "|hood": 5755,
      "Among": 5756,
      "impro": 5757,
      "inside": 5758,
      "Zwischen": 5759,
      "cream": 5760,
      "verstehen": 5761,
      "designed": 5762,
      "supported": 5763,
      "naechste": 5764,
      "Additionally": 5765,
      "Bir": 5766,
      "Could": 5767,
      "Histor": 5768,
      "Rund": 5769,
      "Wol": 5770,
      "base": 5771,
      "cup": 5772,
      "mechan": 5773,
      "ped": 5774,
      "|bra": 5775,
      "|far": 5776,
      "|will": 5777,
      "|inal": 5778,
      "|estens": 5779,
      "|orge": 5780,
      "|ironment": 5781,
      "bezeich": 5782,
      "|deck": 5783,
      "|schriften": 5784,
      "|laen": 5785,
      "Schutz": 5786,
      "|ritz": 5787,
      "computer": 5788,
      "gesagt": 5789,
      "Klasse": 5790,
      "stands": 5791,
      "oldest": 5792,
      "Familien": 5793,
      "collection": 5794,
      "movement": 5795,
      "Bal": 5796,
      "Dor": 5797,
      "Dom": 5798,
      "Wert": 5799,
      "cel": 5800,
      "getting": 5801,
      "lernen": 5802,
      "perman": 5803,
      "rar": 5804,
      "tel": 5805,
      "|heast": 5806,
      "|stag": 5807,
      "|osph": 5808,
      "|iences": 5809,
      "|nee": 5810,
      "|acken": 5811,
      "Prof": 5812,
      "introdu": 5813,
      "difference": 5814,
      "prec": 5815,
      "Maed": 5816,
      "bekommen": 5817,
      "products": 5818,
      "|book": 5819,
      "prakt": 5820,
      "innerhalb": 5821,
      "Otto": 5822,
      "Et": 5823,
      "Fab": 5824,
      "Macht": 5825,
      "diss": 5826,
      "ign": 5827,
      "says": 5828,
      "|lor": 5829,
      "|ca": 5830,
      "|famil": 5831,
      "|urity": 5832,
      "|dens": 5833,
      "Int": 5834,
      "|iful": 5835,
      "schu": 5836,
      "|riebe": 5837,
      "Verfahren": 5838,
      "|aetigkeit": 5839,
      "Sozial": 5840,
      "|zeiten": 5841,
      "Regierung": 5842,
      "|vention": 5843,
      "Beson": 5844,
      "double": 5845,
      "Grenze": 5846,
      "Ernst": 5847,
      "Armee": 5848,
      "Schueler": 5849,
      "Freiburg": 5850,
      "Chem": 5851,
      "Ehren": 5852,
      "Fal": 5853,
      "Hart": 5854,
      "Punkt": 5855,
      "cause": 5856,
      "kaemp": 5857,
      "nord": 5858,
      "sons": 5859,
      "syn": 5860,
      "|tag": 5861,
      "|zept": 5862,
      "|umin": 5863,
      "|isters": 5864,
      "|ifik": 5865,
      "Through": 5866,
      "|akte": 5867,
      "|ago": 5868,
      "Spr": 5869,
      "neuer": 5870,
      "deal": 5871,
      "|gericht": 5872,
      "qual": 5873,
      "|ologne": 5874,
      "decision": 5875,
      "guten": 5876,
      "Nov": 5877,
      "Seitdem": 5878,
      "Italy": 5879,
      "zieht": 5880,
      "Vertrag": 5881,
      "Halb": 5882,
      "enthaelt": 5883,
      "|ikanischen": 5884,
      "|ounced": 5885,
      "|bereit": 5886,
      "exhibition": 5887,
      "Cal": 5888,
      "Central": 5889,
      "Det": 5890,
      "Temperatur": 5891,
      "Wuer": 5892,
      "sah": 5893,
      "setzte": 5894,
      "television": 5895,
      "welt": 5896,
      "|ki": 5897,
      "|zus": 5898,
      "|atte": 5899,
      "|road": 5900,
      "touch": 5901,
      "|otte": 5902,
      "|ischof": 5903,
      "deshalb": 5904,
      "proced": 5905,
      "ueberwiegend": 5906,
      "prison": 5907,
      "|tempt": 5908,
      "|temberg": 5909,
      "Studien": 5910,
      "Switzer": 5911,
      "Sonne": 5912,
      "hardly": 5913,
      "songs": 5914,
      "Portug": 5915,
      "asked": 5916,
      "ausserdem": 5917,
      "surface": 5918,
      "Cologne": 5919,
      "Vom": 5920,
      "hom": 5921,
      "morgen": 5922,
      "|lier": 5923,
      "|ford": 5924,
      "|masch": 5925,
      "|onen": 5926,
      "derzeit": 5927,
      "ord": 5928,
      "travel": 5929,
      "Auft": 5930,
      "Aufgabe": 5931,
      "|ishing": 5932,
      "contact": 5933,
      "Nevertheless": 5934,
      "|airs": 5935,
      "frequ": 5936,
      "Praesident": 5937,
      "animal": 5938,
      "vehicle": 5939,
      "Namens": 5940,
      "Bevoelkerung": 5941,
      "Hell": 5942,
      "Jr": 5943,
      "Kein": 5944,
      "Leh": 5945,
      "Rob": 5946,
      "Runde": 5947,
      "|wahl": 5948,
      "|lav": 5949,
      "|ierungs": 5950,
      "sea": 5951,
      "uebernahm": 5952,
      "|acy": 5953,
      "|itting": 5954,
      "gewaehlt": 5955,
      "daraufhin": 5956,
      "Ruecken": 5957,
      "managed": 5958,
      "achieved": 5959,
      "territ": 5960,
      "principle": 5961,
      "Switzerland": 5962,
      "Ehr": 5963,
      "Lied": 5964,
      "lect": 5965,
      "loss": 5966,
      "ran": 5967,
      "tast": 5968,
      "|sitz": 5969,
      "|entlicht": 5970,
      "|ables": 5971,
      "Stift": 5972,
      "|ebel": 5973,
      "Bezeichnung": 5974,
      "Weil": 5975,
      "news": 5976,
      "Schweiz": 5977,
      "finan": 5978,
      "bringen": 5979,
      "grave": 5980,
      "Deutsche": 5981,
      "verloren": 5982,
      "passed": 5983,
      "gepraegt": 5984,
      "Radio": 5985,
      "editor": 5986,
      "questions": 5987,
      "Assoc": 5988,
      "|testant": 5989,
      "|schnitt": 5990,
      "|ermeister": 5991,
      "Court": 5992,
      "Buecher": 5993,
      "Frei": 5994,
      "Kamer": 5995,
      "Regen": 5996,
      "Us": 5997,
      "Wand": 5998,
      "cemetery": 5999,
      "paper": 6000,
      "task": 6001,
      "|beh": 6002,
      "|aem": 6003,
      "|fte": 6004,
      "|ering": 6005,
      "|ierungen": 6006,
      "Stre": 6007,
      "imm": 6008,
      "Erde": 6009,
      "ess": 6010,
      "Angeb": 6011,
      "|aetten": 6012,
      "compla": 6013,
      "Arg": 6014,
      "zwar": 6015,
      "offers": 6016,
      "youre": 6017,
      "|gesellschaft": 6018,
      "buy": 6019,
      "|ressed": 6020,
      "|atsaechlich": 6021,
      "artist": 6022,
      "|produ": 6023,
      "edge": 6024,
      "relatively": 6025,
      "offered": 6026,
      "|kirche": 6027,
      "Pflanzen": 6028,
      "temperature": 6029,
      "document": 6030,
      "Professor": 6031,
      "Dial": 6032,
      "Disk": 6033,
      "Garten": 6034,
      "Hot": 6035,
      "Sind": 6036,
      "journal": 6037,
      "mor": 6038,
      "rights": 6039,
      "veget": 6040,
      "wider": 6041,
      "|abor": 6042,
      "|elled": 6043,
      "heard": 6044,
      "sprechen": 6045,
      "shar": 6046,
      "shot": 6047,
      "Tex": 6048,
      "Landwirtschaft": 6049,
      "gegeben": 6050,
      "bekommt": 6051,
      "knowledge": 6052,
      "Brand": 6053,
      "assist": 6054,
      "|esterday": 6055,
      "meistens": 6056,
      "weeks": 6057,
      "pieces": 6058,
      "suggest": 6059,
      "Firma": 6060,
      "Dep": 6061,
      "Wass": 6062,
      "kennt": 6063,
      "pan": 6064,
      "|tschaft": 6065,
      "|wirk": 6066,
      "|chnet": 6067,
      "|orial": 6068,
      "|alia": 6069,
      "|ella": 6070,
      "|ehne": 6071,
      "Thema": 6072,
      "|laess": 6073,
      "|ida": 6074,
      "|ohol": 6075,
      "content": 6076,
      "|ricts": 6077,
      "roem": 6078,
      "|ronze": 6079,
      "driving": 6080,
      "|clear": 6081,
      "Johannes": 6082,
      "grund": 6083,
      "highest": 6084,
      "costs": 6085,
      "|leitung": 6086,
      "Reihe": 6087,
      "Liga": 6088,
      "Netz": 6089,
      "Nothing": 6090,
      "Test": 6091,
      "galt": 6092,
      "lines": 6093,
      "making": 6094,
      "|dru": 6095,
      "|wohl": 6096,
      "|zentrum": 6097,
      "|onnen": 6098,
      "erreicht": 6099,
      "|idents": 6100,
      "unc": 6101,
      "unkn": 6102,
      "|echter": 6103,
      "herr": 6104,
      "|bez": 6105,
      "Manche": 6106,
      "Manchmal": 6107,
      "|kennt": 6108,
      "interess": 6109,
      "gleichzeitig": 6110,
      "phone": 6111,
      "Mex": 6112,
      "bereit": 6113,
      "Despite": 6114,
      "Beginn": 6115,
      "clearly": 6116,
      "Belg": 6117,
      "Gegensatz": 6118,
      "David": 6119,
      "environment": 6120,
      "Good": 6121,
      "Tun": 6122,
      "Tim": 6123,
      "pun": 6124,
      "|bre": 6125,
      "|edic": 6126,
      "beer": 6127,
      "|acher": 6128,
      "|ades": 6129,
      "Arn": 6130,
      "Nachfolger": 6131,
      "|ocrat": 6132,
      "carry": 6133,
      "Moz": 6134,
      "president": 6135,
      "running": 6136,
      "systems": 6137,
      "meaning": 6138,
      "|tained": 6139,
      "silver": 6140,
      "komplett": 6141,
      "influence": 6142,
      "opin": 6143,
      "commercial": 6144,
      "Probleme": 6145,
      "unknown": 6146,
      "Bonn": 6147,
      "Dinge": 6148,
      "gift": 6149,
      "suff": 6150,
      "|ras": 6151,
      "|mas": 6152,
      "|isation": 6153,
      "beein": 6154,
      "|geordnet": 6155,
      "|istry": 6156,
      "|abet": 6157,
      "Altern": 6158,
      "mehrfach": 6159,
      "prep": 6160,
      "removed": 6161,
      "langsam": 6162,
      "produz": 6163,
      "Verbindung": 6164,
      "|reitet": 6165,
      "|zwanzig": 6166,
      "profession": 6167,
      "Charakter": 6168,
      "|ography": 6169,
      "Common": 6170,
      "practice": 6171,
      "piece": 6172,
      "extremely": 6173,
      "Dresden": 6174,
      "Arab": 6175,
      "Bert": 6176,
      "Cap": 6177,
      "Osten": 6178,
      "Rand": 6179,
      "Voll": 6180,
      "Wen": 6181,
      "cru": 6182,
      "kont": 6183,
      "ox": 6184,
      "|eated": 6185,
      "force": 6186,
      "|echer": 6187,
      "ausgest": 6188,
      "manchmal": 6189,
      "|asten": 6190,
      "|afft": 6191,
      "demand": 6192,
      "|apel": 6193,
      "print": 6194,
      "code": 6195,
      "doesn": 6196,
      "solution": 6197,
      "engag": 6198,
      "Schluss": 6199,
      "April": 6200,
      "enthalten": 6201,
      "agriculture": 6202,
      "regelmaessig": 6203,
      "hingegen": 6204,
      "Hard": 6205,
      "Sow": 6206,
      "ow": 6207,
      "tried": 6208,
      "|buer": 6209,
      "|por": 6210,
      "|faeh": 6211,
      "|erry": 6212,
      "|entin": 6213,
      "|aute": 6214,
      "lock": 6215,
      "step": 6216,
      "quant": 6217,
      "science": 6218,
      "differ": 6219,
      "gelten": 6220,
      "gebaut": 6221,
      "Arbeits": 6222,
      "Greek": 6223,
      "valley": 6224,
      "motor": 6225,
      "sentence": 6226,
      "urspruenglich": 6227,
      "Bist": 6228,
      "Cur": 6229,
      "Hir": 6230,
      "pul": 6231,
      "|back": 6232,
      "|ners": 6233,
      "|erap": 6234,
      "thirty": 6235,
      "|uletzt": 6236,
      "|avior": 6237,
      "complete": 6238,
      "finanz": 6239,
      "districts": 6240,
      "Besitz": 6241,
      "broken": 6242,
      "|fuehrer": 6243,
      "artic": 6244,
      "colla": 6245,
      "generally": 6246,
      "match": 6247,
      "require": 6248,
      "entsprechen": 6249,
      "female": 6250,
      "Syn": 6251,
      "Ven": 6252,
      "dry": 6253,
      "hope": 6254,
      "|enken": 6255,
      "|ano": 6256,
      "|onent": 6257,
      "|aly": 6258,
      "|iche": 6259,
      "thre": 6260,
      "|ieso": 6261,
      "erhe": 6262,
      "|ability": 6263,
      "|ipe": 6264,
      "tragen": 6265,
      "adj": 6266,
      "|resh": 6267,
      "specific": 6268,
      "slight": 6269,
      "additional": 6270,
      "vari": 6271,
      "|gemeinde": 6272,
      "Klaus": 6273,
      "straight": 6274,
      "Maschinen": 6275,
      "|reifen": 6276,
      "fehlt": 6277,
      "joined": 6278,
      "kosten": 6279,
      "lat": 6280,
      "sister": 6281,
      "web": 6282,
      "|ror": 6283,
      "|ram": 6284,
      "|ua": 6285,
      "|eral": 6286,
      "|roem": 6287,
      "|eitig": 6288,
      "|anner": 6289,
      "attempt": 6290,
      "coff": 6291,
      "driver": 6292,
      "Darf": 6293,
      "Entscheid": 6294,
      "|aktion": 6295,
      "films": 6296,
      "Swiss": 6297,
      "Vertret": 6298,
      "missing": 6299,
      "Party": 6300,
      "Club": 6301,
      "gemeinsam": 6302,
      "Hannover": 6303,
      "veroeffentlicht": 6304,
      "appointed": 6305,
      "Act": 6306,
      "Cre": 6307,
      "Come": 6308,
      "Fass": 6309,
      "Kaffe": 6310,
      "fat": 6311,
      "leider": 6312,
      "might": 6313,
      "zaehlt": 6314,
      "|gor": 6315,
      "|mel": 6316,
      "|zust": 6317,
      "|xis": 6318,
      "|ieh": 6319,
      "|orben": 6320,
      "|eless": 6321,
      "|leb": 6322,
      "|igur": 6323,
      "|ilien": 6324,
      "|roffen": 6325,
      "verein": 6326,
      "|efte": 6327,
      "ausges": 6328,
      "weap": 6329,
      "flu": 6330,
      "below": 6331,
      "Euro": 6332,
      "basic": 6333,
      "colors": 6334,
      "|arbeiten": 6335,
      "zahlreichen": 6336,
      "oeffentlichen": 6337,
      "|ademy": 6338,
      "management": 6339,
      "Eisenbahn": 6340,
      "source": 6341,
      "heutigen": 6342,
      "Gib": 6343,
      "Kons": 6344,
      "Leg": 6345,
      "Luther": 6346,
      "Rat": 6347,
      "Stern": 6348,
      "Sever": 6349,
      "Tisch": 6350,
      "Van": 6351,
      "Wett": 6352,
      "bers": 6353,
      "rid": 6354,
      "sides": 6355,
      "|ex": 6356,
      "|ini": 6357,
      "|unken": 6358,
      "|indest": 6359,
      "|though": 6360,
      "weight": 6361,
      "flight": 6362,
      "implement": 6363,
      "geworden": 6364,
      "|onna": 6365,
      "careful": 6366,
      "background": 6367,
      "verwenden": 6368,
      "Gemeinden": 6369,
      "helfen": 6370,
      "transfer": 6371,
      "erkennen": 6372,
      "Kaiser": 6373,
      "fields": 6374,
      "square": 6375,
      "Until": 6376,
      "Letz": 6377,
      "ful": 6378,
      "mouth": 6379,
      "trotz": 6380,
      "wear": 6381,
      "woman": 6382,
      "|bus": 6383,
      "|ga": 6384,
      "|strecke": 6385,
      "|emann": 6386,
      "|endes": 6387,
      "miteinander": 6388,
      "spir": 6389,
      "|angs": 6390,
      "|ausch": 6391,
      "|iertel": 6392,
      "compos": 6393,
      "Chor": 6394,
      "quality": 6395,
      "|lerweile": 6396,
      "koennt": 6397,
      "Schwarz": 6398,
      "actor": 6399,
      "Gesicht": 6400,
      "trained": 6401,
      "arbeiten": 6402,
      "|gewiesen": 6403,
      "leading": 6404,
      "poet": 6405,
      "|laeuft": 6406,
      "choir": 6407,
      "section": 6408,
      "digital": 6409,
      "Vogel": 6410,
      "Pan": 6411,
      "Wappen": 6412,
      "cable": 6413,
      "dagegen": 6414,
      "hung": 6415,
      "krit": 6416,
      "klass": 6417,
      "|gers": 6418,
      "|wissenschaft": 6419,
      "|ilfe": 6420,
      "|iest": 6421,
      "schreiben": 6422,
      "concept": 6423,
      "spent": 6424,
      "|ernte": 6425,
      "offiziel": 6426,
      "resist": 6427,
      "Weise": 6428,
      "finde": 6429,
      "vielleicht": 6430,
      "bridge": 6431,
      "|ittee": 6432,
      "refle": 6433,
      "zeigen": 6434,
      "|iminal": 6435,
      "entstehen": 6436,
      "Milch": 6437,
      "Wirtschafts": 6438,
      "Politik": 6439,
      "Einwohner": 6440,
      "beautiful": 6441,
      "|liothek": 6442,
      "Ath": 6443,
      "Gas": 6444,
      "Jur": 6445,
      "Sicht": 6446,
      "Turm": 6447,
      "winter": 6448,
      "|bare": 6449,
      "|oel": 6450,
      "|rigen": 6451,
      "|right": 6452,
      "|vin": 6453,
      "|za": 6454,
      "|ernt": 6455,
      "|onist": 6456,
      "|rease": 6457,
      "throw": 6458,
      "|umn": 6459,
      "Thus": 6460,
      "confl": 6461,
      "Albert": 6462,
      "Any": 6463,
      "|herr": 6464,
      "|wood": 6465,
      "bestand": 6466,
      "create": 6467,
      "Staaten": 6468,
      "communities": 6469,
      "landsc": 6470,
      "writing": 6471,
      "restaur": 6472,
      "Philipp": 6473,
      "Jewish": 6474,
      "citizens": 6475,
      "Richard": 6476,
      "Division": 6477,
      "Los": 6478,
      "Sach": 6479,
      "Suche": 6480,
      "Tsch": 6481,
      "Were": 6482,
      "amer": 6483,
      "diente": 6484,
      "fine": 6485,
      "fix": 6486,
      "mis": 6487,
      "size": 6488,
      "taste": 6489,
      "|uber": 6490,
      "|cceed": 6491,
      "|ynt": 6492,
      "|erem": 6493,
      "|ener": 6494,
      "theory": 6495,
      "|orter": 6496,
      "|ety": 6497,
      "|oming": 6498,
      "|entliche": 6499,
      "|verein": 6500,
      "unbed": 6501,
      "succeed": 6502,
      "ihres": 6503,
      "percent": 6504,
      "eingest": 6505,
      "standing": 6506,
      "importance": 6507,
      "Exper": 6508,
      "originally": 6509,
      "sounds": 6510,
      "erreichte": 6511,
      "Alexander": 6512,
      "conditions": 6513,
      "replaced": 6514,
      "newspaper": 6515,
      "celeb": 6516,
      "Eff": 6517,
      "Haf": 6518,
      "Mond": 6519,
      "Press": 6520,
      "Temp": 6521,
      "battle": 6522,
      "|ban": 6523,
      "|zimmer": 6524,
      "|stens": 6525,
      "|rauch": 6526,
      "|raeum": 6527,
      "|achten": 6528,
      "|verw": 6529,
      "verlaeuft": 6530,
      "|etzungen": 6531,
      "reject": 6532,
      "Einfluss": 6533,
      "|ccer": 6534,
      "Island": 6535,
      "security": 6536,
      "parish": 6537,
      "brachte": 6538,
      "feed": 6539,
      "geschlossen": 6540,
      "schwier": 6541,
      "meters": 6542,
      "Glueck": 6543,
      "Spezial": 6544,
      "emergency": 6545,
      "vehicles": 6546,
      "definit": 6547,
      "Niemand": 6548,
      "tomorrow": 6549,
      "Energie": 6550,
      "Association": 6551,
      "opinion": 6552,
      "-,": 6553,
      "Daher": 6554,
      "Up": 6555,
      "fu": 6556,
      "rechts": 6557,
      "sau": 6558,
      "|pass": 6559,
      "|aders": 6560,
      "|oned": 6561,
      "|leid": 6562,
      "|rael": 6563,
      "bear": 6564,
      "states": 6565,
      "|istik": 6566,
      "|endorf": 6567,
      "|eche": 6568,
      "consequen": 6569,
      "|sprache": 6570,
      "|reiber": 6571,
      "student": 6572,
      "verlassen": 6573,
      "Paar": 6574,
      "lawyer": 6575,
      "Willi": 6576,
      "|rika": 6577,
      "significantly": 6578,
      "champion": 6579,
      "neighb": 6580,
      "horse": 6581,
      "Staedte": 6582,
      "Vorsitz": 6583,
      "disappear": 6584,
      "rarely": 6585,
      "Dopp": 6586,
      "Gust": 6587,
      "Kranken": 6588,
      "Sold": 6589,
      "Wagen": 6590,
      "bild": 6591,
      "brit": 6592,
      "hil": 6593,
      "nin": 6594,
      "race": 6595,
      "tail": 6596,
      "|pr": 6597,
      "|cel": 6598,
      "|cies": 6599,
      "|aere": 6600,
      "|fert": 6601,
      "anc": 6602,
      "aufge": 6603,
      "Sprachen": 6604,
      "grown": 6605,
      "Thereby": 6606,
      "flat": 6607,
      "|stellungen": 6608,
      "|gangs": 6609,
      "movies": 6610,
      "drauf": 6611,
      "Personal": 6612,
      "Latin": 6613,
      "einzelnen": 6614,
      "Hermann": 6615,
      "inhabit": 6616,
      "Walter": 6617,
      "camer": 6618,
      "rule": 6619,
      "|pack": 6620,
      "|dom": 6621,
      "|mlich": 6622,
      "|vere": 6623,
      "|erte": 6624,
      "|orgt": 6625,
      "|elten": 6626,
      "|iligen": 6627,
      "|rogen": 6628,
      "|ickt": 6629,
      "vorbei": 6630,
      "Aufgrund": 6631,
      "expand": 6632,
      "bringt": 6633,
      "parliament": 6634,
      "Branden": 6635,
      "assum": 6636,
      "|ksam": 6637,
      "evening": 6638,
      "highly": 6639,
      "effects": 6640,
      "Austrian": 6641,
      "deinen": 6642,
      "irgendwie": 6643,
      "Bremen": 6644,
      "Linie": 6645,
      "schmeckt": 6646,
      "coffee": 6647,
      "Jun": 6648,
      "Kro": 6649,
      "Open": 6650,
      "Position": 6651,
      "bread": 6652,
      "killed": 6653,
      "vac": 6654,
      "wed": 6655,
      "|rated": 6656,
      "|xim": 6657,
      "|urance": 6658,
      "|schuss": 6659,
      "stammen": 6660,
      "Stock": 6661,
      "imag": 6662,
      "aufs": 6663,
      "|iko": 6664,
      "scheint": 6665,
      "software": 6666,
      "expl": 6667,
      "|erenz": 6668,
      "amount": 6669,
      "leader": 6670,
      "move": 6671,
      "Bevor": 6672,
      "accident": 6673,
      "numbers": 6674,
      "entwickelt": 6675,
      "entwickelte": 6676,
      "|musik": 6677,
      "Reform": 6678,
      "investig": 6679,
      "glaube": 6680,
      "Africa": 6681,
      "property": 6682,
      "absolvierte": 6683,
      "Bier": 6684,
      "Est": 6685,
      "Frie": 6686,
      "Lim": 6687,
      "Sinn": 6688,
      "hyd": 6689,
      "laeuft": 6690,
      "rank": 6691,
      "|fle": 6692,
      "|iehen": 6693,
      "|isher": 6694,
      "|leiter": 6695,
      "|uls": 6696,
      "|idden": 6697,
      "ausgeb": 6698,
      "abgel": 6699,
      "|gebaeude": 6700,
      "Herren": 6701,
      "|fernt": 6702,
      "previous": 6703,
      "|tragen": 6704,
      "foundation": 6705,
      "Elis": 6706,
      "Council": 6707,
      "halb": 6708,
      "|umpf": 6709,
      "Apart": 6710,
      "|liegen": 6711,
      "required": 6712,
      "oppos": 6713,
      "represented": 6714,
      "Serie": 6715,
      "includes": 6716,
      "absolut": 6717,
      "Trans": 6718,
      "activities": 6719,
      "surpris": 6720,
      "milk": 6721,
      "|wissenschaften": 6722,
      "neighbors": 6723,
      "Koch": 6724,
      "Kiel": 6725,
      "Kern": 6726,
      "Kolle": 6727,
      "Kuehl": 6728,
      "Moment": 6729,
      "golden": 6730,
      "oest": 6731,
      "|zub": 6732,
      "|chest": 6733,
      "|elligen": 6734,
      "Schoen": 6735,
      "Schlag": 6736,
      "Sieg": 6737,
      "shown": 6738,
      "Verz": 6739,
      "orange": 6740,
      "Unfortunately": 6741,
      "coast": 6742,
      "elected": 6743,
      "reform": 6744,
      "smaller": 6745,
      "Lux": 6746,
      "Koennen": 6747,
      "limited": 6748,
      "football": 6749,
      "wechselte": 6750,
      "Relig": 6751,
      "Fehler": 6752,
      "|uropae": 6753,
      "Prinzip": 6754,
      "mentioned": 6755,
      "Nobody": 6756,
      "Camp": 6757,
      "Mess": 6758,
      "Mik": 6759,
      "Oft": 6760,
      "dah": 6761,
      "division": 6762,
      "tar": 6763,
      "|ode": 6764,
      "|kten": 6765,
      "|uit": 6766,
      "|frei": 6767,
      "|any": 6768,
      "|ieber": 6769,
      "|itness": 6770,
      "|arr": 6771,
      "|unte": 6772,
      "entfernt": 6773,
      "Social": 6774,
      "Engel": 6775,
      "Tradition": 6776,
      "possess": 6777,
      "Arbeiten": 6778,
      "koennten": 6779,
      "window": 6780,
      "vermut": 6781,
      "|ospital": 6782,
      "Heidel": 6783,
      "inhabitants": 6784,
      "Gal": 6785,
      "Kosten": 6786,
      "Lake": 6787,
      "Pres": 6788,
      "Sign": 6789,
      "pull": 6790,
      "|best": 6791,
      "|hile": 6792,
      "|action": 6793,
      "|field": 6794,
      "|isierte": 6795,
      "|schuld": 6796,
      "|ruhe": 6797,
      "|opt": 6798,
      "|ussen": 6799,
      "shape": 6800,
      "|ierende": 6801,
      "befand": 6802,
      "darueber": 6803,
      "Schwester": 6804,
      "Regional": 6805,
      "decis": 6806,
      "behavior": 6807,
      "Carl": 6808,
      "erfolgte": 6809,
      "advant": 6810,
      "listed": 6811,
      "windows": 6812,
      "Buerg": 6813,
      "contrast": 6814,
      "Welche": 6815,
      "doubt": 6816,
      "trying": 6817,
      "erreichen": 6818,
      "pictures": 6819,
      "safe": 6820,
      "crown": 6821,
      "escape": 6822,
      "Bereits": 6823,
      "Bu": 6824,
      "Ep": 6825,
      "bike": 6826,
      "god": 6827,
      "wing": 6828,
      "|oz": 6829,
      "|oeren": 6830,
      "|rid": 6831,
      "tourn": 6832,
      "erster": 6833,
      "|undzwanzig": 6834,
      "sogen": 6835,
      "|steil": 6836,
      "zwanzig": 6837,
      "|rateg": 6838,
      "consum": 6839,
      "Steuer": 6840,
      "kleiner": 6841,
      "thinks": 6842,
      "treat": 6843,
      "visible": 6844,
      "appears": 6845,
      "|gemeinschaft": 6846,
      "|stoffe": 6847,
      "somehow": 6848,
      "authorities": 6849,
      "Technik": 6850,
      "painting": 6851,
      "fertig": 6852,
      "memory": 6853,
      "Several": 6854,
      "\"-": 6855,
      "Junge": 6856,
      "Pak": 6857,
      "Sem": 6858,
      "beteil": 6859,
      "kost": 6860,
      "|such": 6861,
      "|kor": 6862,
      "|uep": 6863,
      "|horn": 6864,
      "|fest": 6865,
      "|mat": 6866,
      "|wart": 6867,
      "|chn": 6868,
      "|ora": 6869,
      "|eler": 6870,
      "|aming": 6871,
      "isnt": 6872,
      "thick": 6873,
      "|weisen": 6874,
      "|immel": 6875,
      "needed": 6876,
      "medal": 6877,
      "media": 6878,
      "discovered": 6879,
      "|opped": 6880,
      "vollstaendig": 6881,
      "continu": 6882,
      "protect": 6883,
      "situated": 6884,
      "Maschine": 6885,
      "picture": 6886,
      "umfasst": 6887,
      "Verkehrs": 6888,
      "avoid": 6889,
      "Jes": 6890,
      "Las": 6891,
      "Old": 6892,
      "Roll": 6893,
      "Sig": 6894,
      "Var": 6895,
      "batter": 6896,
      "reb": 6897,
      "summ": 6898,
      "|hagen": 6899,
      "stret": 6900,
      "erz": 6901,
      "|ads": 6902,
      "|ruendet": 6903,
      "|assel": 6904,
      "|agog": 6905,
      "|uenft": 6906,
      "Chines": 6907,
      "habt": 6908,
      "Software": 6909,
      "|ervation": 6910,
      "|ologischen": 6911,
      "underst": 6912,
      "Gesetz": 6913,
      "looked": 6914,
      "depends": 6915,
      "starting": 6916,
      "Show": 6917,
      "passiert": 6918,
      "schwar": 6919,
      "empt": 6920,
      "Volk": 6921,
      "grosser": 6922,
      "|ademie": 6923,
      "Jedoch": 6924,
      "Gleichzeitig": 6925,
      "|jaehrigen": 6926,
      "falsch": 6927,
      "|wuerd": 6928,
      "Kritik": 6929,
      "funktioniert": 6930,
      "Hum": 6931,
      "Situ": 6932,
      "Wander": 6933,
      "Zahn": 6934,
      "dise": 6935,
      "latter": 6936,
      "rich": 6937,
      "waste": 6938,
      "|bit": 6939,
      "|lers": 6940,
      "|ients": 6941,
      "|ancy": 6942,
      "|onom": 6943,
      "|ato": 6944,
      "Themen": 6945,
      "|derungen": 6946,
      "|law": 6947,
      "|essert": 6948,
      "|ulate": 6949,
      "|idt": 6950,
      "Alten": 6951,
      "|riech": 6952,
      "complex": 6953,
      "|ultiv": 6954,
      "|aces": 6955,
      "quarter": 6956,
      "plat": 6957,
      "|ronic": 6958,
      "product": 6959,
      "|mannschaft": 6960,
      "write": 6961,
      "occasion": 6962,
      "|igesetzt": 6963,
      "|laeuf": 6964,
      "measures": 6965,
      "aktiv": 6966,
      "gespielt": 6967,
      "regularly": 6968,
      "|raege": 6969,
      "exclus": 6970,
      "library": 6971,
      "Daraufhin": 6972,
      "opposite": 6973,
      "Acht": 6974,
      "Haende": 6975,
      "Journal": 6976,
      "Kuech": 6977,
      "Lou": 6978,
      "Sep": 6979,
      "Wider": 6980,
      "Zun": 6981,
      "bag": 6982,
      "cake": 6983,
      "dance": 6984,
      "fif": 6985,
      "haengt": 6986,
      "|where": 6987,
      "|zip": 6988,
      "|uries": 6989,
      "|amber": 6990,
      "|anders": 6991,
      "|imar": 6992,
      "foreign": 6993,
      "verp": 6994,
      "|eide": 6995,
      "|illen": 6996,
      "|aendert": 6997,
      "Ord": 6998,
      "recon": 6999,
      "jede": 7000,
      "mussten": 7001,
      "Maj": 7002,
      "object": 7003,
      "damage": 7004,
      "|getragen": 7005,
      "Pruss": 7006,
      "Ihren": 7007,
      "folgen": 7008,
      "charge": 7009,
      "Koeln": 7010,
      "|lieben": 7011,
      "learned": 7012,
      "Donau": 7013,
      "unterschiedlich": 7014,
      "Spanish": 7015,
      "philosoph": 7016,
      "Aust": 7017,
      "Hit": 7018,
      "Ring": 7019,
      "gear": 7020,
      "waechst": 7021,
      "|iot": 7022,
      "|foerm": 7023,
      "|edt": 7024,
      "|edom": 7025,
      "|rep": 7026,
      "|rovers": 7027,
      "|irks": 7028,
      "stories": 7029,
      "anst": 7030,
      "|abeth": 7031,
      "|ischt": 7032,
      "|efe": 7033,
      "|eper": 7034,
      "exch": 7035,
      "chain": 7036,
      "reag": 7037,
      "|udden": 7038,
      "|sper": 7039,
      "|altungen": 7040,
      "Soehne": 7041,
      "gehalten": 7042,
      "Heraus": 7043,
      "verschw": 7044,
      "monument": 7045,
      "services": 7046,
      "Short": 7047,
      "corner": 7048,
      "writer": 7049,
      "Versuch": 7050,
      "Vereins": 7051,
      "anno": 7052,
      "Karls": 7053,
      "holid": 7054,
      "Peters": 7055,
      "religious": 7056,
      "caused": 7057,
      "degree": 7058,
      "|nehmer": 7059,
      "industrial": 7060,
      "|familie": 7061,
      "Eigentlich": 7062,
      "Nic": 7063,
      "Tog": 7064,
      "kit": 7065,
      "taught": 7066,
      "tatsaechlich": 7067,
      "|sm": 7068,
      "|rang": 7069,
      "|rone": 7070,
      "|dam": 7071,
      "|gaeng": 7072,
      "|cript": 7073,
      "|oret": 7074,
      "|roph": 7075,
      "tool": 7076,
      "|uts": 7077,
      "|otion": 7078,
      "store": 7079,
      "Stellen": 7080,
      "|indungen": 7081,
      "|ifen": 7082,
      "|etzten": 7083,
      "proper": 7084,
      "|uble": 7085,
      "players": 7086,
      "Landkreis": 7087,
      "Maenner": 7088,
      "smell": 7089,
      "Umgebung": 7090,
      "graph": 7091,
      "Meer": 7092,
      "Hoehe": 7093,
      "guitar": 7094,
      "|ativen": 7095,
      "|mitted": 7096,
      "signal": 7097,
      "operation": 7098,
      "provided": 7099,
      "types": 7100,
      "|laufen": 7101,
      "ziemlich": 7102,
      "irgendw": 7103,
      "daughters": 7104,
      "separate": 7105,
      "ernst": 7106,
      "Nachbarn": 7107,
      "Forschungs": 7108,
      "birds": 7109,
      "Rudolf": 7110,
      "piano": 7111,
      "Bischof": 7112,
      "Gitar": 7113,
      "Mail": 7114,
      "Szen": 7115,
      "flag": 7116,
      "having": 7117,
      "summer": 7118,
      "video": 7119,
      "|tet": 7120,
      "|finden": 7121,
      "|ypt": 7122,
      "|erung": 7123,
      "|ieht": 7124,
      "|utage": 7125,
      "|utions": 7126,
      "theres": 7127,
      "stuff": 7128,
      "heavy": 7129,
      "aufgenommen": 7130,
      "wirtschaft": 7131,
      "react": 7132,
      "|eteilt": 7133,
      "|gebracht": 7134,
      "teeth": 7135,
      "Zeitpunkt": 7136,
      "Regeln": 7137,
      "hinzu": 7138,
      "|steroid": 7139,
      "trib": 7140,
      "|maess": 7141,
      "Weltmeister": 7142,
      "gleichnam": 7143,
      "geschrieben": 7144,
      "fourth": 7145,
      "basis": 7146,
      "|atively": 7147,
      "airport": 7148,
      "|ength": 7149,
      "Industrie": 7150,
      "|rachte": 7151,
      "happens": 7152,
      "Fahrrad": 7153,
      "|blick": 7154,
      "interested": 7155,
      "|sprung": 7156,
      "increased": 7157,
      "|kirchen": 7158,
      "referred": 7159,
      "|quarters": 7160,
      "Cle": 7161,
      "Di": 7162,
      "Fein": 7163,
      "Give": 7164,
      "Il": 7165,
      "Pop": 7166,
      "Ram": 7167,
      "eth": 7168,
      "kinder": 7169,
      "oben": 7170,
      "passt": 7171,
      "wild": 7172,
      "|oe": 7173,
      "|rent": 7174,
      "|rier": 7175,
      "|isc": 7176,
      "|utch": 7177,
      "|ahmen": 7178,
      "Stich": 7179,
      "Streit": 7180,
      "|enne": 7181,
      "shopping": 7182,
      "Vergleich": 7183,
      "sex": 7184,
      "uebern": 7185,
      "|steigen": 7186,
      "|ordnung": 7187,
      "|iedelt": 7188,
      "|loes": 7189,
      "|aily": 7190,
      "betrieben": 7191,
      "becomes": 7192,
      "|raten": 7193,
      "|baren": 7194,
      "Unterschied": 7195,
      "|achtet": 7196,
      "successor": 7197,
      "serve": 7198,
      "Bauern": 7199,
      "finds": 7200,
      "Urs": 7201,
      "Ohren": 7202,
      "Sonnen": 7203,
      "deliver": 7204,
      "trug": 7205,
      "representative": 7206,
      "screen": 7207,
      "zweimal": 7208,
      "flowers": 7209,
      "strength": 7210,
      "financial": 7211,
      "Dok": 7212,
      "Kunden": 7213,
      "Lad": 7214,
      "Like": 7215,
      "Lower": 7216,
      "Mand": 7217,
      "ban": 7218,
      "fro": 7219,
      "fanden": 7220,
      "ju": 7221,
      "kla": 7222,
      "lic": 7223,
      "que": 7224,
      "row": 7225,
      "|oben": 7226,
      "|days": 7227,
      "|gau": 7228,
      "|mass": 7229,
      "|zentr": 7230,
      "|erer": 7231,
      "|insel": 7232,
      "ermo": 7233,
      "|laden": 7234,
      "Institute": 7235,
      "|cks": 7236,
      "|ohle": 7237,
      "ueberall": 7238,
      "durchgefuehrt": 7239,
      "noise": 7240,
      "|aille": 7241,
      "tea": 7242,
      "register": 7243,
      "Reis": 7244,
      "element": 7245,
      "elements": 7246,
      "tries": 7247,
      "earlier": 7248,
      "county": 7249,
      "evangel": 7250,
      "evidence": 7251,
      "Finanz": 7252,
      "equipped": 7253,
      "factory": 7254,
      "automatisch": 7255,
      "lautet": 7256,
      "zerstoert": 7257,
      "erneut": 7258,
      "broadcast": 7259,
      "permanent": 7260,
      "Maedchen": 7261,
      "Bein": 7262,
      "Foerder": 7263,
      "Hon": 7264,
      "Hause": 7265,
      "Lar": 7266,
      "Soll": 7267,
      "ff": 7268,
      "nerv": 7269,
      "|kan": 7270,
      "|gaenger": 7271,
      "|stre": 7272,
      "|eds": 7273,
      "beispiel": 7274,
      "|imed": 7275,
      "stopped": 7276,
      "|uchten": 7277,
      "soccer": 7278,
      "Anlage": 7279,
      "meat": 7280,
      "enjo": 7281,
      "composition": 7282,
      "Wird": 7283,
      "|gestell": 7284,
      "Maenn": 7285,
      "Unterstu": 7286,
      "increase": 7287,
      "hoeren": 7288,
      "Meist": 7289,
      "headquarters": 7290,
      "towns": 7291,
      "|laubt": 7292,
      "eastern": 7293,
      "added": 7294,
      "|sequent": 7295,
      "Schauspieler": 7296,
      "wahrscheinlich": 7297,
      "profit": 7298,
      "audience": 7299,
      "wichtige": 7300,
      "Militaer": 7301,
      "magazine": 7302,
      "understood": 7303,
      "Ages": 7304,
      "Dass": 7305,
      "Finger": 7306,
      "House": 7307,
      "Nahr": 7308,
      "Rost": 7309,
      "div": 7310,
      "glob": 7311,
      "krie": 7312,
      "wide": 7313,
      "|ente": 7314,
      "|anlagen": 7315,
      "|arn": 7316,
      "|istan": 7317,
      "|verse": 7318,
      "Schliesslich": 7319,
      "Hey": 7320,
      "|artet": 7321,
      "|ielten": 7322,
      "ens": 7323,
      "acting": 7324,
      "|ysis": 7325,
      "George": 7326,
      "erstmals": 7327,
      "Royal": 7328,
      "Monate": 7329,
      "Artikel": 7330,
      "Folgen": 7331,
      "gruen": 7332,
      "lediglich": 7333,
      "Bestand": 7334,
      "stayed": 7335,
      "Black": 7336,
      "People": 7337,
      "western": 7338,
      "meantime": 7339,
      "|iquid": 7340,
      "verfuegt": 7341,
      "jueng": 7342,
      "Beit": 7343,
      "Funkt": 7344,
      "Haut": 7345,
      "Krank": 7346,
      "Naz": 7347,
      "nor": 7348,
      "richt": 7349,
      "rund": 7350,
      "sort": 7351,
      "tie": 7352,
      "|come": 7353,
      "|mosph": 7354,
      "|achte": 7355,
      "ships": 7356,
      "Verfu": 7357,
      "White": 7358,
      "weitgehend": 7359,
      "account": 7360,
      "Westph": 7361,
      "organiz": 7362,
      "|tember": 7363,
      "William": 7364,
      "Finally": 7365,
      "militaer": 7366,
      "presented": 7367,
      "|spieler": 7368,
      "Apparently": 7369,
      "Archite": 7370,
      "|mitgl": 7371,
      "automatically": 7372,
      "procedure": 7373,
      "Gustav": 7374,
      "Golden": 7375,
      "Nation": 7376,
      "Put": 7377,
      "Rang": 7378,
      "Rome": 7379,
      "Wall": 7380,
      "dim": 7381,
      "kap": 7382,
      "wuen": 7383,
      "|ees": 7384,
      "|lingen": 7385,
      "|iative": 7386,
      "|empl": 7387,
      "|tert": 7388,
      "vern": 7389,
      "|iking": 7390,
      "|atzen": 7391,
      "plans": 7392,
      "bisschen": 7393,
      "|uese": 7394,
      "decor": 7395,
      "benutzt": 7396,
      "Bundest": 7397,
      "medical": 7398,
      "|idential": 7399,
      "reality": 7400,
      "organization": 7401,
      "biggest": 7402,
      "|reibung": 7403,
      "aehnlich": 7404,
      "|ziehung": 7405,
      "franzoesischen": 7406,
      "definitely": 7407,
      "Bot": 7408,
      "Deck": 7409,
      "Ker": 7410,
      "Log": 7411,
      "Merk": 7412,
      "Sae": 7413,
      "Term": 7414,
      "Tanz": 7415,
      "dom": 7416,
      "perm": 7417,
      "sen": 7418,
      "wish": 7419,
      "|bark": 7420,
      "|oter": 7421,
      "|kraft": 7422,
      "|grad": 7423,
      "|ving": 7424,
      "erl": 7425,
      "|egentlich": 7426,
      "|abin": 7427,
      "|erseits": 7428,
      "States": 7429,
      "italien": 7430,
      "Angriff": 7431,
      "|erences": 7432,
      "adapt": 7433,
      "suitable": 7434,
      "|phones": 7435,
      "scene": 7436,
      "blieben": 7437,
      "|itaeten": 7438,
      "bestimm": 7439,
      "Groesse": 7440,
      "hohe": 7441,
      "hoeh": 7442,
      "schwarz": 7443,
      "mathemat": 7444,
      "|reiten": 7445,
      "snow": 7446,
      "portra": 7447,
      "agricultural": 7448,
      "meeting": 7449,
      "bezeichnen": 7450,
      "slightly": 7451,
      "unbedingt": 7452,
      "Etw": 7453,
      "Hes": 7454,
      "Hug": 7455,
      "Les": 7456,
      "Mur": 7457,
      "af": 7458,
      "glauben": 7459,
      "length": 7460,
      "ple": 7461,
      "purs": 7462,
      "rout": 7463,
      "zuf": 7464,
      "|gro": 7465,
      "|inos": 7466,
      "|lehr": 7467,
      "|una": 7468,
      "|uty": 7469,
      "beigesetzt": 7470,
      "|avig": 7471,
      "spring": 7472,
      "|seud": 7473,
      "|ector": 7474,
      "price": 7475,
      "|onds": 7476,
      "Zeitung": 7477,
      "applied": 7478,
      "|redit": 7479,
      "Stadtteil": 7480,
      "election": 7481,
      "Andere": 7482,
      "Brenn": 7483,
      "Sea": 7484,
      "Trainer": 7485,
      "speech": 7486,
      "Zukunft": 7487,
      "weiterer": 7488,
      "Minute": 7489,
      "legs": 7490,
      "concl": 7491,
      "Schlacht": 7492,
      "Demokrat": 7493,
      "gestellt": 7494,
      "Flughafen": 7495,
      "volume": 7496,
      "somit": 7497,
      "release": 7498,
      "Philosoph": 7499,
      "categ": 7500,
      "recognized": 7501,
      "Super": 7502,
      "Herzog": 7503,
      "bottle": 7504,
      "Saxony": 7505,
      "alternative": 7506,
      "Academy": 7507,
      "Schwerpunkt": 7508,
      "empty": 7509,
      "Auge": 7510,
      "Cz": 7511,
      "Lage": 7512,
      "Mary": 7513,
      "Zoll": 7514,
      "bot": 7515,
      "coll": 7516,
      "hohen": 7517,
      "lights": 7518,
      "ma": 7519,
      "|je": 7520,
      "|aria": 7521,
      "|igs": 7522,
      "|olen": 7523,
      "|raeger": 7524,
      "|ached": 7525,
      "demon": 7526,
      "Ans": 7527,
      "Verd": 7528,
      "|iped": 7529,
      "recently": 7530,
      "qualif": 7531,
      "|ammlung": 7532,
      "|utzutage": 7533,
      "|ehnte": 7534,
      "accomp": 7535,
      "Geburt": 7536,
      "eingesch": 7537,
      "supply": 7538,
      "defense": 7539,
      "secondary": 7540,
      "engines": 7541,
      "|ropri": 7542,
      "marked": 7543,
      "|vertret": 7544,
      "receive": 7545,
      "|aeden": 7546,
      "Klavier": 7547,
      "Silber": 7548,
      "unbek": 7549,
      "Otherwise": 7550,
      "determined": 7551,
      "Army": 7552,
      "beispielsweise": 7553,
      "Jazz": 7554,
      "Meter": 7555,
      "Tab": 7556,
      "Vir": 7557,
      "culture": 7558,
      "dedic": 7559,
      "gingen": 7560,
      "jued": 7561,
      "kra": 7562,
      "letzt": 7563,
      "letter": 7564,
      "sicht": 7565,
      "zuerst": 7566,
      "|saetzlich": 7567,
      "|gely": 7568,
      "|quer": 7569,
      "|stern": 7570,
      "|staende": 7571,
      "|arb": 7572,
      "|arkt": 7573,
      "|imum": 7574,
      "stir": 7575,
      "|ested": 7576,
      "|ctors": 7577,
      "heav": 7578,
      "|eizer": 7579,
      "reichen": 7580,
      "Abschluss": 7581,
      "|athers": 7582,
      "fliesst": 7583,
      "expert": 7584,
      "Israel": 7585,
      "owners": 7586,
      "largely": 7587,
      "deutsch": 7588,
      "Kirch": 7589,
      "fruit": 7590,
      "landwirtschaft": 7591,
      "elf": 7592,
      "letzter": 7593,
      "Schulen": 7594,
      "Medien": 7595,
      "requires": 7596,
      "Reichs": 7597,
      "Partner": 7598,
      "honorary": 7599,
      "Prozess": 7600,
      "Sicherheits": 7601,
      "Olympic": 7602,
      "painter": 7603,
      "Bekannt": 7604,
      "|operation": 7605,
      "slowly": 7606,
      "narrow": 7607,
      "perfect": 7608,
      "Zunaechst": 7609,
      "Brief": 7610,
      "Law": 7611,
      "kre": 7612,
      "mel": 7613,
      "okay": 7614,
      "sac": 7615,
      "|frist": 7616,
      "|itude": 7617,
      "invent": 7618,
      "Institut": 7619,
      "asp": 7620,
      "weak": 7621,
      "|erken": 7622,
      "|oerdert": 7623,
      "|aehrlich": 7624,
      "Once": 7625,
      "Stefan": 7626,
      "Saar": 7627,
      "Beste": 7628,
      "|elfte": 7629,
      "Medizin": 7630,
      "showed": 7631,
      "Bewegung": 7632,
      "include": 7633,
      "status": 7634,
      "walls": 7635,
      "lessons": 7636,
      "vertreten": 7637,
      "Fernsehen": 7638,
      "branch": 7639,
      "|windigkeit": 7640,
      "|ocratic": 7641,
      "erheb": 7642,
      "Californ": 7643,
      "Eier": 7644,
      "Fro": 7645,
      "Jung": 7646,
      "Kong": 7647,
      "Natuerlich": 7648,
      "Rail": 7649,
      "Serv": 7650,
      "candid": 7651,
      "lad": 7652,
      "lif": 7653,
      "pet": 7654,
      "tief": 7655,
      "|ruf": 7656,
      "|rand": 7657,
      "|rical": 7658,
      "|ket": 7659,
      "|ixt": 7660,
      "|cing": 7661,
      "|inent": 7662,
      "|ania": 7663,
      "inzwischen": 7664,
      "|iling": 7665,
      "versp": 7666,
      "Invest": 7667,
      "|ava": 7668,
      "unge": 7669,
      "Erzaehl": 7670,
      "ausgesch": 7671,
      "wirkt": 7672,
      "|epf": 7673,
      "notwend": 7674,
      "comment": 7675,
      "exists": 7676,
      "|eschen": 7677,
      "|ahrt": 7678,
      "insurance": 7679,
      "expected": 7680,
      "smoke": 7681,
      "gefuehrt": 7682,
      "feature": 7683,
      "Under": 7684,
      "waiting": 7685,
      "artists": 7686,
      "Fahrt": 7687,
      "skin": 7688,
      "Version": 7689,
      "Someone": 7690,
      "Zeich": 7691,
      "Zeug": 7692,
      "Englisch": 7693,
      "|fraid": 7694,
      "|mittelbar": 7695,
      "clubs": 7696,
      "entstamm": 7697,
      "recognize": 7698,
      "mittel": 7699,
      "surrounded": 7700,
      "Championship": 7701,
      "Nikol": 7702,
      "erinnert": 7703,
      "Ban": 7704,
      "Jac": 7705,
      "Kore": 7706,
      "Kommt": 7707,
      "Pfer": 7708,
      "Psych": 7709,
      "Pruef": 7710,
      "Sache": 7711,
      "afraid": 7712,
      "daily": 7713,
      "fing": 7714,
      "jur": 7715,
      "rueck": 7716,
      "roles": 7717,
      "terr": 7718,
      "yesterday": 7719,
      "|put": 7720,
      "|ala": 7721,
      "forces": 7722,
      "|eib": 7723,
      "|ubb": 7724,
      "shock": 7725,
      "Anschluss": 7726,
      "Verhalten": 7727,
      "placed": 7728,
      "Mitarbeiter": 7729,
      "Prot": 7730,
      "|etty": 7731,
      "gezogen": 7732,
      "Andre": 7733,
      "Music": 7734,
      "Sauer": 7735,
      "broke": 7736,
      "Should": 7737,
      "magnet": 7738,
      "Verwendung": 7739,
      "Prozent": 7740,
      "Wiener": 7741,
      "extensive": 7742,
      "application": 7743,
      "Irgendwie": 7744,
      "favorite": 7745,
      "September": 7746,
      "kitchen": 7747,
      "Cr": 7748,
      "Diff": 7749,
      "Ox": 7750,
      "Sus": 7751,
      "Ty": 7752,
      "Wik": 7753,
      "europae": 7754,
      "korre": 7755,
      "oh": 7756,
      "|ez": 7757,
      "|eist": 7758,
      "|nes": 7759,
      "|hu": 7760,
      "|yt": 7761,
      "|ynd": 7762,
      "|yard": 7763,
      "|erien": 7764,
      "|hett": 7765,
      "|omach": 7766,
      "|ouver": 7767,
      "|add": 7768,
      "|ulations": 7769,
      "Stoff": 7770,
      "aufgrund": 7771,
      "Erz": 7772,
      "spl": 7773,
      "Einer": 7774,
      "|loetzlich": 7775,
      "unters": 7776,
      "machines": 7777,
      "insgesamt": 7778,
      "cars": 7779,
      "expensive": 7780,
      "|fekt": 7781,
      "Traum": 7782,
      "serves": 7783,
      "artific": 7784,
      "Christoph": 7785,
      "fruehen": 7786,
      "versteht": 7787,
      "|uehm": 7788,
      "dream": 7789,
      "Meinung": 7790,
      "Produktion": 7791,
      "|verband": 7792,
      "announced": 7793,
      "Zusammenhang": 7794,
      "primary": 7795,
      "falls": 7796,
      "Bayern": 7797,
      "mindestens": 7798,
      "talent": 7799,
      "Loesung": 7800,
      "tastes": 7801,
      "exclusively": 7802,
      "Fritz": 7803,
      "Jag": 7804,
      "Ster": 7805,
      "Taetigkeit": 7806,
      "Wr": 7807,
      "Zusaetzlich": 7808,
      "aender": 7809,
      "crow": 7810,
      "dear": 7811,
      "dio": 7812,
      "max": 7813,
      "nomin": 7814,
      "singer": 7815,
      "|nitz": 7816,
      "|chron": 7817,
      "|organ": 7818,
      "|raenk": 7819,
      "alone": 7820,
      "|ehren": 7821,
      "Three": 7822,
      "|echen": 7823,
      "Anna": 7824,
      "|rane": 7825,
      "neues": 7826,
      "|ecklen": 7827,
      "|spl": 7828,
      "complic": 7829,
      "note": 7830,
      "|uehren": 7831,
      "|flu": 7832,
      "Weimar": 7833,
      "nowadays": 7834,
      "eleven": 7835,
      "Besuch": 7836,
      "|ippen": 7837,
      "breed": 7838,
      "capt": 7839,
      "|linge": 7840,
      "|kehrt": 7841,
      "stars": 7842,
      "visited": 7843,
      "erhaelt": 7844,
      "|echselt": 7845,
      "funny": 7846,
      "estate": 7847,
      "personal": 7848,
      "oeffentlich": 7849,
      "troops": 7850,
      "Modell": 7851,
      "sugar": 7852,
      "sources": 7853,
      "Records": 7854,
      "kurze": 7855,
      "landscape": 7856,
      "Hafen": 7857,
      "Brandenburg": 7858,
      "Ble": 7859,
      "Drei": 7860,
      "Sachsen": 7861,
      "Varian": 7862,
      "Wehr": 7863,
      "clock": 7864,
      "mid": 7865,
      "|light": 7866,
      "|rate": 7867,
      "|namen": 7868,
      "|anischen": 7869,
      "|anced": 7870,
      "instrument": 7871,
      "|unts": 7872,
      "|ilig": 7873,
      "unver": 7874,
      "unabhaeng": 7875,
      "|ebe": 7876,
      "rev": 7877,
      "|range": 7878,
      "partner": 7879,
      "|oerden": 7880,
      "|gelassen": 7881,
      "daraus": 7882,
      "gelb": 7883,
      "Blatt": 7884,
      "|teilen": 7885,
      "Berliner": 7886,
      "|orgung": 7887,
      "poem": 7888,
      "Gueter": 7889,
      "|zahlen": 7890,
      "Gelaende": 7891,
      "Solche": 7892,
      "ausgezeichnet": 7893,
      "employees": 7894,
      "characterized": 7895,
      "affected": 7896,
      "participated": 7897,
      "wesentlich": 7898,
      "chairman": 7899,
      "society": 7900,
      "Initially": 7901,
      "frequently": 7902,
      "|ecklenburg": 7903,
      "!,": 7904,
      "Bol": 7905,
      "Cat": 7906,
      "Dat": 7907,
      "Fund": 7908,
      "Kart": 7909,
      "Keine": 7910,
      "Material": 7911,
      "Sah": 7912,
      "Zuf": 7913,
      "lose": 7914,
      "|ozial": 7915,
      "|iant": 7916,
      "|name": 7917,
      "|fil": 7918,
      "|fuer": 7919,
      "|ema": 7920,
      "|ehle": 7921,
      "|rain": 7922,
      "online": 7923,
      "forget": 7924,
      "|ahnen": 7925,
      "Stunde": 7926,
      "|endungen": 7927,
      "Thanks": 7928,
      "|aller": 7929,
      "|mente": 7930,
      "Verteid": 7931,
      "|oker": 7932,
      "|zeigt": 7933,
      "sculpt": 7934,
      "Geschle": 7935,
      "larger": 7936,
      "Gericht": 7937,
      "organized": 7938,
      "ready": 7939,
      "borders": 7940,
      "professor": 7941,
      "approxim": 7942,
      "Mittelalter": 7943,
      "including": 7944,
      "entspricht": 7945,
      "eggs": 7946,
      "|flaechen": 7947,
      "Japanese": 7948,
      "Angeles": 7949,
      "|iagn": 7950,
      "contemp": 7951,
      "Dennoch": 7952,
      "Wagner": 7953,
      "zaehlen": 7954,
      "Bil": 7955,
      "Bueh": 7956,
      "Gm": 7957,
      "Muell": 7958,
      "Sab": 7959,
      "Tu": 7960,
      "ahead": 7961,
      "bill": 7962,
      "leit": 7963,
      "sitting": 7964,
      "|isp": 7965,
      "instru": 7966,
      "|iles": 7967,
      "|icine": 7968,
      "|imate": 7969,
      "erlaubt": 7970,
      "|cean": 7971,
      "zuvor": 7972,
      "|merksam": 7973,
      "enem": 7974,
      "|aendern": 7975,
      "Nachrichten": 7976,
      "partially": 7977,
      "|reichen": 7978,
      "|hoeren": 7979,
      "peace": 7980,
      "|iums": 7981,
      "dram": 7982,
      "verbreitet": 7983,
      "sowieso": 7984,
      "wuerden": 7985,
      "occurs": 7986,
      "operated": 7987,
      "Everything": 7988,
      "Pfarr": 7989,
      "ebenso": 7990,
      "shortly": 7991,
      "typical": 7992,
      "officer": 7993,
      "saying": 7994,
      "Nichts": 7995,
      "records": 7996,
      "gegens": 7997,
      "wheel": 7998,
      "mountains": 7999,
      "measure": 8000,
      "apartment": 8001,
      "regarded": 8002,
      "Leistung": 8003,
      "diverse": 8004,
      "suffered": 8005,
      "somewhere": 8006,
      "Verfuegung": 8007,
      "...": 8008,
      "Corn": 8009,
      "Kron": 8010,
      "Mn": 8011,
      "Po": 8012,
      "Werner": 8013,
      "dicht": 8014,
      "dienen": 8015,
      "edition": 8016,
      "fought": 8017,
      "gone": 8018,
      "kr": 8019,
      "nennt": 8020,
      "save": 8021,
      "samm": 8022,
      "tritt": 8023,
      "|pers": 8024,
      "|pekt": 8025,
      "|iro": 8026,
      "|hunder": 8027,
      "|stances": 8028,
      "|orte": 8029,
      "|reign": 8030,
      "|ingungen": 8031,
      "|uns": 8032,
      "|igar": 8033,
      "|ilian": 8034,
      "bege": 8035,
      "|umes": 8036,
      "|istics": 8037,
      "image": 8038,
      "schreibt": 8039,
      "Verhaelt": 8040,
      "Einkauf": 8041,
      "Nachdem": 8042,
      "|gesehen": 8043,
      "Doktor": 8044,
      "prefer": 8045,
      "didn": 8046,
      "|hedral": 8047,
      "eingeb": 8048,
      "Besucher": 8049,
      "Aussen": 8050,
      "verbr": 8051,
      "|ynast": 8052,
      "operating": 8053,
      "|uehlen": 8054,
      "functions": 8055,
      "weekend": 8056,
      "Interesse": 8057,
      "Liebe": 8058,
      "employed": 8059,
      "Computer": 8060,
      "choice": 8061,
      "|guelt": 8062,
      "illustr": 8063,
      "Staedten": 8064,
      "Schlaf": 8065,
      "elektr": 8066,
      "eroeff": 8067,
      "territory": 8068,
      "Bilder": 8069,
      "Deb": 8070,
      "Flaech": 8071,
      "Ms": 8072,
      "Num": 8073,
      "Ohr": 8074,
      "bought": 8075,
      "gere": 8076,
      "hoer": 8077,
      "lesen": 8078,
      "|eal": 8079,
      "|part": 8080,
      "|pruef": 8081,
      "|auss": 8082,
      "|viet": 8083,
      "|ville": 8084,
      "|stic": 8085,
      "|alle": 8086,
      "beach": 8087,
      "|schte": 8088,
      "staff": 8089,
      "|bers": 8090,
      "Stru": 8091,
      "schlagen": 8092,
      "|illing": 8093,
      "|odes": 8094,
      "extended": 8095,
      "|atever": 8096,
      "leaf": 8097,
      "knew": 8098,
      "prepar": 8099,
      "Franc": 8100,
      "|struktur": 8101,
      "Add": 8102,
      "Toechter": 8103,
      "benef": 8104,
      "|boden": 8105,
      "opening": 8106,
      "Herrschaft": 8107,
      "wonder": 8108,
      "models": 8109,
      "Play": 8110,
      "Halle": 8111,
      "recorded": 8112,
      "Jeden": 8113,
      "unterschiedliche": 8114,
      "purposes": 8115,
      "Angst": 8116,
      "veroeffentlich": 8117,
      "figure": 8118,
      "positive": 8119,
      "Wettbew": 8120,
      "Doppel": 8121,
      "Av": 8122,
      "Aachen": 8123,
      "Jak": 8124,
      "Zuege": 8125,
      "baby": 8126,
      "dadurch": 8127,
      "fuel": 8128,
      "hospital": 8129,
      "kultur": 8130,
      "ring": 8131,
      "van": 8132,
      "|koerper": 8133,
      "|des": 8134,
      "|uegen": 8135,
      "|cles": 8136,
      "|onents": 8137,
      "|schalten": 8138,
      "|iments": 8139,
      "staerk": 8140,
      "|ichtlich": 8141,
      "|adel": 8142,
      "forward": 8143,
      "Schles": 8144,
      "|odies": 8145,
      "Although": 8146,
      "|ipfel": 8147,
      "|ensburg": 8148,
      "arg": 8149,
      "|iders": 8150,
      "Islam": 8151,
      "Geschw": 8152,
      "oblig": 8153,
      "childhood": 8154,
      "Konfl": 8155,
      "solchen": 8156,
      "wait": 8157,
      "verlor": 8158,
      "Musiker": 8159,
      "Schnitt": 8160,
      "Quellen": 8161,
      "Frucht": 8162,
      "Emil": 8163,
      "|faellig": 8164,
      "circle": 8165,
      "facilities": 8166,
      "device": 8167,
      "Laufe": 8168,
      "screw": 8169,
      "|praech": 8170,
      "activity": 8171,
      "Wolfgang": 8172,
      "posit": 8173,
      "Rhine": 8174,
      "distribution": 8175,
      "Sinne": 8176,
      "Letzter": 8177,
      "disappeared": 8178,
      "Lind": 8179,
      "Saenger": 8180,
      "Vict": 8181,
      "Wissenschaft": 8182,
      "Waffen": 8183,
      "Zimmer": 8184,
      "di": 8185,
      "fo": 8186,
      "ve": 8187,
      "virt": 8188,
      "|pet": 8189,
      "|oden": 8190,
      "|iate": 8191,
      "|nehm": 8192,
      "|craft": 8193,
      "|film": 8194,
      "|alu": 8195,
      "|anda": 8196,
      "stomach": 8197,
      "anerk": 8198,
      "|eglichen": 8199,
      "|annter": 8200,
      "|endar": 8201,
      "Verst": 8202,
      "allgemein": 8203,
      "enorm": 8204,
      "Soc": 8205,
      "Abs": 8206,
      "shell": 8207,
      "Gruendung": 8208,
      "Brig": 8209,
      "gebracht": 8210,
      "wenigen": 8211,
      "|gruppen": 8212,
      "Phys": 8213,
      "busy": 8214,
      "Schnell": 8215,
      "Haelfte": 8216,
      "gekla": 8217,
      "mayor": 8218,
      "uebrig": 8219,
      "Konzept": 8220,
      "Evangel": 8221,
      "|gerechnet": 8222,
      "campa": 8223,
      "Telef": 8224,
      "erklaert": 8225,
      "abgeschlossen": 8226,
      "weltweit": 8227,
      "Vertreter": 8228,
      "|chestra": 8229,
      "Situation": 8230,
      "Darm": 8231,
      "Mecklenburg": 8232,
      "Rahmen": 8233,
      "Wach": 8234,
      "dang": 8235,
      "hang": 8236,
      "liber": 8237,
      "mur": 8238,
      "sitzt": 8239,
      "zone": 8240,
      "|bek": 8241,
      "|iable": 8242,
      "|inkt": 8243,
      "|aner": 8244,
      "|iegt": 8245,
      "|orten": 8246,
      "|reffen": 8247,
      "|leh": 8248,
      "alarm": 8249,
      "|otes": 8250,
      "storm": 8251,
      "|verage": 8252,
      "|esseren": 8253,
      "verstanden": 8254,
      "denke": 8255,
      "|oped": 8256,
      "warum": 8257,
      "convert": 8258,
      "spot": 8259,
      "abge": 8260,
      "shop": 8261,
      "|ongue": 8262,
      "|icke": 8263,
      "|unting": 8264,
      "|rator": 8265,
      "|linder": 8266,
      "|ologische": 8267,
      "Atlant": 8268,
      "wouldnt": 8269,
      "Untersuch": 8270,
      "|zeichnungen": 8271,
      "possib": 8272,
      "Handels": 8273,
      "colon": 8274,
      "Fahrzeug": 8275,
      "|geht": 8276,
      "concentr": 8277,
      "Republik": 8278,
      "|frage": 8279,
      "festival": 8280,
      "younger": 8281,
      "entsteht": 8282,
      "Mathemat": 8283,
      "package": 8284,
      "issues": 8285,
      "recommended": 8286,
      "arranged": 8287,
      "Publikum": 8288,
      "|maschine": 8289,
      "Czech": 8290,
      "Finn": 8291,
      "Herk": 8292,
      "Jud": 8293,
      "Kas": 8294,
      "Kru": 8295,
      "Link": 8296,
      "Laender": 8297,
      "Out": 8298,
      "Ren": 8299,
      "Sound": 8300,
      "Wild": 8301,
      "gives": 8302,
      "kaufen": 8303,
      "tip": 8304,
      "ul": 8305,
      "|ses": 8306,
      "|uum": 8307,
      "|uben": 8308,
      "|gren": 8309,
      "|erweise": 8310,
      "|roat": 8311,
      "|emlich": 8312,
      "thin": 8313,
      "|achim": 8314,
      "|ify": 8315,
      "|ipment": 8316,
      "|spro": 8317,
      "traum": 8318,
      "Aufgaben": 8319,
      "|ishment": 8320,
      "recent": 8321,
      "Next": 8322,
      "|ammat": 8323,
      "musikal": 8324,
      "ends": 8325,
      "Att": 8326,
      "belieb": 8327,
      "brauchen": 8328,
      "dauert": 8329,
      "Group": 8330,
      "Graz": 8331,
      "hoeher": 8332,
      "concrete": 8333,
      "detail": 8334,
      "appearance": 8335,
      "rooms": 8336,
      "Goet": 8337,
      "anti": 8338,
      "egal": 8339,
      "Joachim": 8340,
      "Trotzdem": 8341,
      "balance": 8342,
      "raised": 8343,
      "Brot": 8344,
      "Esp": 8345,
      "Four": 8346,
      "Face": 8347,
      "Hals": 8348,
      "Hohen": 8349,
      "Soph": 8350,
      "aer": 8351,
      "cultiv": 8352,
      "gained": 8353,
      "haetten": 8354,
      "junge": 8355,
      "legt": 8356,
      "rare": 8357,
      "|bal": 8358,
      "|oque": 8359,
      "|kes": 8360,
      "|reme": 8361,
      "|techn": 8362,
      "|othes": 8363,
      "stock": 8364,
      "|derung": 8365,
      "|osis": 8366,
      "|osse": 8367,
      "Schreib": 8368,
      "|ussischen": 8369,
      "chance": 8370,
      "|izen": 8371,
      "|izieren": 8372,
      "entde": 8373,
      "Protestant": 8374,
      "|ekten": 8375,
      "residential": 8376,
      "besitzen": 8377,
      "getrennt": 8378,
      "regions": 8379,
      "allein": 8380,
      "|ocol": 8381,
      "Schwar": 8382,
      "myself": 8383,
      "command": 8384,
      "distingu": 8385,
      "actress": 8386,
      "repeated": 8387,
      "founder": 8388,
      "damal": 8389,
      "brothers": 8390,
      "verboten": 8391,
      "hoert": 8392,
      "|fuehren": 8393,
      "breit": 8394,
      "Autob": 8395,
      "metal": 8396,
      "ski": 8397,
      "Flugzeug": 8398,
      "|affel": 8399,
      "vermeiden": 8400,
      "besonder": 8401,
      "growing": 8402,
      "gemeins": 8403,
      "suedlich": 8404,
      "Blaetter": 8405,
      "Sicherheit": 8406,
      "predomin": 8407,
      "Slow": 8408,
      "neighboring": 8409,
      "verhindern": 8410,
      "consequences": 8411,
      "Shortly": 8412,
      "dedicated": 8413,
      "Big": 8414,
      "Fuenf": 8415,
      "Luf": 8416,
      "Nummer": 8417,
      "Tw": 8418,
      "Upper": 8419,
      "Wechsel": 8420,
      "cart": 8421,
      "kuenst": 8422,
      "kehrte": 8423,
      "nied": 8424,
      "|rum": 8425,
      "|chester": 8426,
      "beob": 8427,
      "|schrank": 8428,
      "Erste": 8429,
      "spok": 8430,
      "spons": 8431,
      "Versch": 8432,
      "Spass": 8433,
      "diesel": 8434,
      "|spe": 8435,
      "seid": 8436,
      "vorwiegend": 8437,
      "entw": 8438,
      "entgegen": 8439,
      "durchs": 8440,
      "controvers": 8441,
      "plate": 8442,
      "myth": 8443,
      "previously": 8444,
      "speziel": 8445,
      "medium": 8446,
      "remaining": 8447,
      "Schneider": 8448,
      "helps": 8449,
      "Benannt": 8450,
      "Metho": 8451,
      "manager": 8452,
      "pattern": 8453,
      "explained": 8454,
      "sweet": 8455,
      "criticism": 8456,
      "Qualitaet": 8457,
      "Denkmal": 8458,
      "Besonders": 8459,
      "Together": 8460,
      "Eigent": 8461,
      "Has": 8462,
      "Halt": 8463,
      "Mang": 8464,
      "Prom": 8465,
      "Tat": 8466,
      "Tast": 8467,
      "Take": 8468,
      "hielt": 8469,
      "lok": 8470,
      "nose": 8471,
      "sales": 8472,
      "|fin": 8473,
      "|zusch": 8474,
      "|stud": 8475,
      "alter": 8476,
      "|iding": 8477,
      "|cture": 8478,
      "aufgel": 8479,
      "|aved": 8480,
      "|agne": 8481,
      "ausger": 8482,
      "manchen": 8483,
      "comfort": 8484,
      "Spiegel": 8485,
      "moon": 8486,
      "adopt": 8487,
      "reserv": 8488,
      "|alsozial": 8489,
      "|upid": 8490,
      "|rates": 8491,
      "alleine": 8492,
      "Schweizer": 8493,
      "beliebt": 8494,
      "interior": 8495,
      "eingef": 8496,
      "Mountain": 8497,
      "|richtungen": 8498,
      "owned": 8499,
      "follows": 8500,
      "Zucker": 8501,
      "|iefert": 8502,
      "Westf": 8503,
      "authors": 8504,
      "Kais": 8505,
      "bedeutend": 8506,
      "|oeffentlich": 8507,
      "|scheidet": 8508,
      "|umente": 8509,
      "ernannt": 8510,
      "climb": 8511,
      "translated": 8512,
      "mixed": 8513,
      "Offenbar": 8514,
      "eingestellt": 8515,
      "Elisabeth": 8516,
      "Cas": 8517,
      "Dein": 8518,
      "Dutch": 8519,
      "Guten": 8520,
      "Haeuser": 8521,
      "Lager": 8522,
      "|set": 8523,
      "|pat": 8524,
      "|polit": 8525,
      "|kmal": 8526,
      "|krieges": 8527,
      "|zuege": 8528,
      "|jet": 8529,
      "|enkt": 8530,
      "|stritten": 8531,
      "|icien": 8532,
      "|icious": 8533,
      "therap": 8534,
      "|ray": 8535,
      "stor": 8536,
      "|opes": 8537,
      "|aka": 8538,
      "convers": 8539,
      "spr": 8540,
      "|ainer": 8541,
      "projects": 8542,
      "Anne": 8543,
      "|enswert": 8544,
      "leaving": 8545,
      "|perial": 8546,
      "Beam": 8547,
      "appropri": 8548,
      "|lesen": 8549,
      "fliegen": 8550,
      "bright": 8551,
      "policy": 8552,
      "einger": 8553,
      "|icted": 8554,
      "goods": 8555,
      "politische": 8556,
      "concert": 8557,
      "Bahnstrecke": 8558,
      "singing": 8559,
      "gekommen": 8560,
      "existiert": 8561,
      "experiment": 8562,
      "welcher": 8563,
      "Ruhe": 8564,
      "economy": 8565,
      "Festival": 8566,
      "apart": 8567,
      "Feuerwehr": 8568,
      "negative": 8569,
      "Smart": 8570,
      "Chef": 8571,
      "Fleisch": 8572,
      "Bezirks": 8573,
      "erscheint": 8574,
      "differently": 8575,
      "succeeded": 8576,
      "hilft": 8577,
      "Jakob": 8578,
      "Baby": 8579,
      "Budd": 8580,
      "James": 8581,
      "Kabel": 8582,
      "Long": 8583,
      "Lange": 8584,
      "Sachen": 8585,
      "Tar": 8586,
      "hurt": 8587,
      "lets": 8588,
      "leitet": 8589,
      "naeh": 8590,
      "natuer": 8591,
      "oester": 8592,
      "pal": 8593,
      "pow": 8594,
      "rh": 8595,
      "sla": 8596,
      "|jekte": 8597,
      "|anen": 8598,
      "|staette": 8599,
      "|oria": 8600,
      "|ichert": 8601,
      "|usste": 8602,
      "stick": 8603,
      "Inzwischen": 8604,
      "|ikes": 8605,
      "|agement": 8606,
      "conv": 8607,
      "desert": 8608,
      "ausgew": 8609,
      "|ennis": 8610,
      "covers": 8611,
      "|geraet": 8612,
      "|load": 8613,
      "|rypt": 8614,
      "knock": 8615,
      "|ettet": 8616,
      "newly": 8617,
      "Gruen": 8618,
      "distin": 8619,
      "gelesen": 8620,
      "gefa": 8621,
      "brow": 8622,
      "Ausser": 8623,
      "communication": 8624,
      "politics": 8625,
      "Herrn": 8626,
      "evalu": 8627,
      "streets": 8628,
      "|wegs": 8629,
      "urban": 8630,
      "ideas": 8631,
      "Farben": 8632,
      "Often": 8633,
      "stammte": 8634,
      "entered": 8635,
      "renov": 8636,
      "Fotos": 8637,
      "noerdlich": 8638,
      "girls": 8639,
      "praktisch": 8640,
      "Chinese": 8641,
      "fingers": 8642,
      "|yndrom": 8643,
      "Asp": 8644,
      "Bart": 8645,
      "Hy": 8646,
      "Live": 8647,
      "Prag": 8648,
      "Seb": 8649,
      "average": 8650,
      "brief": 8651,
      "hus": 8652,
      "hoff": 8653,
      "liquid": 8654,
      "mine": 8655,
      "pool": 8656,
      "treten": 8657,
      "|punkte": 8658,
      "|karte": 8659,
      "|zi": 8660,
      "|ziger": 8661,
      "|iny": 8662,
      "|itur": 8663,
      "|orfen": 8664,
      "|emer": 8665,
      "|omers": 8666,
      "stro": 8667,
      "anschliessend": 8668,
      "vergleich": 8669,
      "|cke": 8670,
      "|industrie": 8671,
      "|ienced": 8672,
      "vorne": 8673,
      "amb": 8674,
      "composed": 8675,
      "|arks": 8676,
      "leichter": 8677,
      "agree": 8678,
      "Soviet": 8679,
      "|obby": 8680,
      "|reiche": 8681,
      "|aechs": 8682,
      "Schwein": 8683,
      "geeign": 8684,
      "Regierungs": 8685,
      "|oughly": 8686,
      "|orenz": 8687,
      "Adolf": 8688,
      "Zweck": 8689,
      "depart": 8690,
      "|icherung": 8691,
      "|licherweise": 8692,
      "collect": 8693,
      "continue": 8694,
      "Weiteren": 8695,
      "deiner": 8696,
      "Somit": 8697,
      "|markt": 8698,
      "unterschiedlichen": 8699,
      "persoen": 8700,
      "increasingly": 8701,
      "honor": 8702,
      "|stuecke": 8703,
      "Schmidt": 8704,
      "Columb": 8705,
      "Wirtschaft": 8706,
      "certainly": 8707,
      "Opfer": 8708,
      "Berufs": 8709,
      "Eingang": 8710,
      "Moreover": 8711,
      "Stattdessen": 8712,
      "November": 8713,
      "rejected": 8714,
      "Heidelberg": 8715,
      "Bundestag": 8716,
      "accompan": 8717,
      "campaign": 8718,
      "oesterreich": 8719,
      "Aud": 8720,
      "Baeume": 8721,
      "Found": 8722,
      "Gatt": 8723,
      "Kop": 8724,
      "Lis": 8725,
      "Pots": 8726,
      "Tit": 8727,
      "fung": 8728,
      "grenzt": 8729,
      "|ta": 8730,
      "|kap": 8731,
      "|gin": 8732,
      "|erts": 8733,
      "|arzt": 8734,
      "|etic": 8735,
      "|eters": 8736,
      "derived": 8737,
      "|ician": 8738,
      "|andt": 8739,
      "stations": 8740,
      "erfu": 8741,
      "ersetzt": 8742,
      "|annen": 8743,
      "|ules": 8744,
      "|antas": 8745,
      "proceed": 8746,
      "exh": 8747,
      "Alfred": 8748,
      "sevent": 8749,
      "mob": 8750,
      "residents": 8751,
      "novel": 8752,
      "|linie": 8753,
      "cloud": 8754,
      "darunter": 8755,
      "boat": 8756,
      "gesprochen": 8757,
      "|immung": 8758,
      "subsequently": 8759,
      "meinem": 8760,
      "Geheim": 8761,
      "artistic": 8762,
      "|reckt": 8763,
      "minister": 8764,
      "|arbeitet": 8765,
      "Knochen": 8766,
      "villa": 8767,
      "connections": 8768,
      "|aneously": 8769,
      "specialist": 8770,
      "internationalen": 8771,
      "equipment": 8772,
      "promoted": 8773,
      "settled": 8774,
      "|holt": 8775,
      "Jedes": 8776,
      "Western": 8777,
      "|spruch": 8778,
      "universities": 8779,
      "materials": 8780,
      "|hlt": 8781,
      "wichtigsten": 8782,
      "Informationen": 8783,
      "prepared": 8784,
      "ausgestattet": 8785,
      "Entscheidung": 8786,
      "|verwaltung": 8787,
      "advantage": 8788,
      "Karlsruhe": 8789,
      "demonstr": 8790,
      "California": 8791,
      "Facebook": 8792,
      "Bald": 8793,
      "Hop": 8794,
      "Roh": 8795,
      "Rek": 8796,
      "Richter": 8797,
      "Ter": 8798,
      "Wart": 8799,
      "astron": 8800,
      "fit": 8801,
      "hy": 8802,
      "il": 8803,
      "legen": 8804,
      "pure": 8805,
      "rum": 8806,
      "sail": 8807,
      "|eid": 8808,
      "|beck": 8809,
      "|bald": 8810,
      "|lern": 8811,
      "|preis": 8812,
      "|zing": 8813,
      "|heater": 8814,
      "|asure": 8815,
      "|asks": 8816,
      "|nden": 8817,
      "told": 8818,
      "stood": 8819,
      "wasnt": 8820,
      "Schall": 8821,
      "Schild": 8822,
      "unn": 8823,
      "unten": 8824,
      "Thank": 8825,
      "|ktionen": 8826,
      "|etzer": 8827,
      "chosen": 8828,
      "Verlag": 8829,
      "orth": 8830,
      "herunter": 8831,
      "useful": 8832,
      "partly": 8833,
      "noet": 8834,
      "|ehlen": 8835,
      "teuer": 8836,
      "begins": 8837,
      "disk": 8838,
      "gestern": 8839,
      "elev": 8840,
      "prev": 8841,
      "hinten": 8842,
      "parallel": 8843,
      "|key": 8844,
      "declar": 8845,
      "eingel": 8846,
      "gefallen": 8847,
      "verbrachte": 8848,
      "frame": 8849,
      "beschrieben": 8850,
      "respective": 8851,
      "Brust": 8852,
      "|zieht": 8853,
      "Sonst": 8854,
      "Bewohner": 8855,
      "stream": 8856,
      "trust": 8857,
      "wirkte": 8858,
      "settle": 8859,
      "devices": 8860,
      "Josef": 8861,
      "planning": 8862,
      "flying": 8863,
      "Mueller": 8864,
      "Faellen": 8865,
      "Aktiv": 8866,
      "Restaur": 8867,
      "visitors": 8868,
      "dunkel": 8869,
      "|bezirk": 8870,
      "owner": 8871,
      "pulled": 8872,
      "exchange": 8873,
      "veroeffentlichte": 8874,
      "Bul": 8875,
      "Kam": 8876,
      "Kath": 8877,
      "aw": 8878,
      "core": 8879,
      "griech": 8880,
      "hes": 8881,
      "ku": 8882,
      "kling": 8883,
      "kids": 8884,
      "mail": 8885,
      "zuletzt": 8886,
      "|nissen": 8887,
      "|mir": 8888,
      "|mack": 8889,
      "|wesen": 8890,
      "|wurf": 8891,
      "|\",": 8892,
      "|station": 8893,
      "|stellt": 8894,
      "|orad": 8895,
      "|ishes": 8896,
      "|room": 8897,
      "einiger": 8898,
      "beat": 8899,
      "stupid": 8900,
      "|adow": 8901,
      "verla": 8902,
      "warning": 8903,
      "|ortun": 8904,
      "chapel": 8905,
      "Anzahl": 8906,
      "|ebru": 8907,
      "Spiele": 8908,
      "|spiele": 8909,
      "Einsch": 8910,
      "Arzt": 8911,
      "uses": 8912,
      "umstritten": 8913,
      "genommen": 8914,
      "|obil": 8915,
      "Regie": 8916,
      "Klassen": 8917,
      "dauer": 8918,
      "Grafen": 8919,
      "depend": 8920,
      "Ortes": 8921,
      "|unterricht": 8922,
      "respect": 8923,
      "treffen": 8924,
      "Ursprueng": 8925,
      "|amerika": 8926,
      "Kommand": 8927,
      "Vertra": 8928,
      "Justus": 8929,
      "statement": 8930,
      "opponent": 8931,
      "Basis": 8932,
      "talking": 8933,
      "Insgesamt": 8934,
      "methods": 8935,
      "seriously": 8936,
      "Bibliothek": 8937,
      "Satell": 8938,
      "|laendischen": 8939,
      "Bavaria": 8940,
      "Stiftung": 8941,
      "fully": 8942,
      "composer": 8943,
      "assumed": 8944,
      "?,": 8945,
      "Bass": 8946,
      "Def": 8947,
      "Deine": 8948,
      "Ereign": 8949,
      "Kob": 8950,
      "Que": 8951,
      "Rosen": 8952,
      "Sar": 8953,
      "Sund": 8954,
      "Terr": 8955,
      "Zusch": 8956,
      "catch": 8957,
      "jun": 8958,
      "kalt": 8959,
      "mic": 8960,
      "rate": 8961,
      "sudden": 8962,
      "voc": 8963,
      "|bH": 8964,
      "|ller": 8965,
      "|site": 8966,
      "|post": 8967,
      "|kop": 8968,
      "|nitten": 8969,
      "|aeren": 8970,
      "|father": 8971,
      "|vater": 8972,
      "|anische": 8973,
      "|stuhl": 8974,
      "|onic": 8975,
      "|edy": 8976,
      "|ela": 8977,
      "therm": 8978,
      "|denburg": 8979,
      "erziel": 8980,
      "Station": 8981,
      "Schwe": 8982,
      "heim": 8983,
      "|tha": 8984,
      "|ourg": 8985,
      "prohib": 8986,
      "Vermut": 8987,
      "Vergangen": 8988,
      "Veroeffentlich": 8989,
      "|izing": 8990,
      "|sende": 8991,
      "leaders": 8992,
      "groessere": 8993,
      "apprent": 8994,
      "|lines": 8995,
      "locomot": 8996,
      "pref": 8997,
      "Konzer": 8998,
      "Gesamt": 8999,
      "Europae": 9000,
      "|ippe": 9001,
      "acid": 9002,
      "Christmas": 9003,
      "India": 9004,
      "Holly": 9005,
      "turns": 9006,
      "|ynam": 9007,
      "Bruecke": 9008,
      "teaching": 9009,
      "programm": 9010,
      "Koenigs": 9011,
      "Leider": 9012,
      "Hilf": 9013,
      "sector": 9014,
      "regarding": 9015,
      "gesamten": 9016,
      "explain": 9017,
      "|saetze": 9018,
      "fundament": 9019,
      "Salzburg": 9020,
      "Unsere": 9021,
      "Siedlung": 9022,
      "District": 9023,
      "Ergebnis": 9024,
      "Original": 9025,
      "benoetigt": 9026,
      "aelteste": 9027,
      "Hotel": 9028,
      "kostenlos": 9029,
      "exhaust": 9030,
      "Aktion": 9031,
      "Each": 9032,
      "Hoer": 9033,
      "Jon": 9034,
      "Mas": 9035,
      "Win": 9036,
      "bishop": 9037,
      "dritte": 9038,
      "joint": 9039,
      "lying": 9040,
      "rech": 9041,
      "tongue": 9042,
      "ways": 9043,
      "|riel": 9044,
      "|riss": 9045,
      "|kal": 9046,
      "|klar": 9047,
      "|ded": 9048,
      "|fast": 9049,
      "|zte": 9050,
      "|staenden": 9051,
      "|ieger": 9052,
      "|ami": 9053,
      "isol": 9054,
      "|tenance": 9055,
      "stress": 9056,
      "|iese": 9057,
      "|egeln": 9058,
      "zustaendig": 9059,
      "const": 9060,
      "spend": 9061,
      "spect": 9062,
      "|ugel": 9063,
      "pretty": 9064,
      "leist": 9065,
      "umge": 9066,
      "nobody": 9067,
      "Orgel": 9068,
      "|ighter": 9069,
      "related": 9070,
      "gewinnen": 9071,
      "geist": 9072,
      "gezeigt": 9073,
      "|liesst": 9074,
      "bekam": 9075,
      "Andreas": 9076,
      "Frem": 9077,
      "brake": 9078,
      "solid": 9079,
      "frequen": 9080,
      "Grad": 9081,
      "Strand": 9082,
      "matches": 9083,
      "Verbreit": 9084,
      "Schluessel": 9085,
      "valu": 9086,
      "constructed": 9087,
      "Verwaltung": 9088,
      "easier": 9089,
      "opportun": 9090,
      "characters": 9091,
      "grows": 9092,
      "doub": 9093,
      "Bernhard": 9094,
      "million": 9095,
      "surrounding": 9096,
      "Hintergrund": 9097,
      "einzelne": 9098,
      "advertis": 9099,
      "fuehlt": 9100,
      "Castle": 9101,
      "Diskuss": 9102,
      "Soldaten": 9103,
      "|barkeit": 9104,
      "Hugo": 9105,
      "complicated": 9106,
      "|iciency": 9107,
      "Sebast": 9108,
      "Award": 9109,
      "Kun": 9110,
      "Renn": 9111,
      "caught": 9112,
      "drop": 9113,
      "dipl": 9114,
      "gern": 9115,
      "laufen": 9116,
      "sick": 9117,
      "|lon": 9118,
      "|cement": 9119,
      "|worth": 9120,
      "|va": 9121,
      "|atoren": 9122,
      "|rees": 9123,
      "|ifs": 9124,
      "aufgestellt": 9125,
      "unit": 9126,
      "Those": 9127,
      "Erk": 9128,
      "Erfolge": 9129,
      "|ertig": 9130,
      "reve": 9131,
      "uebertragen": 9132,
      "|acker": 9133,
      "compared": 9134,
      "|aengel": 9135,
      "admit": 9136,
      "entir": 9137,
      "noble": 9138,
      "|anke": 9139,
      "flower": 9140,
      "Margar": 9141,
      "Formen": 9142,
      "Klass": 9143,
      "assess": 9144,
      "solo": 9145,
      "Meanw": 9146,
      "fuehrten": 9147,
      "earn": 9148,
      "medicine": 9149,
      "Antwort": 9150,
      "musician": 9151,
      "classic": 9152,
      "Swed": 9153,
      "Vereinigten": 9154,
      "Mainz": 9155,
      "limit": 9156,
      "Inseln": 9157,
      "persp": 9158,
      "Angaben": 9159,
      "influenced": 9160,
      "customs": 9161,
      "unserer": 9162,
      "Truppen": 9163,
      "Bezirk": 9164,
      "Millionen": 9165,
      "Danke": 9166,
      "switched": 9167,
      "unterstuetzt": 9168,
      "grundsaetzlich": 9169,
      "finanziel": 9170,
      "surprised": 9171,
      "|seudonym": 9172,
      "|ketball": 9173,
      "GmbH": 9174,
      "illeg": 9175,
      "Vergangenheit": 9176,
      "Meanwhile": 9177,
      "Bon": 9178,
      "Bres": 9179,
      "Dra": 9180,
      "Job": 9181,
      "Laendern": 9182,
      "Pir": 9183,
      "Ris": 9184,
      "jour": 9185,
      "lernte": 9186,
      "salt": 9187,
      "|overy": 9188,
      "|volle": 9189,
      "|xts": 9190,
      "|stall": 9191,
      "|urd": 9192,
      "|reh": 9193,
      "|lem": 9194,
      "|olt": 9195,
      "|amed": 9196,
      "|enthal": 9197,
      "|schung": 9198,
      "angel": 9199,
      "|either": 9200,
      "heutzutage": 9201,
      "|oples": 9202,
      "unmittelbar": 9203,
      "schliessen": 9204,
      "|aux": 9205,
      "prot": 9206,
      "rear": 9207,
      "weist": 9208,
      "groesser": 9209,
      "Prop": 9210,
      "Zeiten": 9211,
      "applies": 9212,
      "betracht": 9213,
      "everywhere": 9214,
      "|uesten": 9215,
      "smo": 9216,
      "trig": 9217,
      "subs": 9218,
      "obviously": 9219,
      "gebe": 9220,
      "Autoren": 9221,
      "Brueder": 9222,
      "topic": 9223,
      "Nowadays": 9224,
      "|haltung": 9225,
      "tunnel": 9226,
      "|spielen": 9227,
      "|ancing": 9228,
      "tourism": 9229,
      "titles": 9230,
      "gegruendet": 9231,
      "Akk": 9232,
      "Unternehmens": 9233,
      "massive": 9234,
      "angeboten": 9235,
      "circum": 9236,
      "Schauspielerin": 9237,
      "Insbesondere": 9238,
      "analysis": 9239,
      "chemical": 9240,
      "recommend": 9241,
      "satell": 9242,
      "Gabriel": 9243,
      "|wirkungen": 9244,
      "weapons": 9245,
      "conflict": 9246,
      "expanded": 9247,
      "Buergermeister": 9248,
      "battery": 9249,
      "Pferde": 9250,
      "contemporary": 9251,
      "Urspruenglich": 9252,
      "Flag": 9253,
      "Gn": 9254,
      "Muss": 9255,
      "Nap": 9256,
      "Pot": 9257,
      "Pfe": 9258,
      "Wohl": 9259,
      "bow": 9260,
      "halt": 9261,
      "neck": 9262,
      "paid": 9263,
      "sor": 9264,
      "sent": 9265,
      "sag": 9266,
      "|buecher": 9267,
      "|pa": 9268,
      "|kar": 9269,
      "|now": 9270,
      "|fts": 9271,
      "|wechsel": 9272,
      "|ieter": 9273,
      "|urts": 9274,
      "|schm": 9275,
      "Schritt": 9276,
      "Erfahr": 9277,
      "|ugh": 9278,
      "Spann": 9279,
      "severe": 9280,
      "uebersch": 9281,
      "|steig": 9282,
      "Aufbau": 9283,
      "scen": 9284,
      "Revolution": 9285,
      "Mauer": 9286,
      "express": 9287,
      "Gebir": 9288,
      "|aerten": 9289,
      "Besatz": 9290,
      "Konrad": 9291,
      "Geist": 9292,
      "weiteres": 9293,
      "Polish": 9294,
      "trainer": 9295,
      "|mitteln": 9296,
      "suchen": 9297,
      "protected": 9298,
      "humans": 9299,
      "Bildung": 9300,
      "wenigstens": 9301,
      "totally": 9302,
      "gehoerten": 9303,
      "strongly": 9304,
      "forty": 9305,
      "Straf": 9306,
      "Augsburg": 9307,
      "Komment": 9308,
      "photos": 9309,
      "erklaeren": 9310,
      "Zahlen": 9311,
      "accepted": 9312,
      "exception": 9313,
      "context": 9314,
      "Kaffee": 9315,
      "transferred": 9316,
      "Reformation": 9317,
      "absolutely": 9318,
      "tournament": 9319,
      "kindergarten": 9320,
      "kraeft": 9321,
      "gegenseitig": 9322,
      ".\"": 9323,
      "Cra": 9324,
      "Glaub": 9325,
      "Kurt": 9326,
      "Ot": 9327,
      "Ritter": 9328,
      "Wunder": 9329,
      "bound": 9330,
      "bieten": 9331,
      "cerem": 9332,
      "kuenstler": 9333,
      "leiden": 9334,
      "|born": 9335,
      "|baden": 9336,
      "|ois": 9337,
      "|hat": 9338,
      "|mod": 9339,
      "|itual": 9340,
      "|alf": 9341,
      "|alz": 9342,
      "|alog": 9343,
      "|ura": 9344,
      "|oler": 9345,
      "erb": 9346,
      "Ing": 9347,
      "unfortunately": 9348,
      "desired": 9349,
      "|ktiv": 9350,
      "|apid": 9351,
      "|uded": 9352,
      "hergestellt": 9353,
      "goals": 9354,
      "|iedlung": 9355,
      "|ungsk": 9356,
      "upon": 9357,
      "Leucht": 9358,
      "|gebiete": 9359,
      "rote": 9360,
      "scale": 9361,
      "laid": 9362,
      "plane": 9363,
      "Regisse": 9364,
      "gelegen": 9365,
      "brand": 9366,
      "smart": 9367,
      "couldnt": 9368,
      "maintenance": 9369,
      "|aerbt": 9370,
      "Seid": 9371,
      "Box": 9372,
      "geblieben": 9373,
      "whats": 9374,
      "Konf": 9375,
      "Kindergarten": 9376,
      "freien": 9377,
      "Ihm": 9378,
      "possibility": 9379,
      "Code": 9380,
      "attrib": 9381,
      "|ucky": 9382,
      "Carol": 9383,
      "historischen": 9384,
      "destination": 9385,
      "geplant": 9386,
      "Northern": 9387,
      "associated": 9388,
      "Wohnung": 9389,
      "|strae": 9390,
      "Lieber": 9391,
[...]
