{
  "version": "1.0",
  "truncation": null,
  "padding": null,
  "added_tokens": [
    {
      "id": 0,
      "content": "[UNK]",
      "single_word": false,
      "lstrip": false,
      "rstrip": false,
      "normalized": false,
      "special": true
    },
    {
      "id": 1,
      "content": "[CLS]",
      "single_word": false,
      "lstrip": false,
      "rstrip": false,
      "normalized": false,
      "special": true
    },
    {
      "id": 2,
      "content": "[SEP]",
      "single_word": false,
      "lstrip": false,
      "rstrip": false,
      "normalized": false,
      "special": true
    },
    {
      "id": 3,
      "content": "[PAD]",
      "single_word": false,
      "lstrip": false,
      "rstrip": false,
      "normalized": false,
      "special": true
    },
    {
      "id": 4,
      "content": "[MASK]",
      "single_word": false,
      "lstrip": false,
      "rstrip": false,
      "normalized": false,
      "special": true
    }
  ],
  "normalizer": null,
  "pre_tokenizer": {
    "type": "Whitespace"
  },
  "post_processor": null,
  "decoder": null,
  "model": {
    "type": "BPE",
    "dropout": null,
    "unk_token": "[UNK]",
    "continuing_subword_prefix": null,
    "end_of_word_suffix": null,
    "fuse_unk": false,
    "vocab": {
      "[UNK]": 0,
      "[CLS]": 1,
      "[SEP]": 2,
      "[PAD]": 3,
      "[MASK]": 4,
      "!": 5,
      "\"": 6,
      "'": 7,
      ",": 8,
      ".": 9,
      "/": 10,
      "0": 11,
      "1": 12,
      "2": 13,
      "3": 14,
      "4": 15,
      "5": 16,
      "6": 17,
      "7": 18,
      "8": 19,
      "9": 20,
      ":": 21,
      ";": 22,
      "?": 23,
      "E": 24,
      "P": 25,
      "S": 26,
      "[": 27,
      "]": 28,
      "_": 29,
      "`": 30,
      "a": 31,
      "b": 32,
      "c": 33,
      "d": 34,
      "e": 35,
      "f": 36,
      "g": 37,
      "h": 38,
      "i": 39,
      "j": 40,
      "k": 41,
      "l": 42,
      "m": 43,
      "n": 44,
      "o": 45,
      "p": 46,
      "q": 47,
      "r": 48,
      "s": 49,
      "t": 50,
      "u": 51,
      "v": 52,
      "w": 53,
      "x": 54,
      "y": 55,
      "z": 56,
      "er": 57,
      "en": 58,
      "ch": 59,
      "in": 60,
      "th": 61,
      "an": 62,
      "der": 63,
      "EP": 64,
      "SEP": 65,
      "st": 66,
      "the": 67,
      "be": 68,
      "on": 69,
      "ich": 70,
      "al": 71,
      "ein": 72,
      "re": 73,
      "it": 74,
      "un": 75,
      "or": 76,
      "at": 77,
      "ar": 78,
      "el": 79,
      "is": 80,
      "au": 81,
      "le": 82,
      "ge": 83,
      "ie": 84,
      "sch": 85,
      "se": 86,
      "of": 87,
      "ur": 88,
      "to": 89,
      "ro": 90,
      "ss": 91,
      "and": 92,
      "il": 93,
      "ig": 94,
      "ver": 95,
      "me": 96,
      "den": 97,
      "de": 98,
      "sein": 99,
      "ion": 100,
      "ha": 101,
      "he": 102,
      "ol": 103,
      "ou": 104,
      "ic": 105,
      "ve": 106,
      "ra": 107,
      "ent": 108,
      "und": 109,
      "ue": 110,
      "we": 111,
      "no": 112,
      "ter": 113,
      "te": 114,
      "la": 115,
      "ben": 116,
      "gen": 117,
      "wer": 118,
      "im": 119,
      "am": 120,
      "ber": 121,
      "sp": 122,
      "ung": 123,
      "so": 124,
      "ing": 125,
      "ne": 126,
      "as": 127,
      "all": 128,
      "ach": 129,
      "um": 130,
      "sich": 131,
      "om": 132,
      "ke": 133,
      "for": 134,
      "werden": 135,
      "lo": 136,
      "ce": 137,
      "ut": 138,
      "hr": 139,
      "ir": 140,
      "einen": 141,
      "ier": 142,
      "ho": 143,
      "do": 144,
      "zu": 145,
      "auf": 146,
      "man": 147,
      "icht": 148,
      "ist": 149,
      "ae": 150,
      "ad": 151,
      "ct": 152,
      "nen": 153,
      "ck": 154,
      "ab": 155,
      "ten": 156,
      "mein": 157,
      "mo": 158,
      "ther": 159,
      "lich": 160,
      "ly": 161,
      "isch": 162,
      "ze": 163,
      "ation": 164,
      "mit": 165,
      "aus": 166,
      "hen": 167,
      "ma": 168,
      "have": 169,
      "da": 170,
      "ell": 171,
      "her": 172,
      "co": 173,
      "if": 174,
      "not": 175,
      "uer": 176,
      "ste": 177,
      "wi": 178,
      "ko": 179,
      "you": 180,
      "ate": 181,
      "men": 182,
      "ul": 183,
      "von": 184,
      "con": 185,
      "us": 186,
      "nicht": 187,
      "pro": 188,
      "with": 189,
      "ru": 190,
      "af": 191,
      "haben": 192,
      "wa": 193,
      "art": 194,
      "ta": 195,
      "di": 196,
      "pe": 197,
      "po": 198,
      "du": 199,
      "that": 200,
      "ennen": 201,
      "ort": 202,
      "su": 203,
      "per": 204,
      "end": 205,
      "ri": 206,
      "ger": 207,
      "die": 208,
      "als": 209,
      "ant": 210,
      "fa": 211,
      "fe": 212,
      "this": 213,
      "auch": 214,
      "one": 215,
      "iel": 216,
      "ive": 217,
      "ill": 218,
      "lie": 219,
      "bo": 220,
      "his": 221,
      "kt": 222,
      "vor": 223,
      "wie": 224,
      "go": 225,
      "com": 226,
      "ex": 227,
      "tz": 228,
      "je": 229,
      "wo": 230,
      "nach": 231,
      "ap": 232,
      "can": 233,
      "fuer": 234,
      "ieren": 235,
      "fin": 236,
      "koennen": 237,
      "tra": 238,
      "wh": 239,
      "ba": 240,
      "igh": 241,
      "op": 242,
      "ti": 243,
      "rom": 244,
      "ine": 245,
      "tr": 246,
      "na": 247,
      "br": 248,
      "ity": 249,
      "sh": 250,
      "ssen": 251,
      "hl": 252,
      "fr": 253,
      "fo": 254,
      "ld": 255,
      "there": 256,
      "lu": 257,
      "fer": 258,
      "bei": 259,
      "mer": 260,
      "ang": 261,
      "ueber": 262,
      "from": 263,
      "wor": 264,
      "sa": 265,
      "dies": 266,
      "si": 267,
      "pa": 268,
      "sen": 269,
      "also": 270,
      "pre": 271,
      "einer": 272,
      "by": 273,
      "out": 274,
      "sel": 275,
      "ally": 276,
      "unter": 277,
      "ga": 278,
      "fen": 279,
      "oll": 280,
      "li": 281,
      "qu": 282,
      "kom": 283,
      "up": 284,
      "dur": 285,
      "chen": 286,
      "land": 287,
      "ment": 288,
      "et": 289,
      "hn": 290,
      "mu": 291,
      "ster": 292,
      "pl": 293,
      "mal": 294,
      "gel": 295,
      "ite": 296,
      "mar": 297,
      "igen": 298,
      "gro": 299,
      "son": 300,
      "ja": 301,
      "ard": 302,
      "she": 303,
      "pla": 304,
      "ould": 305,
      "hal": 306,
      "gr": 307,
      "ci": 308,
      "ik": 309,
      "ight": 310,
      "ble": 311,
      "rei": 312,
      "now": 313,
      "noch": 314,
      "they": 315,
      "inter": 316,
      "ure": 317,
      "ser": 318,
      "che": 319,
      "ca": 320,
      "schaf": 321,
      "time": 322,
      "ild": 323,
      "gra": 324,
      "pt": 325,
      "zeit": 326,
      "ater": 327,
      "ann": 328,
      "wen": 329,
      "bl": 330,
      "es": 331,
      "fol": 332,
      "ice": 333,
      "spe": 334,
      "id": 335,
      "ong": 336,
      "bur": 337,
      "bu": 338,
      "sit": 339,
      "ple": 340,
      "par": 341,
      "way": 342,
      "ick": 343,
      "part": 344,
      "pr": 345,
      "ind": 346,
      "was": 347,
      "hren": 348,
      "very": 349,
      "od": 350,
      "age": 351,
      "ise": 352,
      "cht": 353,
      "ip": 354,
      "zwe": 355,
      "our": 356,
      "ute": 357,
      "but": 358,
      "ction": 359,
      "ander": 360,
      "durch": 361,
      "ous": 362,
      "aet": 363,
      "vi": 364,
      "ed": 365,
      "geben": 366,
      "ner": 367,
      "ken": 368,
      "some": 369,
      "sta": 370,
      "other": 371,
      "mus": 372,
      "zen": 373,
      "use": 374,
      "gh": 375,
      "ear": 376,
      "come": 377,
      "ish": 378,
      "work": 379,
      "schaft": 380,
      "after": 381,
      "war": 382,
      "ische": 383,
      "stehen": 384,
      "will": 385,
      "ph": 386,
      "sam": 387,
      "min": 388,
      "stell": 389,
      "em": 390,
      "iss": 391,
      "kommen": 392,
      "fre": 393,
      "nur": 394,
      "able": 395,
      "str": 396,
      "rea": 397,
      "tel": 398,
      "reg": 399,
      "kr": 400,
      "ju": 401,
      "zur": 402,
      "alt": 403,
      "teil": 404,
      "here": 405,
      "wn": 406,
      "get": 407,
      "off": 408,
      "ian": 409,
      "reich": 410,
      "form": 411,
      "day": 412,
      "ft": 413,
      "ac": 414,
      "any": 415,
      "bar": 416,
      "stu": 417,
      "mon": 418,
      "zum": 419,
      "ollen": 420,
      "how": 421,
      "ern": 422,
      "old": 423,
      "ord": 424,
      "viel": 425,
      "hand": 426,
      "aber": 427,
      "its": 428,
      "iv": 429,
      "stad": 430,
      "ok": 431,
      "tre": 432,
      "bau": 433,
      "weit": 434,
      "only": 435,
      "deut": 436,
      "eng": 437,
      "thing": 438,
      "name": 439,
      "fall": 440,
      "mehr": 441,
      "lin": 442,
      "fir": 443,
      "ev": 444,
      "pp": 445,
      "dar": 446,
      "my": 447,
      "anz": 448,
      "kein": 449,
      "ank": 450,
      "fue": 451,
      "sy": 452,
      "ty": 453,
      "sser": 454,
      "what": 455,
      "hmen": 456,
      "finden": 457,
      "ance": 458,
      "wel": 459,
      "stand": 460,
      "dr": 461,
      "ueck": 462,
      "ical": 463,
      "mach": 464,
      "spiel": 465,
      "gehen": 466,
      "eln": 467,
      "eren": 468,
      "low": 469,
      "more": 470,
      "ition": 471,
      "tt": 472,
      "bel": 473,
      "two": 474,
      "kon": 475,
      "og": 476,
      "int": 477,
      "stadt": 478,
      "ia": 479,
      "your": 480,
      "oder": 481,
      "doch": 482,
      "take": 483,
      "hin": 484,
      "ungs": 485,
      "burg": 486,
      "ef": 487,
      "ange": 488,
      "arbe": 489,
      "pol": 490,
      "kl": 491,
      "tur": 492,
      "sche": 493,
      "well": 494,
      "ien": 495,
      "pf": 496,
      "under": 497,
      "jo": 498,
      "lea": 499,
      "ary": 500,
      "ler": 501,
      "des": 502,
      "ele": 503,
      "pu": 504,
      "geb": 505,
      "ial": 506,
      "ingen": 507,
      "dem": 508,
      "iten": 509,
      "gle": 510,
      "first": 511,
      "nor": 512,
      "year": 513,
      "make": 514,
      "erst": 515,
      "port": 516,
      "dy": 517,
      "bis": 518,
      "dass": 519,
      "att": 520,
      "nehmen": 521,
      "atz": 522,
      "jahr": 523,
      "new": 524,
      "like": 525,
      "dis": 526,
      "sten": 527,
      "gre": 528,
      "ischen": 529,
      "most": 530,
      "know": 531,
      "cre": 532,
      "alle": 533,
      "tzen": 534,
      "main": 535,
      "ot": 536,
      "mat": 537,
      "ry": 538,
      "gut": 539,
      "gain": 540,
      "hier": 541,
      "ely": 542,
      "dam": 543,
      "read": 544,
      "then": 545,
      "wieder": 546,
      "iz": 547,
      "col": 548,
      "ak": 549,
      "wenn": 550,
      "hau": 551,
      "leben": 552,
      "ign": 553,
      "ict": 554,
      "play": 555,
      "over": 556,
      "stra": 557,
      "liegen": 558,
      "every": 559,
      "lang": 560,
      "halten": 561,
      "scho": 562,
      "fore": 563,
      "uen": 564,
      "schon": 565,
      "wir": 566,
      "many": 567,
      "car": 568,
      "mann": 569,
      "gar": 570,
      "act": 571,
      "who": 572,
      "again": 573,
      "vers": 574,
      "gegen": 575,
      "win": 576,
      "vo": 577,
      "immer": 578,
      "gross": 579,
      "bit": 580,
      "nation": 581,
      "bre": 582,
      "ory": 583,
      "ence": 584,
      "just": 585,
      "meist": 586,
      "see": 587,
      "fam": 588,
      "gesch": 589,
      "cess": 590,
      "dent": 591,
      "fil": 592,
      "sehen": 593,
      "pra": 594,
      "tro": 595,
      "into": 596,
      "zwei": 597,
      "ans": 598,
      "sol": 599,
      "mun": 600,
      "stre": 601,
      "cken": 602,
      "ire": 603,
      "cent": 604,
      "uni": 605,
      "hlen": 606,
      "ied": 607,
      "ult": 608,
      "nat": 609,
      "flu": 610,
      "gleich": 611,
      "dern": 612,
      "ka": 613,
      "hel": 614,
      "bere": 615,
      "still": 616,
      "when": 617,
      "their": 618,
      "lau": 619,
      "sse": 620,
      "about": 621,
      "tzt": 622,
      "stellen": 623,
      "ink": 624,
      "sk": 625,
      "place": 626,
      "ob": 627,
      "eg": 628,
      "machen": 629,
      "loc": 630,
      "keit": 631,
      "itt": 632,
      "berg": 633,
      "produ": 634,
      "beg": 635,
      "vel": 636,
      "muss": 637,
      "zie": 638,
      "za": 639,
      "ile": 640,
      "issen": 641,
      "would": 642,
      "want": 643,
      "ily": 644,
      "national": 645,
      "thro": 646,
      "dif": 647,
      "nie": 648,
      "richt": 649,
      "iter": 650,
      "ep": 651,
      "ins": 652,
      "self": 653,
      "gu": 654,
      "gemein": 655,
      "schen": 656,
      "should": 657,
      "stru": 658,
      "eine": 659,
      "heute": 660,
      "entlich": 661,
      "cur": 662,
      "dist": 663,
      "gan": 664,
      "fach": 665,
      "olog": 666,
      "fl": 667,
      "long": 668,
      "cle": 669,
      "hol": 670,
      "hoeren": 671,
      "dition": 672,
      "kla": 673,
      "which": 674,
      "coun": 675,
      "ause": 676,
      "wae": 677,
      "diese": 678,
      "ital": 679,
      "wal": 680,
      "back": 681,
      "arch": 682,
      "schu": 683,
      "kre": 684,
      "kur": 685,
      "tain": 686,
      "cke": 687,
      "res": 688,
      "city": 689,
      "build": 690,
      "vier": 691,
      "dann": 692,
      "fel": 693,
      "dan": 694,
      "ize": 695,
      "zeich": 696,
      "ib": 697,
      "ugh": 698,
      "ople": 699,
      "sollen": 700,
      "let": 701,
      "ful": 702,
      "lassen": 703,
      "even": 704,
      "bet": 705,
      "bst": 706,
      "zw": 707,
      "people": 708,
      "haupt": 709,
      "gru": 710,
      "ess": 711,
      "vol": 712,
      "fra": 713,
      "film": 714,
      "kar": 715,
      "gend": 716,
      "bro": 717,
      "these": 718,
      "howe": 719,
      "during": 720,
      "weg": 721,
      "however": 722,
      "hoch": 723,
      "dien": 724,
      "eur": 725,
      "begin": 726,
      "such": 727,
      "find": 728,
      "tal": 729,
      "cor": 730,
      "schla": 731,
      "aech": 732,
      "ward": 733,
      "become": 734,
      "dire": 735,
      "sin": 736,
      "tor": 737,
      "plan": 738,
      "bor": 739,
      "spre": 740,
      "could": 741,
      "schlie": 742,
      "wollen": 743,
      "pen": 744,
      "setzen": 745,
      "xt": 746,
      "ass": 747,
      "sm": 748,
      "fahr": 749,
      "thre": 750,
      "sto": 751,
      "sent": 752,
      "mem": 753,
      "grund": 754,
      "cause": 755,
      "high": 756,
      "side": 757,
      "lass": 758,
      "welt": 759,
      "far": 760,
      "que": 761,
      "ieg": 762,
      "lage": 763,
      "cy": 764,
      "west": 765,
      "good": 766,
      "through": 767,
      "ready": 768,
      "vis": 769,
      "wr": 770,
      "ase": 771,
      "elle": 772,
      "iden": 773,
      "ktion": 774,
      "kind": 775,
      "ding": 776,
      "lauf": 777,
      "today": 778,
      "train": 779,
      "ll": 780,
      "deutsch": 781,
      "jed": 782,
      "itz": 783,
      "ife": 784,
      "neu": 785,
      "ale": 786,
      "tem": 787,
      "mittel": 788,
      "oh": 789,
      "band": 790,
      "differ": 791,
      "haus": 792,
      "three": 793,
      "mue": 794,
      "kennen": 795,
      "heit": 796,
      "rel": 797,
      "ide": 798,
      "publ": 799,
      "german": 800,
      "call": 801,
      "dre": 802,
      "ular": 803,
      "ship": 804,
      "fun": 805,
      "bahn": 806,
      "world": 807,
      "than": 808,
      "cial": 809,
      "area": 810,
      "right": 811,
      "dor": 812,
      "sport": 813,
      "eff": 814,
      "num": 815,
      "star": 816,
      "air": 817,
      "drei": 818,
      "lar": 819,
      "later": 820,
      "schr": 821,
      "already": 822,
      "same": 823,
      "clo": 824,
      "state": 825,
      "ift": 826,
      "char": 827,
      "fla": 828,
      "aten": 829,
      "werk": 830,
      "jedoch": 831,
      "dabei": 832,
      "ges": 833,
      "schn": 834,
      "ways": 835,
      "vom": 836,
      "try": 837,
      "ven": 838,
      "fuehren": 839,
      "pass": 840,
      "where": 841,
      "versch": 842,
      "school": 843,
      "look": 844,
      "turn": 845,
      "cour": 846,
      "stem": 847,
      "fahren": 848,
      "bil": 849,
      "tag": 850,
      "ctor": 851,
      "mand": 852,
      "mor": 853,
      "sur": 854,
      "dort": 855,
      "bra": 856,
      "schrei": 857,
      "ende": 858,
      "region": 859,
      "too": 860,
      "line": 861,
      "ative": 862,
      "ts": 863,
      "sehr": 864,
      "pri": 865,
      "ast": 866,
      "los": 867,
      "del": 868,
      "always": 869,
      "ific": 870,
      "ungen": 871,
      "recht": 872,
      "ator": 873,
      "weise": 874,
      "gener": 875,
      "bla": 876,
      "ug": 877,
      "red": 878,
      "cer": 879,
      "sue": 880,
      "urch": 881,
      "live": 882,
      "unt": 883,
      "cord": 884,
      "ren": 885,
      "uss": 886,
      "hist": 887,
      "meter": 888,
      "child": 889,
      "chr": 890,
      "kir": 891,
      "ziehen": 892,
      "stim": 893,
      "sho": 894,
      "legen": 895,
      "iben": 896,
      "comp": 897,
      "move": 898,
      "posit": 899,
      "cr": 900,
      "amer": 901,
      "need": 902,
      "clu": 903,
      "sw": 904,
      "start": 905,
      "bleiben": 906,
      "aum": 907,
      "ough": 908,
      "think": 909,
      "lan": 910,
      "tun": 911,
      "vil": 912,
      "chn": 913,
      "last": 914,
      "iff": 915,
      "tern": 916,
      "eben": 917,
      "ium": 918,
      "igkeit": 919,
      "list": 920,
      "ppen": 921,
      "ag": 922,
      "put": 923,
      "leave": 924,
      "ige": 925,
      "val": 926,
      "fur": 927,
      "nis": 928,
      "bild": 929,
      "vie": 930,
      "io": 931,
      "mean": 932,
      "egen": 933,
      "var": 934,
      "four": 935,
      "prof": 936,
      "hof": 937,
      "sub": 938,
      "net": 939,
      "satz": 940,
      "damit": 941,
      "jetzt": 942,
      "beid": 943,
      "ker": 944,
      "give": 945,
      "serv": 946,
      "bus": 947,
      "liche": 948,
      "ister": 949,
      "mil": 950,
      "oeff": 951,
      "einfach": 952,
      "eu": 953,
      "sha": 954,
      "selbst": 955,
      "heim": 956,
      "herr": 957,
      "ober": 958,
      "sou": 959,
      "because": 960,
      "etwas": 961,
      "zer": 962,
      "kun": 963,
      "sim": 964,
      "stein": 965,
      "mut": 966,
      "beim": 967,
      "water": 968,
      "spaet": 969,
      "ellen": 970,
      "wach": 971,
      "polit": 972,
      "spra": 973,
      "ually": 974,
      "befinden": 975,
      "frei": 976,
      "point": 977,
      "organ": 978,
      "bal": 979,
      "ere": 980,
      "sc": 981,
      "zusam": 982,
      "run": 983,
      "spielen": 984,
      "ina": 985,
      "alb": 986,
      "ason": 987,
      "aeu": 988,
      "different": 989,
      "cap": 990,
      "mel": 991,
      "gram": 992,
      "krieg": 993,
      "zwischen": 994,
      "follow": 995,
      "ball": 996,
      "zusammen": 997,
      "est": 998,
      "ible": 999,
      "secon": 1000,
      "oft": 1001,
      "berlin": 1002,
      "system": 1003,
      "locate": 1004,
      "member": 1005,
      "ade": 1006,
      "ausser": 1007,
      "ton": 1008,
      "team": 1009,
      "less": 1010,
      "show": 1011,
      "wasser": 1012,
      "oper": 1013,
      "sever": 1014,
      "ious": 1015,
      "ym": 1016,
      "habe": 1017,
      "why": 1018,
      "say": 1019,
      "ket": 1020,
      "gebie": 1021,
      "vent": 1022,
      "isen": 1023,
      "head": 1024,
      "univers": 1025,
      "pun": 1026,
      "zent": 1027,
      "ow": 1028,
      "amp": 1029,
      "bru": 1030,
      "erfol": 1031,
      "voll": 1032,
      "arbeiten": 1033,
      "ouse": 1034,
      "einig": 1035,
      "fest": 1036,
      "zig": 1037,
      "lot": 1038,
      "sal": 1039,
      "gue": 1040,
      "suc": 1041,
      "kra": 1042,
      "miss": 1043,
      "comple": 1044,
      "suchen": 1045,
      "present": 1046,
      "serve": 1047,
      "ierung": 1048,
      "leg": 1049,
      "ueh": 1050,
      "ganz": 1051,
      "change": 1052,
      "sprechen": 1053,
      "bun": 1054,
      "frau": 1055,
      "eigen": 1056,
      "dra": 1057,
      "addition": 1058,
      "zahl": 1059,
      "nung": 1060,
      "tin": 1061,
      "ically": 1062,
      "import": 1063,
      "lung": 1064,
      "press": 1065,
      "person": 1066,
      "seinen": 1067,
      "ument": 1068,
      "light": 1069,
      "seit": 1070,
      "sor": 1071,
      "medi": 1072,
      "auto": 1073,
      "gang": 1074,
      "sie": 1075,
      "lim": 1076,
      "techn": 1077,
      "nichts": 1078,
      "wenig": 1079,
      "sign": 1080,
      "annt": 1081,
      "sonder": 1082,
      "don": 1083,
      "mark": 1084,
      "please": 1085,
      "university": 1086,
      "ff": 1087,
      "often": 1088,
      "tit": 1089,
      "ently": 1090,
      "ject": 1091,
      "pose": 1092,
      "platz": 1093,
      "har": 1094,
      "company": 1095,
      "eglich": 1096,
      "tour": 1097,
      "may": 1098,
      "zurueck": 1099,
      "without": 1100,
      "hard": 1101,
      "schw": 1102,
      "arbeit": 1103,
      "aechst": 1104,
      "ppe": 1105,
      "study": 1106,
      "bitte": 1107,
      "meinen": 1108,
      "open": 1109,
      "distr": 1110,
      "district": 1111,
      "both": 1112,
      "dge": 1113,
      "own": 1114,
      "second": 1115,
      "flo": 1116,
      "rest": 1117,
      "fig": 1118,
      "ween": 1119,
      "sicht": 1120,
      "lied": 1121,
      "klein": 1122,
      "fuen": 1123,
      "before": 1124,
      "igin": 1125,
      "statt": 1126,
      "between": 1127,
      "care": 1128,
      "weil": 1129,
      "real": 1130,
      "emp": 1131,
      "position": 1132,
      "schreiben": 1133,
      "stern": 1134,
      "ution": 1135,
      "dorf": 1136,
      "term": 1137,
      "spon": 1138,
      "several": 1139,
      "ham": 1140,
      "test": 1141,
      "famil": 1142,
      "christ": 1143,
      "moeglich": 1144,
      "gemeinde": 1145,
      "town": 1146,
      "dio": 1147,
      "duer": 1148,
      "inst": 1149,
      "public": 1150,
      "schwe": 1151,
      "poss": 1152,
      "bringen": 1153,
      "sing": 1154,
      "sider": 1155,
      "musik": 1156,
      "family": 1157,
      "ohne": 1158,
      "ens": 1159,
      "bin": 1160,
      "small": 1161,
      "bach": 1162,
      "appe": 1163,
      "schul": 1164,
      "wohl": 1165,
      "spr": 1166,
      "spa": 1167,
      "tragen": 1168,
      "house": 1169,
      "origin": 1170,
      "down": 1171,
      "life": 1172,
      "stri": 1173,
      "ek": 1174,
      "gelten": 1175,
      "oc": 1176,
      "enden": 1177,
      "reichen": 1178,
      "fuenf": 1179,
      "schule": 1180,
      "mensch": 1181,
      "station": 1182,
      "fle": 1183,
      "bas": 1184,
      "hor": 1185,
      "besonder": 1186,
      "treten": 1187,
      "kurz": 1188,
      "building": 1189,
      "trie": 1190,
      "large": 1191,
      "bad": 1192,
      "body": 1193,
      "success": 1194,
      "lead": 1195,
      "euro": 1196,
      "set": 1197,
      "mae": 1198,
      "wirt": 1199,
      "utz": 1200,
      "neben": 1201,
      "endig": 1202,
      "cro": 1203,
      "commun": 1204,
      "dig": 1205,
      "schau": 1206,
      "eig": 1207,
      "tho": 1208,
      "nam": 1209,
      "ieden": 1210,
      "cker": 1211,
      "much": 1212,
      "tri": 1213,
      "dri": 1214,
      "alten": 1215,
      "consider": 1216,
      "devel": 1217,
      "ye": 1218,
      "soll": 1219,
      "enz": 1220,
      "nah": 1221,
      "music": 1222,
      "zeichnen": 1223,
      "zug": 1224,
      "wissen": 1225,
      "erste": 1226,
      "erhalten": 1227,
      "gebiet": 1228,
      "wenden": 1229,
      "ku": 1230,
      "aller": 1231,
      "nun": 1232,
      "schle": 1233,
      "elt": 1234,
      "church": 1235,
      "partic": 1236,
      "stam": 1237,
      "pop": 1238,
      "duerfen": 1239,
      "loe": 1240,
      "ately": 1241,
      "ath": 1242,
      "schwer": 1243,
      "due": 1244,
      "bedeut": 1245,
      "zehn": 1246,
      "brea": 1247,
      "group": 1248,
      "wohn": 1249,
      "schliess": 1250,
      "ism": 1251,
      "hrend": 1252,
      "tran": 1253,
      "law": 1254,
      "ativ": 1255,
      "halt": 1256,
      "develop": 1257,
      "ric": 1258,
      "blo": 1259,
      "never": 1260,
      "ilo": 1261,
      "dau": 1262,
      "proble": 1263,
      "wards": 1264,
      "big": 1265,
      "write": 1266,
      "ay": 1267,
      "another": 1268,
      "park": 1269,
      "cal": 1270,
      "wick": 1271,
      "important": 1272,
      "dru": 1273,
      "hy": 1274,
      "him": 1275,
      "os": 1276,
      "remain": 1277,
      "vide": 1278,
      "mehrer": 1279,
      "wort": 1280,
      "cher": 1281,
      "sagen": 1282,
      "iti": 1283,
      "meister": 1284,
      "fern": 1285,
      "dom": 1286,
      "case": 1287,
      "pat": 1288,
      "wicht": 1289,
      "ichte": 1290,
      "kauf": 1291,
      "fallen": 1292,
      "wirtschaft": 1293,
      "bab": 1294,
      "fan": 1295,
      "five": 1296,
      "vin": 1297,
      "sach": 1298,
      "yer": 1299,
      "inner": 1300,
      "natur": 1301,
      "ature": 1302,
      "ehe": 1303,
      "stop": 1304,
      "trans": 1305,
      "grow": 1306,
      "sil": 1307,
      "short": 1308,
      "hnen": 1309,
      "leicht": 1310,
      "indi": 1311,
      "ont": 1312,
      "hinter": 1313,
      "aer": 1314,
      "han": 1315,
      "rich": 1316,
      "aro": 1317,
      "brauch": 1318,
      "zun": 1319,
      "cover": 1320,
      "va": 1321,
      "buch": 1322,
      "problem": 1323,
      "alter": 1324,
      "itaet": 1325,
      "med": 1326,
      "cast": 1327,
      "since": 1328,
      "punkt": 1329,
      "dro": 1330,
      "something": 1331,
      "stat": 1332,
      "cept": 1333,
      "result": 1334,
      "esst": 1335,
      "ausserdem": 1336,
      "profess": 1337,
      "north": 1338,
      "ning": 1339,
      "mid": 1340,
      "supp": 1341,
      "weiss": 1342,
      "hu": 1343,
      "mitg": 1344,
      "each": 1345,
      "aul": 1346,
      "exper": 1347,
      "aehr": 1348,
      "kan": 1349,
      "ient": 1350,
      "imal": 1351,
      "moegen": 1352,
      "dazu": 1353,
      "program": 1354,
      "qual": 1355,
      "class": 1356,
      "mi": 1357,
      "constru": 1358,
      "book": 1359,
      "bereits": 1360,
      "ual": 1361,
      "ask": 1362,
      "wirk": 1363,
      "san": 1364,
      "offen": 1365,
      "flug": 1366,
      "possible": 1367,
      "licht": 1368,
      "ield": 1369,
      "next": 1370,
      "halb": 1371,
      "elect": 1372,
      "sitzen": 1373,
      "frueh": 1374,
      "international": 1375,
      "feld": 1376,
      "bi": 1377,
      "exist": 1378,
      "oeffentlich": 1379,
      "bie": 1380,
      "ief": 1381,
      "thor": 1382,
      "waehrend": 1383,
      "ender": 1384,
      "wert": 1385,
      "arm": 1386,
      "neue": 1387,
      "appear": 1388,
      "fect": 1389,
      "rum": 1390,
      "walt": 1391,
      "really": 1392,
      "text": 1393,
      "mag": 1394,
      "post": 1395,
      "formation": 1396,
      "against": 1397,
      "ron": 1398,
      "falls": 1399,
      "cons": 1400,
      "zae": 1401,
      "acht": 1402,
      "lish": 1403,
      "must": 1404,
      "fast": 1405,
      "wald": 1406,
      "laufen": 1407,
      "around": 1408,
      "ies": 1409,
      "free": 1410,
      "bert": 1411,
      "colle": 1412,
      "histor": 1413,
      "zeug": 1414,
      "oe": 1415,
      "bilden": 1416,
      "kin": 1417,
      "top": 1418,
      "mass": 1419,
      "ison": 1420,
      "bauen": 1421,
      "kal": 1422,
      "staat": 1423,
      "darauf": 1424,
      "rad": 1425,
      "inger": 1426,
      "entwick": 1427,
      "app": 1428,
      "close": 1429,
      "cra": 1430,
      "kel": 1431,
      "exam": 1432,
      "wachsen": 1433,
      "phy": 1434,
      "bank": 1435,
      "nut": 1436,
      "south": 1437,
      "dat": 1438,
      "schliessen": 1439,
      "erfolg": 1440,
      "respon": 1441,
      "few": 1442,
      "sitz": 1443,
      "laesst": 1444,
      "bek": 1445,
      "priv": 1446,
      "hum": 1447,
      "bir": 1448,
      "indu": 1449,
      "bundes": 1450,
      "schae": 1451,
      "fri": 1452,
      "cho": 1453,
      "schrift": 1454,
      "belie": 1455,
      "samt": 1456,
      "ssel": 1457,
      "course": 1458,
      "regel": 1459,
      "rot": 1460,
      "base": 1461,
      "cu": 1462,
      "welch": 1463,
      "rat": 1464,
      "bestehen": 1465,
      "blue": 1466,
      "richten": 1467,
      "rueck": 1468,
      "roman": 1469,
      "setz": 1470,
      "round": 1471,
      "zeigen": 1472,
      "beginnen": 1473,
      "mp": 1474,
      "sae": 1475,
      "fort": 1476,
      "hein": 1477,
      "lue": 1478,
      "yo": 1479,
      "rol": 1480,
      "curr": 1481,
      "chs": 1482,
      "seite": 1483,
      "mitglied": 1484,
      "hold": 1485,
      "kam": 1486,
      "litt": 1487,
      "clear": 1488,
      "fas": 1489,
      "kue": 1490,
      "order": 1491,
      "scheiden": 1492,
      "power": 1493,
      "minute": 1494,
      "familie": 1495,
      "break": 1496,
      "bekennen": 1497,
      "atur": 1498,
      "center": 1499,
      "iert": 1500,
      "fact": 1501,
      "search": 1502,
      "speak": 1503,
      "sty": 1504,
      "conne": 1505,
      "stro": 1506,
      "iga": 1507,
      "cl": 1508,
      "number": 1509,
      "ral": 1510,
      "nahme": 1511,
      "fu": 1512,
      "letzt": 1513,
      "folgen": 1514,
      "zial": 1515,
      "fuehr": 1516,
      "wil": 1517,
      "wol": 1518,
      "ceive": 1519,
      "cul": 1520,
      "hung": 1521,
      "gehoeren": 1522,
      "father": 1523,
      "danach": 1524,
      "verschieden": 1525,
      "great": 1526,
      "milit": 1527,
      "europe": 1528,
      "little": 1529,
      "dienen": 1530,
      "genau": 1531,
      "germany": 1532,
      "field": 1533,
      "letz": 1534,
      "row": 1535,
      "verwenden": 1536,
      "song": 1537,
      "service": 1538,
      "sohn": 1539,
      "kor": 1540,
      "tend": 1541,
      "russ": 1542,
      "game": 1543,
      "buer": 1544,
      "ane": 1545,
      "front": 1546,
      "village": 1547,
      "por": 1548,
      "nord": 1549,
      "kreis": 1550,
      "van": 1551,
      "prin": 1552,
      "toge": 1553,
      "univer": 1554,
      "together": 1555,
      "kehr": 1556,
      "bot": 1557,
      "word": 1558,
      "unge": 1559,
      "contin": 1560,
      "belong": 1561,
      "vater": 1562,
      "muse": 1563,
      "strasse": 1564,
      "keep": 1565,
      "ility": 1566,
      "dings": 1567,
      "pur": 1568,
      "record": 1569,
      "nennen": 1570,
      "langu": 1571,
      "ional": 1572,
      "frank": 1573,
      "language": 1574,
      "hund": 1575,
      "liter": 1576,
      "folge": 1577,
      "stellung": 1578,
      "weiter": 1579,
      "schlu": 1580,
      "asso": 1581,
      "geschichte": 1582,
      "ttle": 1583,
      "ener": 1584,
      "dieren": 1585,
      "verein": 1586,
      "spru": 1587,
      "lose": 1588,
      "party": 1589,
      "unde": 1590,
      "denken": 1591,
      "community": 1592,
      "mr": 1593,
      "isieren": 1594,
      "akt": 1595,
      "irgend": 1596,
      "help": 1597,
      "away": 1598,
      "universit": 1599,
      "dle": 1600,
      "fire": 1601,
      "ks": 1602,
      "cri": 1603,
      "asse": 1604,
      "staendig": 1605,
      "manch": 1606,
      "zahlreich": 1607,
      "betrie": 1608,
      "ziel": 1609,
      "spieler": 1610,
      "ology": 1611,
      "museum": 1612,
      "home": 1613,
      "clude": 1614,
      "ei": 1615,
      "gewin": 1616,
      "club": 1617,
      "thir": 1618,
      "bring": 1619,
      "dec": 1620,
      "ene": 1621,
      "sued": 1622,
      "among": 1623,
      "sowie": 1624,
      "ground": 1625,
      "eigentlich": 1626,
      "himself": 1627,
      "lei": 1628,
      "minist": 1629,
      "office": 1630,
      "tru": 1631,
      "sicher": 1632,
      "until": 1633,
      "ness": 1634,
      "therefore": 1635,
      "langen": 1636,
      "cie": 1637,
      "ssig": 1638,
      "gerade": 1639,
      "aster": 1640,
      "arn": 1641,
      "spect": 1642,
      "sci": 1643,
      "hoer": 1644,
      "appro": 1645,
      "allerdings": 1646,
      "trag": 1647,
      "muessen": 1648,
      "cup": 1649,
      "europ": 1650,
      "tu": 1651,
      "gest": 1652,
      "deutschland": 1653,
      "sum": 1654,
      "chter": 1655,
      "face": 1656,
      "associ": 1657,
      "kirche": 1658,
      "rail": 1659,
      "engen": 1660,
      "loss": 1661,
      "six": 1662,
      "wech": 1663,
      "plant": 1664,
      "heir": 1665,
      "receive": 1666,
      "atch": 1667,
      "room": 1668,
      "teach": 1669,
      "taet": 1670,
      "gesamt": 1671,
      "everything": 1672,
      "country": 1673,
      "universitaet": 1674,
      "wechsel": 1675,
      "tw": 1676,
      "tes": 1677,
      "construction": 1678,
      "leist": 1679,
      "endung": 1680,
      "gy": 1681,
      "color": 1682,
      "theater": 1683,
      "studieren": 1684,
      "raum": 1685,
      "sequ": 1686,
      "fluss": 1687,
      "kap": 1688,
      "once": 1689,
      "special": 1690,
      "album": 1691,
      "author": 1692,
      "amt": 1693,
      "iger": 1694,
      "teilen": 1695,
      "nieder": 1696,
      "stammen": 1697,
      "enger": 1698,
      "king": 1699,
      "eas": 1700,
      "stark": 1701,
      "hunder": 1702,
      "mb": 1703,
      "scheinen": 1704,
      "entstehen": 1705,
      "quest": 1706,
      "gas": 1707,
      "cture": 1708,
      "dieser": 1709,
      "uenst": 1710,
      "untersch": 1711,
      "weis": 1712,
      "ech": 1713,
      "wind": 1714,
      "accord": 1715,
      "capital": 1716,
      "allow": 1717,
      "kn": 1718,
      "board": 1719,
      "ously": 1720,
      "bear": 1721,
      "schein": 1722,
      "pon": 1723,
      "ban": 1724,
      "eller": 1725,
      "ulation": 1726,
      "gren": 1727,
      "offic": 1728,
      "wichtig": 1729,
      "gn": 1730,
      "initi": 1731,
      "general": 1732,
      "lat": 1733,
      "bieten": 1734,
      "inde": 1735,
      "sound": 1736,
      "prote": 1737,
      "ktor": 1738,
      "iness": 1739,
      "brit": 1740,
      "fuss": 1741,
      "pie": 1742,
      "einmal": 1743,
      "wegen": 1744,
      "pal": 1745,
      "schue": 1746,
      "span": 1747,
      "gleichen": 1748,
      "len": 1749,
      "isp": 1750,
      "uerlich": 1751,
      "foer": 1752,
      "bereich": 1753,
      "stimmen": 1754,
      "schluss": 1755,
      "almost": 1756,
      "einz": 1757,
      "sident": 1758,
      "view": 1759,
      "itor": 1760,
      "represent": 1761,
      "week": 1762,
      "ffen": 1763,
      "hil": 1764,
      "ismus": 1765,
      "spar": 1766,
      "druck": 1767,
      "offer": 1768,
      "black": 1769,
      "gie": 1770,
      "sand": 1771,
      "gree": 1772,
      "zunaechst": 1773,
      "rier": 1774,
      "bezeichnen": 1775,
      "gruppe": 1776,
      "feder": 1777,
      "process": 1778,
      "river": 1779,
      "wall": 1780,
      "stelle": 1781,
      "reason": 1782,
      "road": 1783,
      "usually": 1784,
      "graf": 1785,
      "wur": 1786,
      "aut": 1787,
      "ware": 1788,
      "frie": 1789,
      "ization": 1790,
      "wom": 1791,
      "quick": 1792,
      "champ": 1793,
      "include": 1794,
      "drive": 1795,
      "ling": 1796,
      "handeln": 1797,
      "everyone": 1798,
      "sau": 1799,
      "koen": 1800,
      "glau": 1801,
      "denn": 1802,
      "early": 1803,
      "ify": 1804,
      "fal": 1805,
      "ris": 1806,
      "luft": 1807,
      "design": 1808,
      "version": 1809,
      "tier": 1810,
      "nothing": 1811,
      "bon": 1812,
      "former": 1813,
      "dow": 1814,
      "dienst": 1815,
      "americ": 1816,
      "motor": 1817,
      "heraus": 1818,
      "schoen": 1819,
      "wuer": 1820,
      "icip": 1821,
      "thern": 1822,
      "grand": 1823,
      "young": 1824,
      "bind": 1825,
      "ench": 1826,
      "happen": 1827,
      "natuerlich": 1828,
      "found": 1829,
      "zweite": 1830,
      "heiraten": 1831,
      "gla": 1832,
      "minister": 1833,
      "support": 1834,
      "auss": 1835,
      "mill": 1836,
      "vert": 1837,
      "beru": 1838,
      "griff": 1839,
      "eufig": 1840,
      "heissen": 1841,
      "trau": 1842,
      "create": 1843,
      "instit": 1844,
      "stor": 1845,
      "island": 1846,
      "frage": 1847,
      "wahr": 1848,
      "champion": 1849,
      "schwar": 1850,
      "mod": 1851,
      "white": 1852,
      "stueck": 1853,
      "org": 1854,
      "istic": 1855,
      "peri": 1856,
      "further": 1857,
      "bung": 1858,
      "lehr": 1859,
      "unterschied": 1860,
      "wand": 1861,
      "gabe": 1862,
      "quire": 1863,
      "funktion": 1864,
      "direct": 1865,
      "edu": 1866,
      "itch": 1867,
      "davon": 1868,
      "pet": 1869,
      "common": 1870,
      "while": 1871,
      "tely": 1872,
      "trol": 1873,
      "pho": 1874,
      "though": 1875,
      "verkehr": 1876,
      "quar": 1877,
      "bekannt": 1878,
      "mater": 1879,
      "brauchen": 1880,
      "site": 1881,
      "ated": 1882,
      "franz": 1883,
      "schaffen": 1884,
      "lebens": 1885,
      "history": 1886,
      "schliesslich": 1887,
      "transport": 1888,
      "middle": 1889,
      "enth": 1890,
      "elf": 1891,
      "castle": 1892,
      "numer": 1893,
      "completely": 1894,
      "enough": 1895,
      "icult": 1896,
      "force": 1897,
      "gl": 1898,
      "mom": 1899,
      "ration": 1900,
      "vir": 1901,
      "unternehmen": 1902,
      "event": 1903,
      "non": 1904,
      "tte": 1905,
      "weisen": 1906,
      "gebaeu": 1907,
      "mainly": 1908,
      "role": 1909,
      "local": 1910,
      "exp": 1911,
      "gesell": 1912,
      "east": 1913,
      "sprache": 1914,
      "jur": 1915,
      "iment": 1916,
      "administ": 1917,
      "hall": 1918,
      "remove": 1919,
      "municip": 1920,
      "icle": 1921,
      "manage": 1922,
      "season": 1923,
      "kopf": 1924,
      "mission": 1925,
      "einander": 1926,
      "aeter": 1927,
      "plat": 1928,
      "essen": 1929,
      "sterben": 1930,
      "sometime": 1931,
      "typ": 1932,
      "lernen": 1933,
      "vision": 1934,
      "ull": 1935,
      "etwa": 1936,
      "enn": 1937,
      "bekommen": 1938,
      "feel": 1939,
      "prim": 1940,
      "bri": 1941,
      "hind": 1942,
      "provin": 1943,
      "temper": 1944,
      "lon": 1945,
      "key": 1946,
      "fang": 1947,
      "association": 1948,
      "flie": 1949,
      "kilo": 1950,
      "graph": 1951,
      "situ": 1952,
      "zweit": 1953,
      "buerger": 1954,
      "municipal": 1955,
      "rie": 1956,
      "sco": 1957,
      "stue": 1958,
      "schie": 1959,
      "dep": 1960,
      "lik": 1961,
      "mt": 1962,
      "koer": 1963,
      "wahl": 1964,
      "fert": 1965,
      "league": 1966,
      "schlagen": 1967,
      "mutter": 1968,
      "pan": 1969,
      "yet": 1970,
      "pub": 1971,
      "bt": 1972,
      "naechst": 1973,
      "liga": 1974,
      "gover": 1975,
      "industr": 1976,
      "rein": 1977,
      "dafuer": 1978,
      "wagen": 1979,
      "vidu": 1980,
      "particular": 1981,
      "individu": 1982,
      "zaehlen": 1983,
      "ellig": 1984,
      "angel": 1985,
      "gebaeude": 1986,
      "mul": 1987,
      "information": 1988,
      "nae": 1989,
      "ert": 1990,
      "fried": 1991,
      "friend": 1992,
      "rolle": 1993,
      "ispiel": 1994,
      "klo": 1995,
      "mals": 1996,
      "masch": 1997,
      "gewinnen": 1998,
      "ith": 1999,
      "sle": 2000,
      "zi": 2001,
      "soon": 2002,
      "phone": 2003,
      "acter": 2004,
      "count": 2005,
      "character": 2006,
      "blich": 2007,
      "saech": 2008,
      "inc": 2009,
      "animal": 2010,
      "beispiel": 2011,
      "refer": 2012,
      "enter": 2013,
      "modern": 2014,
      "brand": 2015,
      "englich": 2016,
      "sometimes": 2017,
      "hre": 2018,
      "zieren": 2019,
      "bern": 2020,
      "social": 2021,
      "tradition": 2022,
      "afterwards": 2023,
      "ication": 2024,
      "tzlich": 2025,
      "regional": 2026,
      "fru": 2027,
      "half": 2028,
      "thol": 2029,
      "arr": 2030,
      "ktur": 2031,
      "kinder": 2032,
      "koenig": 2033,
      "lieren": 2034,
      "swe": 2035,
      "stoff": 2036,
      "contain": 2037,
      "probab": 2038,
      "garten": 2039,
      "hundert": 2040,
      "period": 2041,
      "behind": 2042,
      "klar": 2043,
      "prae": 2044,
      "woman": 2045,
      "rock": 2046,
      "dou": 2047,
      "jor": 2048,
      "kol": 2049,
      "schutz": 2050,
      "court": 2051,
      "cut": 2052,
      "death": 2053,
      "talk": 2054,
      "ever": 2055,
      "research": 2056,
      "paar": 2057,
      "stay": 2058,
      "rease": 2059,
      "haeufig": 2060,
      "via": 2061,
      "tract": 2062,
      "chten": 2063,
      "business": 2064,
      "hon": 2065,
      "oney": 2066,
      "ebenfalls": 2067,
      "award": 2068,
      "zudem": 2069,
      "voice": 2070,
      "betrieb": 2071,
      "numerous": 2072,
      "moment": 2073,
      "kilometer": 2074,
      "ump": 2075,
      "moun": 2076,
      "koerper": 2077,
      "stone": 2078,
      "sper": 2079,
      "someone": 2080,
      "student": 2081,
      "aen": 2082,
      "kuenst": 2083,
      "stead": 2084,
      "kosten": 2085,
      "fehlen": 2086,
      "jemand": 2087,
      "ghter": 2088,
      "street": 2089,
      "richtung": 2090,
      "mmer": 2091,
      "rund": 2092,
      "erreichen": 2093,
      "iser": 2094,
      "ision": 2095,
      "schne": 2096,
      "ultur": 2097,
      "strong": 2098,
      "continue": 2099,
      "question": 2100,
      "elekt": 2101,
      "tion": 2102,
      "geld": 2103,
      "kenn": 2104,
      "anything": 2105,
      "cas": 2106,
      "kae": 2107,
      "rit": 2108,
      "meet": 2109,
      "const": 2110,
      "anti": 2111,
      "sinn": 2112,
      "operation": 2113,
      "equ": 2114,
      "defin": 2115,
      "ifen": 2116,
      "market": 2117,
      "nutzen": 2118,
      "ix": 2119,
      "single": 2120,
      "cir": 2121,
      "iker": 2122,
      "understand": 2123,
      "consist": 2124,
      "material": 2125,
      "night": 2126,
      "probably": 2127,
      "tent": 2128,
      "whe": 2129,
      "else": 2130,
      "pay": 2131,
      "flue": 2132,
      "bildung": 2133,
      "ony": 2134,
      "tage": 2135,
      "hauptstadt": 2136,
      "gold": 2137,
      "tell": 2138,
      "example": 2139,
      "human": 2140,
      "gol": 2141,
      "reach": 2142,
      "engine": 2143,
      "datum": 2144,
      "sive": 2145,
      "asure": 2146,
      "peter": 2147,
      "archite": 2148,
      "karl": 2149,
      "cil": 2150,
      "tat": 2151,
      "neun": 2152,
      "mother": 2153,
      "wood": 2154,
      "ius": 2155,
      "sis": 2156,
      "sechs": 2157,
      "fehl": 2158,
      "les": 2159,
      "verstehen": 2160,
      "ption": 2161,
      "zeitig": 2162,
      "yourself": 2163,
      "econ": 2164,
      "samm": 2165,
      "treffen": 2166,
      "winter": 2167,
      "super": 2168,
      "educ": 2169,
      "tic": 2170,
      "roll": 2171,
      "wissenschaft": 2172,
      "herz": 2173,
      "tail": 2174,
      "food": 2175,
      "echt": 2176,
      "ament": 2177,
      "love": 2178,
      "chem": 2179,
      "econom": 2180,
      "bez": 2181,
      "mannschaft": 2182,
      "space": 2183,
      "arily": 2184,
      "sup": 2185,
      "relig": 2186,
      "quickly": 2187,
      "emer": 2188,
      "production": 2189,
      "schlag": 2190,
      "titel": 2191,
      "pil": 2192,
      "lesen": 2193,
      "cially": 2194,
      "kunst": 2195,
      "those": 2196,
      "are": 2197,
      "erd": 2198,
      "return": 2199,
      "versuchen": 2200,
      "max": 2201,
      "warum": 2202,
      "sour": 2203,
      "sure": 2204,
      "hoe": 2205,
      "daher": 2206,
      "emplo": 2207,
      "wirklich": 2208,
      "fund": 2209,
      "pack": 2210,
      "weltkrieg": 2211,
      "eat": 2212,
      "tisch": 2213,
      "verwalt": 2214,
      "demo": 2215,
      "heil": 2216,
      "krit": 2217,
      "schnellen": 2218,
      "ama": 2219,
      "dad": 2220,
      "jaehr": 2221,
      "whole": 2222,
      "hit": 2223,
      "ination": 2224,
      "insel": 2225,
      "verheiraten": 2226,
      "absol": 2227,
      "title": 2228,
      "successful": 2229,
      "hi": 2230,
      "anton": 2231,
      "cross": 2232,
      "eight": 2233,
      "feuer": 2234,
      "flae": 2235,
      "ffic": 2236,
      "federal": 2237,
      "eye": 2238,
      "kat": 2239,
      "schloss": 2240,
      "near": 2241,
      "gesellschaft": 2242,
      "py": 2243,
      "sied": 2244,
      "tochter": 2245,
      "element": 2246,
      "ring": 2247,
      "stock": 2248,
      "publish": 2249,
      "radio": 2250,
      "hnlich": 2251,
      "job": 2252,
      "geschae": 2253,
      "crit": 2254,
      "besonders": 2255,
      "jung": 2256,
      "stom": 2257,
      "vest": 2258,
      "jekt": 2259,
      "hundred": 2260,
      "nal": 2261,
      "major": 2262,
      "career": 2263,
      "hm": 2264,
      "boden": 2265,
      "ose": 2266,
      "ving": 2267,
      "reco": 2268,
      "shalb": 2269,
      "various": 2270,
      "fly": 2271,
      "model": 2272,
      "foot": 2273,
      "upper": 2274,
      "kreu": 2275,
      "maessig": 2276,
      "late": 2277,
      "igung": 2278,
      "jour": 2279,
      "male": 2280,
      "plain": 2281,
      "parent": 2282,
      "freund": 2283,
      "machine": 2284,
      "morgen": 2285,
      "original": 2286,
      "seem": 2287,
      "wehr": 2288,
      "direkt": 2289,
      "zy": 2290,
      "anal": 2291,
      "blick": 2292,
      "player": 2293,
      "carry": 2294,
      "vice": 2295,
      "wein": 2296,
      "instead": 2297,
      "border": 2298,
      "taetigen": 2299,
      "ident": 2300,
      "sburg": 2301,
      "sichern": 2302,
      "gericht": 2303,
      "descri": 2304,
      "actually": 2305,
      "brechen": 2306,
      "automat": 2307,
      "hamburg": 2308,
      "daughter": 2309,
      "responsi": 2310,
      "cus": 2311,
      "seven": 2312,
      "route": 2313,
      "forsch": 2314,
      "type": 2315,
      "date": 2316,
      "fight": 2317,
      "tuer": 2318,
      "story": 2319,
      "learn": 2320,
      "effect": 2321,
      "verlieren": 2322,
      "vail": 2323,
      "cla": 2324,
      "kte": 2325,
      "wirken": 2326,
      "strecke": 2327,
      "zeichnung": 2328,
      "require": 2329,
      "hear": 2330,
      "signific": 2331,
      "money": 2332,
      "zin": 2333,
      "zeu": 2334,
      "specially": 2335,
      "baum": 2336,
      "complete": 2337,
      "wechseln": 2338,
      "mund": 2339,
      "mitte": 2340,
      "drich": 2341,
      "ologie": 2342,
      "easy": 2343,
      "rech": 2344,
      "teen": 2345,
      "werfen": 2346,
      "box": 2347,
      "mich": 2348,
      "scre": 2349,
      "spaeter": 2350,
      "kle": 2351,
      "french": 2352,
      "esse": 2353,
      "tree": 2354,
      "forest": 2355,
      "mountain": 2356,
      "hour": 2357,
      "stag": 2358,
      "imm": 2359,
      "control": 2360,
      "brother": 2361,
      "settle": 2362,
      "fee": 2363,
      "boy": 2364,
      "cape": 2365,
      "county": 2366,
      "psy": 2367,
      "einzig": 2368,
      "loesen": 2369,
      "programm": 2370,
      "beruf": 2371,
      "kno": 2372,
      "door": 2373,
      "helm": 2374,
      "erfolgen": 2375,
      "dog": 2376,
      "project": 2377,
      "endlich": 2378,
      "sentence": 2379,
      "europa": 2380,
      "cou": 2381,
      "lor": 2382,
      "ente": 2383,
      "tei": 2384,
      "mart": 2385,
      "separ": 2386,
      "ited": 2387,
      "waer": 2388,
      "jugend": 2389,
      "pract": 2390,
      "niemand": 2391,
      "sieben": 2392,
      "friedrich": 2393,
      "bat": 2394,
      "begriff": 2395,
      "manu": 2396,
      "add": 2397,
      "fran": 2398,
      "vielleicht": 2399,
      "mostly": 2400,
      "furt": 2401,
      "hle": 2402,
      "schaften": 2403,
      "kaufen": 2404,
      "paul": 2405,
      "itung": 2406,
      "fass": 2407,
      "ps": 2408,
      "pha": 2409,
      "tod": 2410,
      "lake": 2411,
      "steigen": 2412,
      "fair": 2413,
      "dieses": 2414,
      "saechlich": 2415,
      "eis": 2416,
      "ffer": 2417,
      "jan": 2418,
      "level": 2419,
      "seat": 2420,
      "binden": 2421,
      "military": 2422,
      "card": 2423,
      "leute": 2424,
      "schiff": 2425,
      "tom": 2426,
      "ves": 2427,
      "training": 2428,
      "believe": 2429,
      "step": 2430,
      "compu": 2431,
      "markt": 2432,
      "folgend": 2433,
      "ival": 2434,
      "govern": 2435,
      "master": 2436,
      "english": 2437,
      "especially": 2438,
      "finger": 2439,
      "jap": 2440,
      "nine": 2441,
      "along": 2442,
      "ischer": 2443,
      "gott": 2444,
      "tiv": 2445,
      "musste": 2446,
      "active": 2447,
      "sat": 2448,
      "rule": 2449,
      "expe": 2450,
      "sonst": 2451,
      "diff": 2452,
      "amerik": 2453,
      "individual": 2454,
      "pap": 2455,
      "depart": 2456,
      "verbind": 2457,
      "woche": 2458,
      "final": 2459,
      "preis": 2460,
      "darueber": 2461,
      "holz": 2462,
      "bald": 2463,
      "development": 2464,
      "computer": 2465,
      "dium": 2466,
      "activ": 2467,
      "entwickeln": 2468,
      "uch": 2469,
      "bend": 2470,
      "holen": 2471,
      "tter": 2472,
      "entscheiden": 2473,
      "kraft": 2474,
      "abe": 2475,
      "besitzen": 2476,
      "anst": 2477,
      "bevor": 2478,
      "aur": 2479,
      "haft": 2480,
      "syn": 2481,
      "laut": 2482,
      "produce": 2483,
      "fahrt": 2484,
      "relativ": 2485,
      "chan": 2486,
      "innen": 2487,
      "alth": 2488,
      "popular": 2489,
      "increase": 2490,
      "eger": 2491,
      "antly": 2492,
      "specie": 2493,
      "wig": 2494,
      "eltern": 2495,
      "cool": 2496,
      "exact": 2497,
      "ience": 2498,
      "zahlreiche": 2499,
      "source": 2500,
      "geschaeft": 2501,
      "unbe": 2502,
      "urspru": 2503,
      "nes": 2504,
      "paris": 2505,
      "hart": 2506,
      "necess": 2507,
      "brig": 2508,
      "pare": 2509,
      "lease": 2510,
      "domin": 2511,
      "glo": 2512,
      "soft": 2513,
      "staet": 2514,
      "veroeffentlich": 2515,
      "least": 2516,
      "unterschiedlich": 2517,
      "education": 2518,
      "..": 2519,
      "fish": 2520,
      "engl": 2521,
      "medium": 2522,
      "privat": 2523,
      "railway": 2524,
      "recogn": 2525,
      "tim": 2526,
      "walk": 2527,
      "nel": 2528,
      "austri": 2529,
      "ille": 2530,
      "track": 2531,
      "pret": 2532,
      "oester": 2533,
      "initially": 2534,
      "agr": 2535,
      "ore": 2536,
      "taste": 2537,
      "glauben": 2538,
      "av": 2539,
      "aner": 2540,
      "estab": 2541,
      "situation": 2542,
      "cel": 2543,
      "gym": 2544,
      "hang": 2545,
      "dence": 2546,
      "normal": 2547,
      "bruder": 2548,
      "dadurch": 2549,
      "oes": 2550,
      "lam": 2551,
      "neigh": 2552,
      "sache": 2553,
      "avail": 2554,
      "gib": 2555,
      "kaum": 2556,
      "entire": 2557,
      "goal": 2558,
      "paint": 2559,
      "central": 2560,
      "autor": 2561,
      "verfue": 2562,
      "internet": 2563,
      "steller": 2564,
      "send": 2565,
      "sozial": 2566,
      "muen": 2567,
      "klaeren": 2568,
      "fangen": 2569,
      "setzung": 2570,
      "establish": 2571,
      "auge": 2572,
      "utt": 2573,
      "uecken": 2574,
      "council": 2575,
      "function": 2576,
      "neighbor": 2577,
      "hue": 2578,
      "ost": 2579,
      "anders": 2580,
      "shape": 2581,
      "particip": 2582,
      "purpose": 2583,
      "wit": 2584,
      "union": 2585,
      "proper": 2586,
      "passen": 2587,
      "publik": 2588,
      "measure": 2589,
      "apart": 2590,
      "natural": 2591,
      "currently": 2592,
      "fasst": 2593,
      "hann": 2594,
      "einsatz": 2595,
      "extre": 2596,
      "partner": 2597,
      "ski": 2598,
      "sun": 2599,
      "denk": 2600,
      "regard": 2601,
      "green": 2602,
      "christian": 2603,
      "oesterreich": 2604,
      "available": 2605,
      "deshalb": 2606,
      "piece": 2607,
      "photo": 2608,
      "bezir": 2609,
      "nas": 2610,
      "ried": 2611,
      "squ": 2612,
      "thus": 2613,
      "john": 2614,
      "structure": 2615,
      "italien": 2616,
      "mess": 2617,
      "decken": 2618,
      "finally": 2619,
      "helfen": 2620,
      "style": 2621,
      "action": 2622,
      "release": 2623,
      "mues": 2624,
      "aktiv": 2625,
      "government": 2626,
      "pper": 2627,
      "influ": 2628,
      "landes": 2629,
      "series": 2630,
      "wolf": 2631,
      "maschine": 2632,
      "steuer": 2633,
      "ification": 2634,
      "kirchen": 2635,
      "flow": 2636,
      "yes": 2637,
      "anne": 2638,
      "cade": 2639,
      "prue": 2640,
      "scheid": 2641,
      "teacher": 2642,
      "cell": 2643,
      "inte": 2644,
      "ilar": 2645,
      "kehren": 2646,
      "lieb": 2647,
      "product": 2648,
      "professor": 2649,
      "lehrer": 2650,
      "kuenstler": 2651,
      "vict": 2652,
      "zo": 2653,
      "icate": 2654,
      "matter": 2655,
      "mis": 2656,
      "mlich": 2657,
      "window": 2658,
      "subject": 2659,
      "connect": 2660,
      "schwarz": 2661,
      "saf": 2662,
      "atta": 2663,
      "ichten": 2664,
      "frequ": 2665,
      "zeichen": 2666,
      "bahnhof": 2667,
      "similar": 2668,
      "ace": 2669,
      "cam": 2670,
      "beginning": 2671,
      "enthalten": 2672,
      "prove": 2673,
      "quarter": 2674,
      "invest": 2675,
      "stab": 2676,
      "spit": 2677,
      "movie": 2678,
      "shoot": 2679,
      "erfolgreich": 2680,
      "saetzlich": 2681,
      "connection": 2682,
      "franzoes": 2683,
      "gor": 2684,
      "istisch": 2685,
      "cost": 2686,
      "code": 2687,
      "strument": 2688,
      "richtig": 2689,
      "certain": 2690,
      "oeffnen": 2691,
      "schlecht": 2692,
      "ehren": 2693,
      "ht": 2694,
      "rhein": 2695,
      "enty": 2696,
      "imin": 2697,
      "pression": 2698,
      "wann": 2699,
      "erscheinen": 2700,
      "mitt": 2701,
      "gast": 2702,
      "buy": 2703,
      "corre": 2704,
      "einzel": 2705,
      "fae": 2706,
      "stic": 2707,
      "haengen": 2708,
      "kreuz": 2709,
      "lou": 2710,
      "verla": 2711,
      "rain": 2712,
      "mail": 2713,
      "division": 2714,
      "phil": 2715,
      "experience": 2716,
      "stil": 2717,
      "them": 2718,
      "bestimmen": 2719,
      "ively": 2720,
      "solch": 2721,
      "store": 2722,
      "current": 2723,
      "stunde": 2724,
      "bestand": 2725,
      "hair": 2726,
      "haeng": 2727,
      "tax": 2728,
      "gelingen": 2729,
      "warten": 2730,
      "trotz": 2731,
      "bedeutung": 2732,
      "wohner": 2733,
      "third": 2734,
      "abo": 2735,
      "fail": 2736,
      "attle": 2737,
      "fragen": 2738,
      "schnitt": 2739,
      "occur": 2740,
      "instrument": 2741,
      "ged": 2742,
      "tower": 2743,
      "schliessend": 2744,
      "smo": 2745,
      "cook": 2746,
      "wait": 2747,
      "uebernehmen": 2748,
      "lands": 2749,
      "stens": 2750,
      "european": 2751,
      "honor": 2752,
      "yor": 2753,
      "anlage": 2754,
      "regen": 2755,
      "desp": 2756,
      "spir": 2757,
      "spend": 2758,
      "describe": 2759,
      "orient": 2760,
      "wiegen": 2761,
      "selves": 2762,
      "cide": 2763,
      "anzig": 2764,
      "draw": 2765,
      "science": 2766,
      "riere": 2767,
      "schme": 2768,
      "drink": 2769,
      "kampf": 2770,
      "sleep": 2771,
      "aendern": 2772,
      "web": 2773,
      "gern": 2774,
      "thank": 2775,
      "benennen": 2776,
      "brue": 2777,
      "partei": 2778,
      "mance": 2779,
      "bran": 2780,
      "standard": 2781,
      "ially": 2782,
      "anschliessend": 2783,
      "bein": 2784,
      "sondern": 2785,
      "month": 2786,
      "director": 2787,
      "zentrum": 2788,
      "bul": 2789,
      "scher": 2790,
      "secre": 2791,
      "kill": 2792,
      "dest": 2793,
      "veh": 2794,
      "rag": 2795,
      "duce": 2796,
      "perfor": 2797,
      "issue": 2798,
      "strassen": 2799,
      "london": 2800,
      "kloster": 2801,
      "ana": 2802,
      "lust": 2803,
      "garden": 2804,
      "multi": 2805,
      "bue": 2806,
      "dun": 2807,
      "mur": 2808,
      "wander": 2809,
      "fortun": 2810,
      "abri": 2811,
      "within": 2812,
      "municipality": 2813,
      "suppose": 2814,
      "urspruenglich": 2815,
      "ael": 2816,
      "agree": 2817,
      "regular": 2818,
      "deutsche": 2819,
      "police": 2820,
      "ny": 2821,
      "ror": 2822,
      "tar": 2823,
      "reiben": 2824,
      "handel": 2825,
      "besondere": 2826,
      "psych": 2827,
      "performance": 2828,
      "georg": 2829,
      "met": 2830,
      "god": 2831,
      "tritt": 2832,
      "famous": 2833,
      "full": 2834,
      "official": 2835,
      "eisen": 2836,
      "leiden": 2837,
      "traffic": 2838,
      "past": 2839,
      "monat": 2840,
      "pendent": 2841,
      "population": 2842,
      "fuehrung": 2843,
      "vehicle": 2844,
      "waf": 2845,
      "ney": 2846,
      "jose": 2847,
      "ior": 2848,
      "mad": 2849,
      "einigen": 2850,
      "aehnlich": 2851,
      "dia": 2852,
      "liste": 2853,
      "cry": 2854,
      "eher": 2855,
      "pfen": 2856,
      "warm": 2857,
      "mist": 2858,
      "rate": 2859,
      "wish": 2860,
      "anfang": 2861,
      "rather": 2862,
      "lack": 2863,
      "faellen": 2864,
      "finanz": 2865,
      "worth": 2866,
      "pflan": 2867,
      "alternat": 2868,
      "manchmal": 2869,
      "fro": 2870,
      "stau": 2871,
      "besuchen": 2872,
      "army": 2873,
      "verse": 2874,
      "artist": 2875,
      "komple": 2876,
      "sonnen": 2877,
      "enga": 2878,
      "itself": 2879,
      "habit": 2880,
      "race": 2881,
      "got": 2882,
      "sense": 2883,
      "burger": 2884,
      "anymore": 2885,
      "symb": 2886,
      "american": 2887,
      "alex": 2888,
      "einsetzen": 2889,
      "finish": 2890,
      "foto": 2891,
      "blaet": 2892,
      "journal": 2893,
      "themselves": 2894,
      "ah": 2895,
      "ain": 2896,
      "wid": 2897,
      "bron": 2898,
      "icken": 2899,
      "critic": 2900,
      "deck": 2901,
      "loes": 2902,
      "bury": 2903,
      "bisher": 2904,
      "waehlen": 2905,
      "idea": 2906,
      "braun": 2907,
      "letzte": 2908,
      "administr": 2909,
      "hans": 2910,
      "ume": 2911,
      "dead": 2912,
      "lock": 2913,
      "krie": 2914,
      "ymp": 2915,
      "protect": 2916,
      "expect": 2917,
      "aden": 2918,
      "dach": 2919,
      "fung": 2920,
      "ox": 2921,
      "pel": 2922,
      "stage": 2923,
      "beschae": 2924,
      "ica": 2925,
      "ted": 2926,
      "custom": 2927,
      "table": 2928,
      "bruch": 2929,
      "baden": 2930,
      "sprech": 2931,
      "personal": 2932,
      "twenty": 2933,
      "difficult": 2934,
      "influence": 2935,
      "tten": 2936,
      "strom": 2937,
      "interest": 2938,
      "volks": 2939,
      "themat": 2940,
      "soph": 2941,
      "neut": 2942,
      "sted": 2943,
      "merk": 2944,
      "damals": 2945,
      "kunft": 2946,
      "floor": 2947,
      "baby": 2948,
      "mix": 2949,
      "flaeche": 2950,
      "enge": 2951,
      "deal": 2952,
      "hafen": 2953,
      "netz": 2954,
      "promo": 2955,
      "voel": 2956,
      "vogel": 2957,
      "wilhelm": 2958,
      "geist": 2959,
      "decide": 2960,
      "ention": 2961,
      "suit": 2962,
      "jeweil": 2963,
      "political": 2964,
      "wise": 2965,
      "zz": 2966,
      "rely": 2967,
      "auer": 2968,
      "path": 2969,
      "malig": 2970,
      "married": 2971,
      "bute": 2972,
      "gleichzeitig": 2973,
      "gemeinsam": 2974,
      "mind": 2975,
      "sea": 2976,
      "adel": 2977,
      "unterstue": 2978,
      "grenze": 2979,
      "symbol": 2980,
      "ea": 2981,
      "kultur": 2982,
      "uhr": 2983,
      "inken": 2984,
      "bewer": 2985,
      "ross": 2986,
      "ceed": 2987,
      "abhaeng": 2988,
      "offiz": 2989,
      "relation": 2990,
      "apply": 2991,
      "responsible": 2992,
      "faehr": 2993,
      "pas": 2994,
      "versuch": 2995,
      "immedi": 2996,
      "maga": 2997,
      "quite": 2998,
      "ulture": 2999,
      "daneben": 3000,
      "fully": 3001,
      "klin": 3002,
      "sion": 3003,
      "watch": 3004,
      "landwirtschaft": 3005,
      "grab": 3006,
      "sprach": 3007,
      "daraufhin": 3008,
      "championship": 3009,
      "depend": 3010,
      "department": 3011,
      "meth": 3012,
      "sogar": 3013,
      "prise": 3014,
      "johann": 3015,
      "clean": 3016,
      "maybe": 3017,
      "cat": 3018,
      "rue": 3019,
      "chair": 3020,
      "mes": 3021,
      "hop": 3022,
      "perform": 3023,
      "vien": 3024,
      "gust": 3025,
      "scient": 3026,
      "tet": 3027,
      "usion": 3028,
      "protest": 3029,
      "provide": 3030,
      "karriere": 3031,
      "farm": 3032,
      "eigene": 3033,
      "glich": 3034,
      "derung": 3035,
      "itar": 3036,
      "produktion": 3037,
      "york": 3038,
      "pict": 3039,
      "doctor": 3040,
      "philo": 3041,
      "weitere": 3042,
      "direction": 3043,
      "electric": 3044,
      "militaer": 3045,
      "necessary": 3046,
      "clim": 3047,
      "kro": 3048,
      "zerst": 3049,
      "stur": 3050,
      "olymp": 3051,
      "achie": 3052,
      "selten": 3053,
      "nature": 3054,
      "legal": 3055,
      "verbindung": 3056,
      "quer": 3057,
      "sold": 3058,
      "wife": 3059,
      "log": 3060,
      "subst": 3061,
      "hinaus": 3062,
      "gegenueber": 3063,
      "insbesondere": 3064,
      "ehemalig": 3065,
      "fisch": 3066,
      "jen": 3067,
      "eler": 3068,
      "mend": 3069,
      "nacht": 3070,
      "saison": 3071,
      "size": 3072,
      "link": 3073,
      "kleine": 3074,
      "zwanzig": 3075,
      "petition": 3076,
      "bridge": 3077,
      "glass": 3078,
      "slow": 3079,
      "inten": 3080,
      "beha": 3081,
      "aussen": 3082,
      "verge": 3083,
      "izieren": 3084,
      "iction": 3085,
      "private": 3086,
      "picture": 3087,
      "bisch": 3088,
      "gner": 3089,
      "schl": 3090,
      "tact": 3091,
      "macht": 3092,
      "schnell": 3093,
      "entwicklung": 3094,
      "erweise": 3095,
      "umen": 3096,
      "user": 3097,
      "arbeiter": 3098,
      "alley": 3099,
      "leider": 3100,
      "risk": 3101,
      "ms": 3102,
      "geo": 3103,
      "wei": 3104,
      "wes": 3105,
      "boe": 3106,
      "anyone": 3107,
      "schweiz": 3108,
      "professional": 3109,
      "attend": 3110,
      "verbre": 3111,
      "haelt": 3112,
      "gency": 3113,
      "previ": 3114,
      "geln": 3115,
      "fred": 3116,
      "trainer": 3117,
      "software": 3118,
      "correct": 3119,
      "voelker": 3120,
      "achieve": 3121,
      "mig": 3122,
      "pse": 3123,
      "erkennen": 3124,
      "erinner": 3125,
      "thema": 3126,
      "leiten": 3127,
      "happ": 3128,
      "lay": 3129,
      "herum": 3130,
      "lieben": 3131,
      "focus": 3132,
      "marry": 3133,
      "treat": 3134,
      "location": 3135,
      "abend": 3136,
      "rand": 3137,
      "report": 3138,
      "rae": 3139,
      "takt": 3140,
      "bay": 3141,
      "surround": 3142,
      "shop": 3143,
      "video": 3144,
      "leistung": 3145,
      "attack": 3146,
      "cold": 3147,
      "hom": 3148,
      "junge": 3149,
      "slo": 3150,
      "verband": 3151,
      "hae": 3152,
      "ush": 3153,
      "antwort": 3154,
      "wieso": 3155,
      "join": 3156,
      "wrong": 3157,
      "erei": 3158,
      "analy": 3159,
      "camp": 3160,
      "heat": 3161,
      "laden": 3162,
      "notice": 3163,
      "blau": 3164,
      "burn": 3165,
      "linie": 3166,
      "ological": 3167,
      "secret": 3168,
      "bom": 3169,
      "gal": 3170,
      "sax": 3171,
      "kommun": 3172,
      "switch": 3173,
      "vari": 3174,
      "tourist": 3175,
      "ception": 3176,
      "economic": 3177,
      "ax": 3178,
      "dim": 3179,
      "yel": 3180,
      "anken": 3181,
      "wider": 3182,
      "letter": 3183,
      "bedeuten": 3184,
      "bio": 3185,
      "fliegen": 3186,
      "sla": 3187,
      "schre": 3188,
      "verbinden": 3189,
      "teilung": 3190,
      "northern": 3191,
      "ganze": 3192,
      "weiterhin": 3193,
      "zeugen": 3194,
      "wine": 3195,
      "yal": 3196,
      "errichten": 3197,
      "veranst": 3198,
      "match": 3199,
      "brown": 3200,
      "visit": 3201,
      "cert": 3202,
      "kunde": 3203,
      "signal": 3204,
      "veroeffentlichen": 3205,
      "dol": 3206,
      "projekt": 3207,
      "daran": 3208,
      "value": 3209,
      "estlich": 3210,
      "college": 3211,
      "either": 3212,
      "zip": 3213,
      "recent": 3214,
      "ingly": 3215,
      "ford": 3216,
      "appl": 3217,
      "integr": 3218,
      "above": 3219,
      "stecken": 3220,
      "conf": 3221,
      "true": 3222,
      "flor": 3223,
      "festival": 3224,
      "russian": 3225,
      "dal": 3226,
      "gent": 3227,
      "jul": 3228,
      "wendung": 3229,
      "zimmer": 3230,
      "tha": 3231,
      "resi": 3232,
      "towards": 3233,
      "exten": 3234,
      "krat": 3235,
      "disc": 3236,
      "langsam": 3237,
      "kaiser": 3238,
      "westlich": 3239,
      "exactly": 3240,
      "method": 3241,
      "zersto": 3242,
      "ather": 3243,
      "ude": 3244,
      "stick": 3245,
      "besuch": 3246,
      "unce": 3247,
      "heits": 3248,
      "wear": 3249,
      "dark": 3250,
      "leader": 3251,
      "klasse": 3252,
      "itzer": 3253,
      "din": 3254,
      "wart": 3255,
      "anno": 3256,
      "health": 3257,
      "zess": 3258,
      "willi": 3259,
      "studium": 3260,
      "turm": 3261,
      "planet": 3262,
      "southern": 3263,
      "schauspieler": 3264,
      "bird": 3265,
      "kaemp": 3266,
      "extrem": 3267,
      "gesetz": 3268,
      "aufgabe": 3269,
      "bereiten": 3270,
      "basis": 3271,
      "fut": 3272,
      "oil": 3273,
      "heav": 3274,
      "achten": 3275,
      "hope": 3276,
      "doc": 3277,
      "stets": 3278,
      "ruhe": 3279,
      "fekt": 3280,
      "nachbar": 3281,
      "independent": 3282,
      "modell": 3283,
      "industry": 3284,
      "martin": 3285,
      "gir": 3286,
      "isse": 3287,
      "spot": 3288,
      "sommer": 3289,
      "ausge": 3290,
      "favor": 3291,
      "bass": 3292,
      "civil": 3293,
      "speed": 3294,
      "zahlen": 3295,
      "distri": 3296,
      "hausen": 3297,
      "astery": 3298,
      "heut": 3299,
      "entsprechen": 3300,
      "verwaltung": 3301,
      "bezirk": 3302,
      "iell": 3303,
      "section": 3304,
      "vermut": 3305,
      "vertrag": 3306,
      "prevent": 3307,
      "scheinlich": 3308,
      "fit": 3309,
      "wing": 3310,
      "brief": 3311,
      "deutlich": 3312,
      "fuehlen": 3313,
      "solche": 3314,
      "foundation": 3315,
      "fortunately": 3316,
      "china": 3317,
      "geba": 3318,
      "total": 3319,
      "weich": 3320,
      "irt": 3321,
      "ulate": 3322,
      "appoint": 3323,
      "access": 3324,
      "chron": 3325,
      "block": 3326,
      "frankfurt": 3327,
      "wahrscheinlich": 3328,
      "golden": 3329,
      "ado": 3330,
      "hur": 3331,
      "arme": 3332,
      "rid": 3333,
      "gerne": 3334,
      "ueberhaupt": 3335,
      "regierung": 3336,
      "friedhof": 3337,
      "tief": 3338,
      "saint": 3339,
      "englisch": 3340,
      "nein": 3341,
      "pian": 3342,
      "uell": 3343,
      "iler": 3344,
      "divide": 3345,
      "fenster": 3346,
      "monastery": 3347,
      "share": 3348,
      "gieren": 3349,
      "wide": 3350,
      "blut": 3351,
      "issig": 3352,
      "altung": 3353,
      "karte": 3354,
      "tempor": 3355,
      "japan": 3356,
      "recognize": 3357,
      "wesentlich": 3358,
      "sell": 3359,
      "ino": 3360,
      "gew": 3361,
      "ausbildung": 3362,
      "orts": 3363,
      "cident": 3364,
      "spec": 3365,
      "listen": 3366,
      "irgendwie": 3367,
      "couple": 3368,
      "mittler": 3369,
      "gun": 3370,
      "pfer": 3371,
      "isierung": 3372,
      "destro": 3373,
      "sowohl": 3374,
      "forget": 3375,
      "aufgrund": 3376,
      "suffer": 3377,
      "reihe": 3378,
      "check": 3379,
      "rechts": 3380,
      "operate": 3381,
      "separate": 3382,
      "ager": 3383,
      "tue": 3384,
      "arz": 3385,
      "det": 3386,
      "zept": 3387,
      "counter": 3388,
      "feature": 3389,
      "interpret": 3390,
      "england": 3391,
      "klass": 3392,
      "broad": 3393,
      "heinrich": 3394,
      "activity": 3395,
      "iko": 3396,
      "pull": 3397,
      "valley": 3398,
      "leu": 3399,
      "ural": 3400,
      "socie": 3401,
      "ruecken": 3402,
      "practice": 3403,
      "task": 3404,
      "beweg": 3405,
      "ley": 3406,
      "sec": 3407,
      "seh": 3408,
      "meer": 3409,
      "youth": 3410,
      "strate": 3411,
      "krank": 3412,
      "particularly": 3413,
      "double": 3414,
      "immediately": 3415,
      "dwig": 3416,
      "besi": 3417,
      "save": 3418,
      "selben": 3419,
      "ordin": 3420,
      "solution": 3421,
      "erklaeren": 3422,
      "versta": 3423,
      "radi": 3424,
      "condition": 3425,
      "contract": 3426,
      "grave": 3427,
      "million": 3428,
      "temperature": 3429,
      "fertigen": 3430,
      "document": 3431,
      "verlassen": 3432,
      "ded": 3433,
      "mathemat": 3434,
      "steil": 3435,
      "trade": 3436,
      "polize": 3437,
      "guy": 3438,
      "magnet": 3439,
      "klaren": 3440,
      "franzoesisch": 3441,
      "administrative": 3442,
      "besides": 3443,
      "mechan": 3444,
      "westen": 3445,
      "mot": 3446,
      "coat": 3447,
      "ftig": 3448,
      "assist": 3449,
      "following": 3450,
      "falsch": 3451,
      "schiessen": 3452,
      "ehr": 3453,
      "fein": 3454,
      "ply": 3455,
      "tan": 3456,
      "verfahren": 3457,
      "stron": 3458,
      "tempt": 3459,
      "princi": 3460,
      "lit": 3461,
      "suche": 3462,
      "explain": 3463,
      "ftigen": 3464,
      "struktur": 3465,
      "furthermore": 3466,
      "cru": 3467,
      "sof": 3468,
      "zone": 3469,
      "chor": 3470,
      "benut": 3471,
      "amo": 3472,
      "allgemein": 3473,
      "fordern": 3474,
      "salz": 3475,
      "regelmaessig": 3476,
      "british": 3477,
      "settlement": 3478,
      "derzeit": 3479,
      "bezeichnung": 3480,
      "atory": 3481,
      "vorher": 3482,
      "merken": 3483,
      "musical": 3484,
      "gress": 3485,
      "approach": 3486,
      "abhaengig": 3487,
      "icy": 3488,
      "noerd": 3489,
      "gering": 3490,
      "mas": 3491,
      "nice": 3492,
      "bevoelker": 3493,
      "isa": 3494,
      "ray": 3495,
      "western": 3496,
      "hot": 3497,
      "france": 3498,
      "monument": 3499,
      "network": 3500,
      "politisch": 3501,
      "figur": 3502,
      "equip": 3503,
      "faeh": 3504,
      "leip": 3505,
      "tot": 3506,
      "deep": 3507,
      "determ": 3508,
      "host": 3509,
      "exc": 3510,
      "outside": 3511,
      "grad": 3512,
      "spekt": 3513,
      "zweif": 3514,
      "anyway": 3515,
      "fahrzeug": 3516,
      "gebaeren": 3517,
      "determine": 3518,
      "ki": 3519,
      "thom": 3520,
      "atic": 3521,
      "vertreten": 3522,
      "veget": 3523,
      "lagen": 3524,
      "travel": 3525,
      "etigen": 3526,
      "earth": 3527,
      "stral": 3528,
      "baro": 3529,
      "digital": 3530,
      "protection": 3531,
      "directly": 3532,
      "nu": 3533,
      "sdorf": 3534,
      "left": 3535,
      "schra": 3536,
      "defen": 3537,
      "geraet": 3538,
      "pair": 3539,
      "plate": 3540,
      "aka": 3541,
      "throw": 3542,
      "seitdem": 3543,
      "driver": 3544,
      "glas": 3545,
      "fehler": 3546,
      "cate": 3547,
      "sweise": 3548,
      "wild": 3549,
      "enk": 3550,
      "geber": 3551,
      "las": 3552,
      "cemeter": 3553,
      "moder": 3554,
      "preserve": 3555,
      "gradu": 3556,
      "damage": 3557,
      "schueler": 3558,
      "horse": 3559,
      "girl": 3560,
      "cemetery": 3561,
      "vieren": 3562,
      "heben": 3563,
      "iron": 3564,
      "dopp": 3565,
      "riage": 3566,
      "cathol": 3567,
      "accept": 3568,
      "generation": 3569,
      "amera": 3570,
      "subsequ": 3571,
      "michael": 3572,
      "society": 3573,
      "noerdlich": 3574,
      "pin": 3575,
      "ense": 3576,
      "invol": 3577,
      "beit": 3578,
      "replace": 3579,
      "rufen": 3580,
      "nahe": 3581,
      "pflicht": 3582,
      "johan": 3583,
      "gruen": 3584,
      "pressure": 3585,
      "schwier": 3586,
      "flower": 3587,
      "bedeutend": 3588,
      "supply": 3589,
      "authority": 3590,
      "province": 3591,
      "yellow": 3592,
      "iat": 3593,
      "sth": 3594,
      "ika": 3595,
      "viol": 3596,
      "gruenden": 3597,
      "flag": 3598,
      "kriegs": 3599,
      "decision": 3600,
      "manufact": 3601,
      "farbe": 3602,
      "kern": 3603,
      "mine": 3604,
      "thous": 3605,
      "beer": 3606,
      "sex": 3607,
      "entfer": 3608,
      "ada": 3609,
      "hindern": 3610,
      "akter": 3611,
      "schuss": 3612,
      "charge": 3613,
      "ussion": 3614,
      "restaur": 3615,
      "hilfe": 3616,
      "hne": 3617,
      "zine": 3618,
      "reise": 3619,
      "respect": 3620,
      "wash": 3621,
      "actor": 3622,
      "medizin": 3623,
      "frucht": 3624,
      "destroy": 3625,
      "leipzig": 3626,
      "thousand": 3627,
      "beenden": 3628,
      "heart": 3629,
      "hotel": 3630,
      "siv": 3631,
      "evangel": 3632,
      "demand": 3633,
      "difference": 3634,
      "iver": 3635,
      "ias": 3636,
      "othe": 3637,
      "entr": 3638,
      "nobody": 3639,
      "extra": 3640,
      "selbe": 3641,
      "firma": 3642,
      "attention": 3643,
      "munich": 3644,
      "nummer": 3645,
      "owner": 3646,
      "catholic": 3647,
      "dank": 3648,
      "ohr": 3649,
      "stal": 3650,
      "ond": 3651,
      "termin": 3652,
      "feed": 3653,
      "exe": 3654,
      "brun": 3655,
      "ernst": 3656,
      "provinz": 3657,
      "avo": 3658,
      "mir": 3659,
      "stae": 3660,
      "stift": 3661,
      "ress": 3662,
      "orche": 3663,
      "august": 3664,
      "genannt": 3665,
      "ruf": 3666,
      "folger": 3667,
      "arbeits": 3668,
      "praegen": 3669,
      "representative": 3670,
      "temperatur": 3671,
      "fliessen": 3672,
      "whether": 3673,
      "sammlung": 3674,
      "gymnas": 3675,
      "loesung": 3676,
      "sus": 3677,
      "isation": 3678,
      "verte": 3679,
      "verlaufen": 3680,
      "feier": 3681,
      "president": 3682,
      "serious": 3683,
      "stream": 3684,
      "organization": 3685,
      "industrie": 3686,
      "tauch": 3687,
      "unfortunately": 3688,
      "umb": 3689,
      "kompon": 3690,
      "sym": 3691,
      "konstru": 3692,
      "simple": 3693,
      "horn": 3694,
      "fuehrer": 3695,
      "grenzen": 3696,
      "primarily": 3697,
      "hell": 3698,
      "wue": 3699,
      "betra": 3700,
      "republic": 3701,
      "kathol": 3702,
      "drehen": 3703,
      "birth": 3704,
      "choose": 3705,
      "gon": 3706,
      "wus": 3707,
      "note": 3708,
      "blood": 3709,
      "mrs": 3710,
      "multiple": 3711,
      "vienna": 3712,
      "dish": 3713,
      "sar": 3714,
      "erung": 3715,
      "recom": 3716,
      "berger": 3717,
      "ausend": 3718,
      "contra": 3719,
      "appar": 3720,
      "bud": 3721,
      "ckey": 3722,
      "schritt": 3723,
      "bundesliga": 3724,
      "iculture": 3725,
      "magazine": 3726,
      "vergessen": 3727,
      "ake": 3728,
      "oel": 3729,
      "pick": 3730,
      "zwo": 3731,
      "thur": 3732,
      "atom": 3733,
      "leitung": 3734,
      "andid": 3735,
      "ico": 3736,
      "hervor": 3737,
      "fine": 3738,
      "trennen": 3739,
      "cket": 3740,
      "stimme": 3741,
      "technology": 3742,
      "stamm": 3743,
      "dauern": 3744,
      "cultur": 3745,
      "thirty": 3746,
      "schmecken": 3747,
      "gung": 3748,
      "ledge": 3749,
      "vertre": 3750,
      "degree": 3751,
      "labor": 3752,
      "sert": 3753,
      "bution": 3754,
      "firm": 3755,
      "talent": 3756,
      "writer": 3757,
      "ays": 3758,
      "patient": 3759,
      "craft": 3760,
      "energy": 3761,
      "involve": 3762,
      "bart": 3763,
      "pfe": 3764,
      "sort": 3765,
      "derselbe": 3766,
      "staf": 3767,
      "alog": 3768,
      "image": 3769,
      "abge": 3770,
      "competition": 3771,
      "bag": 3772,
      "ludwig": 3773,
      "musst": 3774,
      "kranken": 3775,
      "dry": 3776,
      "movement": 3777,
      "varian": 3778,
      "sorgen": 3779,
      "sprung": 3780,
      "wirkung": 3781,
      "constit": 3782,
      "religion": 3783,
      "gymnasium": 3784,
      "aender": 3785,
      "battle": 3786,
      "eck": 3787,
      "ider": 3788,
      "unit": 3789,
      "afric": 3790,
      "iller": 3791,
      "blatt": 3792,
      "hauptsaechlich": 3793,
      "charakter": 3794,
      "limit": 3795,
      "participate": 3796,
      "gau": 3797,
      "jump": 3798,
      "vid": 3799,
      "dritt": 3800,
      "prakt": 3801,
      "zaehl": 3802,
      "schuetzen": 3803,
      "branch": 3804,
      "bs": 3805,
      "somit": 3806,
      "neh": 3807,
      "load": 3808,
      "hood": 3809,
      "zusaetzlich": 3810,
      "condu": 3811,
      "commer": 3812,
      "libr": 3813,
      "maria": 3814,
      "bling": 3815,
      "blind": 3816,
      "spezial": 3817,
      "flat": 3818,
      "dreissig": 3819,
      "technik": 3820,
      "fruit": 3821,
      "range": 3822,
      "zue": 3823,
      "einfluss": 3824,
      "serie": 3825,
      "passieren": 3826,
      "experiment": 3827,
      "existieren": 3828,
      "collection": 3829,
      "fussball": 3830,
      "wurf": 3831,
      "austria": 3832,
      "bib": 3833,
      "kne": 3834,
      "bett": 3835,
      "ona": 3836,
      "unk": 3837,
      "fac": 3838,
      "trick": 3839,
      "paper": 3840,
      "prison": 3841,
      "produkt": 3842,
      "surface": 3843,
      "praesident": 3844,
      "recommend": 3845,
      "inzwischen": 3846,
      "bed": 3847,
      "beat": 3848,
      "refle": 3849,
      "tomor": 3850,
      "illa": 3851,
      "wetter": 3852,
      "contact": 3853,
      "marriage": 3854,
      "idel": 3855,
      "disk": 3856,
      "flight": 3857,
      "mittelalter": 3858,
      "kirch": 3859,
      "technical": 3860,
      "occas": 3861,
      "europae": 3862,
      "property": 3863,
      "tomorrow": 3864,
      "phe": 3865,
      "cham": 3866,
      "faellig": 3867,
      "nav": 3868,
      "liament": 3869,
      "parliament": 3870,
      "edge": 3871,
      "across": 3872,
      "ordnung": 3873,
      "gebnis": 3874,
      "literatur": 3875,
      "suedlich": 3876,
      "citi": 3877,
      "fat": 3878,
      "mic": 3879,
      "vit": 3880,
      "gebur": 3881,
      "roof": 3882,
      "bene": 3883,
      "lower": 3884,
      "brennen": 3885,
      "otto": 3886,
      "gemeinschaft": 3887,
      "distance": 3888,
      "shortly": 3889,
      "officer": 3890,
      "administration": 3891,
      "batter": 3892,
      "cultural": 3893,
      "citizen": 3894,
      "fif": 3895,
      "rang": 3896,
      "arab": 3897,
      "uten": 3898,
      "meine": 3899,
      "originally": 3900,
      "collect": 3901,
      "spruch": 3902,
      "polizei": 3903,
      "gart": 3904,
      "lic": 3905,
      "nik": 3906,
      "tie": 3907,
      "urer": 3908,
      "genug": 3909,
      "mention": 3910,
      "somehow": 3911,
      "handlung": 3912,
      "correspon": 3913,
      "heimat": 3914,
      "gibt": 3915,
      "muenchen": 3916,
      "despite": 3917,
      "avoid": 3918,
      "pul": 3919,
      "stutt": 3920,
      "lager": 3921,
      "gene": 3922,
      "chtig": 3923,
      "ordnen": 3924,
      "balance": 3925,
      "drop": 3926,
      "restaurant": 3927,
      "tum": 3928,
      "anger": 3929,
      "attempt": 3930,
      "audi": 3931,
      "detail": 3932,
      "consequ": 3933,
      "plement": 3934,
      "intro": 3935,
      "insgesamt": 3936,
      "bloss": 3937,
      "phys": 3938,
      "forschung": 3939,
      "benutzen": 3940,
      "jer": 3941,
      "pit": 3942,
      "ola": 3943,
      "wohnen": 3944,
      "print": 3945,
      "druecken": 3946,
      "hinzu": 3947,
      "dress": 3948,
      "historical": 3949,
      "management": 3950,
      "journalist": 3951,
      "sprechend": 3952,
      "erinnern": 3953,
      "happy": 3954,
      "dut": 3955,
      "besitz": 3956,
      "verme": 3957,
      "vergleich": 3958,
      "spie": 3959,
      "advert": 3960,
      "thereby": 3961,
      "egg": 3962,
      "zentr": 3963,
      "innerhalb": 3964,
      "literature": 3965,
      "employ": 3966,
      "amerikan": 3967,
      "zerstoeren": 3968,
      "sister": 3969,
      "engel": 3970,
      "chance": 3971,
      "theless": 3972,
      "beteil": 3973,
      "seits": 3974,
      "dessen": 3975,
      "haar": 3976,
      "weile": 3977,
      "weather": 3978,
      "aufnahme": 3979,
      "copy": 3980,
      "gelegen": 3981,
      "answer": 3982,
      "plane": 3983,
      "figure": 3984,
      "industri": 3985,
      "fill": 3986,
      "revol": 3987,
      "wien": 3988,
      "grie": 3989,
      "ikation": 3990,
      "otherwise": 3991,
      "teilweise": 3992,
      "ologisch": 3993,
      "eltig": 3994,
      "einzeln": 3995,
      "glueck": 3996,
      "kennt": 3997,
      "joseph": 3998,
      "kaempfen": 3999,
      "library": 4000,
      "dit": 4001,
      "rede": 4002,
      "reform": 4003,
      "device": 4004,
      "hem": 4005,
      "novel": 4006,
      "boot": 4007,
      "gela": 4008,
      "nowad": 4009,
      "graben": 4010,
      "colog": 4011,
      "zahn": 4012,
      "occup": 4013,
      "scientific": 4014,
      "dung": 4015,
      "dance": 4016,
      "rau": 4017,
      "rennen": 4018,
      "zel": 4019,
      "royal": 4020,
      "verhalten": 4021,
      "prepare": 4022,
      "bell": 4023,
      "volk": 4024,
      "stimm": 4025,
      "statten": 4026,
      "qualif": 4027,
      "naehe": 4028,
      "significant": 4029,
      "bronze": 4030,
      "future": 4031,
      "nowadays": 4032,
      "bier": 4033,
      "gift": 4034,
      "hib": 4035,
      "kit": 4036,
      "raus": 4037,
      "zit": 4038,
      "touch": 4039,
      "robert": 4040,
      "hagen": 4041,
      "compo": 4042,
      "trinken": 4043,
      "price": 4044,
      "newspa": 4045,
      "display": 4046,
      "institution": 4047,
      "arrange": 4048,
      "alternative": 4049,
      "jeweils": 4050,
      "apparently": 4051,
      "newspaper": 4052,
      "prozess": 4053,
      "norden": 4054,
      "painting": 4055,
      "muesste": 4056,
      "rise": 4057,
      "sl": 4058,
      "vive": 4059,
      "chap": 4060,
      "motiv": 4061,
      "poor": 4062,
      "quelle": 4063,
      "laub": 4064,
      "resist": 4065,
      "gesund": 4066,
      "football": 4067,
      "pom": 4068,
      "ena": 4069,
      "neur": 4070,
      "wappen": 4071,
      "bottle": 4072,
      "editor": 4073,
      "tunnel": 4074,
      "possib": 4075,
      "armee": 4076,
      "zwoelf": 4077,
      "ida": 4078,
      "mou": 4079,
      "twel": 4080,
      "female": 4081,
      "groesse": 4082,
      "zeitung": 4083,
      "breit": 4084,
      "meistens": 4085,
      "brow": 4086,
      "herrschaft": 4087,
      "moeglichkeit": 4088,
      "spring": 4089,
      "foerdern": 4090,
      "bewegung": 4091,
      "verteid": 4092,
      "catch": 4093,
      "hill": 4094,
      "ither": 4095,
      "sieg": 4096,
      "inen": 4097,
      "schlue": 4098,
      "dennoch": 4099,
      "content": 4100,
      "stuhl": 4101,
      "okay": 4102,
      "schlafen": 4103,
      "generally": 4104,
      "guest": 4105,
      "fernseh": 4106,
      "occasion": 4107,
      "bol": 4108,
      "disch": 4109,
      "nar": 4110,
      "wuen": 4111,
      "reserve": 4112,
      "rap": 4113,
      "ierte": 4114,
      "adv": 4115,
      "lug": 4116,
      "studio": 4117,
      "ength": 4118,
      "gehend": 4119,
      "vention": 4120,
      "springen": 4121,
      "offenbar": 4122,
      "siedlung": 4123,
      "engage": 4124,
      "eastern": 4125,
      "principle": 4126,
      "hibition": 4127,
      "hoff": 4128,
      "sli": 4129,
      "ara": 4130,
      "geno": 4131,
      "hockey": 4132,
      "ference": 4133,
      "install": 4134,
      "schuld": 4135,
      "transfer": 4136,
      "frankreich": 4137,
      "leisten": 4138,
      "jury": 4139,
      "rechnen": 4140,
      "agriculture": 4141,
      "scheidung": 4142,
      "william": 4143,
      "nehmer": 4144,
      "bauch": 4145,
      "bill": 4146,
      "orange": 4147,
      "gesche": 4148,
      "hoehe": 4149,
      "contri": 4150,
      "rupt": 4151,
      "woe": 4152,
      "interess": 4153,
      "voellig": 4154,
      "additionally": 4155,
      "expert": 4156,
      "trauen": 4157,
      "claim": 4158,
      "sofort": 4159,
      "bibli": 4160,
      "mie": 4161,
      "inhabit": 4162,
      "stich": 4163,
      "wesen": 4164,
      "menge": 4165,
      "sele": 4166,
      "clock": 4167,
      "hardly": 4168,
      "loud": 4169,
      "inside": 4170,
      "austral": 4171,
      "ssion": 4172,
      "neg": 4173,
      "forn": 4174,
      "aufnehmen": 4175,
      "coach": 4176,
      "mond": 4177,
      "mont": 4178,
      "konzer": 4179,
      "smart": 4180,
      "airport": 4181,
      "statement": 4182,
      "agent": 4183,
      "profit": 4184,
      "seitig": 4185,
      "schwester": 4186,
      "physi": 4187,
      "korre": 4188,
      "kindergarten": 4189,
      "arzt": 4190,
      "entfernen": 4191,
      "entrance": 4192,
      "lord": 4193,
      "beam": 4194,
      "remember": 4195,
      "itten": 4196,
      "ikel": 4197,
      "tele": 4198,
      "bike": 4199,
      "screen": 4200,
      "komplett": 4201,
      "beschaeftigen": 4202,
      "relationship": 4203,
      "ode": 4204,
      "pup": 4205,
      "inform": 4206,
      "ald": 4207,
      "orie": 4208,
      "gewae": 4209,
      "spread": 4210,
      "luther": 4211,
      "liber": 4212,
      "news": 4213,
      "fleisch": 4214,
      "trotzdem": 4215,
      "pflanze": 4216,
      "chine": 4217,
      "beck": 4218,
      "unden": 4219,
      "rose": 4220,
      "spell": 4221,
      "traum": 4222,
      "esent": 4223,
      "italian": 4224,
      "dream": 4225,
      "survive": 4226,
      "nevertheless": 4227,
      "letzter": 4228,
      "stuttgart": 4229,
      "twelve": 4230,
      "pi": 4231,
      "united": 4232,
      "gewicht": 4233,
      "wett": 4234,
      "spur": 4235,
      "prom": 4236,
      "vorhand": 4237,
      "portug": 4238,
      "object": 4239,
      "hoehen": 4240,
      "absolut": 4241,
      "hir": 4242,
      "oid": 4243,
      "pole": 4244,
      "perman": 4245,
      "joy": 4246,
      "cream": 4247,
      "praesent": 4248,
      "morning": 4249,
      "sachsen": 4250,
      "medal": 4251,
      "mistake": 4252,
      "slowly": 4253,
      "bischof": 4254,
      "bevoelkerung": 4255,
      "rauch": 4256,
      "bezie": 4257,
      "spro": 4258,
      "maenn": 4259,
      "herself": 4260,
      "bayer": 4261,
      "landschaft": 4262,
      "marine": 4263,
      "bility": 4264,
      "politik": 4265,
      "silver": 4266,
      "easily": 4267,
      "pilot": 4268,
      "satell": 4269,
      "bruecke": 4270,
      "passt": 4271,
      "hide": 4272,
      "iforn": 4273,
      "behoer": 4274,
      "verz": 4275,
      "weder": 4276,
      "laend": 4277,
      "ima": 4278,
      "allel": 4279,
      "ably": 4280,
      "ausschliesslich": 4281,
      "deutschen": 4282,
      "beginn": 4283,
      "herrschen": 4284,
      "kuehl": 4285,
      "amount": 4286,
      "vorhanden": 4287,
      "ergebnis": 4288,
      "beding": 4289,
      "kochen": 4290,
      "committe": 4291,
      "angr": 4292,
      "sely": 4293,
      "jack": 4294,
      "scri": 4295,
      "zielen": 4296,
      "leihen": 4297,
      "facility": 4298,
      "rig": 4299,
      "tv": 4300,
      "inn": 4301,
      "reissen": 4302,
      "lev": 4303,
      "nose": 4304,
      "wave": 4305,
      "dure": 4306,
      "bour": 4307,
      "frue": 4308,
      "greifen": 4309,
      "begru": 4310,
      "memory": 4311,
      "twice": 4312,
      "institute": 4313,
      "funktionieren": 4314,
      "cum": 4315,
      "dres": 4316,
      "daten": 4317,
      "gment": 4318,
      "arten": 4319,
      "geor": 4320,
      "schild": 4321,
      "zuvor": 4322,
      "wahren": 4323,
      "perso": 4324,
      "zweck": 4325,
      "telev": 4326,
      "obvi": 4327,
      "empfehlen": 4328,
      "quality": 4329,
      "vantage": 4330,
      "doubt": 4331,
      "engineer": 4332,
      "employe": 4333,
      "spitzen": 4334,
      "stronom": 4335,
      "bibliothe": 4336,
      "television": 4337,
      "kuer": 4338,
      "ril": 4339,
      "rank": 4340,
      "label": 4341,
      "advantage": 4342,
      "concert": 4343,
      "divers": 4344,
      "diale": 4345,
      "sud": 4346,
      "vorsitzen": 4347,
      "escape": 4348,
      "accident": 4349,
      "fuehl": 4350,
      "sueden": 4351,
      "politic": 4352,
      "scene": 4353,
      "vollstaendig": 4354,
      "nament": 4355,
      "appearance": 4356,
      "bluete": 4357,
      "energie": 4358,
      "square": 4359,
      "blaetter": 4360,
      "heavy": 4361,
      "employee": 4362,
      "vac": 4363,
      "witz": 4364,
      "erz": 4365,
      "beob": 4366,
      "onment": 4367,
      "arri": 4368,
      "schaden": 4369,
      "uebrig": 4370,
      "tip": 4371,
      "tooth": 4372,
      "additional": 4373,
      "construct": 4374,
      "majority": 4375,
      "protestant": 4376,
      "browser": 4377,
      "bine": 4378,
      "cable": 4379,
      "dum": 4380,
      "juni": 4381,
      "anten": 4382,
      "iting": 4383,
      "orf": 4384,
      "roem": 4385,
      "wed": 4386,
      "ability": 4387,
      "compe": 4388,
      "unterricht": 4389,
      "quant": 4390,
      "upon": 4391,
      "parallel": 4392,
      "known": 4393,
      "funk": 4394,
      "america": 4395,
      "wheel": 4396,
      "demokrat": 4397,
      "cli": 4398,
      "eth": 4399,
      "fant": 4400,
      "sig": 4401,
      "ledig": 4402,
      "verur": 4403,
      "mex": 4404,
      "metr": 4405,
      "beno": 4406,
      "werbe": 4407,
      "tzung": 4408,
      "server": 4409,
      "viertel": 4410,
      "sprecher": 4411,
      "simply": 4412,
      "familien": 4413,
      "yester": 4414,
      "status": 4415,
      "historisch": 4416,
      "fuellen": 4417,
      "graphic": 4418,
      "application": 4419,
      "gate": 4420,
      "jam": 4421,
      "erde": 4422,
      "sug": 4423,
      "finan": 4424,
      "bauer": 4425,
      "hingegen": 4426,
      "meisterschaft": 4427,
      "verfuegen": 4428,
      "eten": 4429,
      "mber": 4430,
      "won": 4431,
      "zwar": 4432,
      "eral": 4433,
      "enburg": 4434,
      "stieg": 4435,
      "reden": 4436,
      "reduce": 4437,
      "leiter": 4438,
      "verhindern": 4439,
      "metal": 4440,
      "def": 4441,
      "laeu": 4442,
      "istan": 4443,
      "lichen": 4444,
      "coast": 4445,
      "ulpt": 4446,
      "interesse": 4447,
      "bishop": 4448,
      "knowledge": 4449,
      "sammeln": 4450,
      "hibit": 4451,
      "heutig": 4452,
      "ela": 4453,
      "leich": 4454,
      "weight": 4455,
      "berry": 4456,
      "spor": 4457,
      "ierend": 4458,
      "compl": 4459,
      "lux": 4460,
      "ueberwiegen": 4461,
      "plom": 4462,
      "geleg": 4463,
      "grau": 4464,
      "discover": 4465,
      "factory": 4466,
      "circle": 4467,
      "culture": 4468,
      "lege": 4469,
      "secur": 4470,
      "verhaelt": 4471,
      "iffe": 4472,
      "diplom": 4473,
      "compar": 4474,
      "komm": 4475,
      "jazz": 4476,
      "ebenso": 4477,
      "servation": 4478,
      "namens": 4479,
      "prinzip": 4480,
      "benoetigen": 4481,
      "dicht": 4482,
      "fix": 4483,
      "kid": 4484,
      "wis": 4485,
      "erneut": 4486,
      "online": 4487,
      "dagegen": 4488,
      "koch": 4489,
      "ett": 4490,
      "daraus": 4491,
      "gebung": 4492,
      "winden": 4493,
      "geschle": 4494,
      "sky": 4495,
      "danger": 4496,
      "flugzeug": 4497,
      "summer": 4498,
      "maxim": 4499,
      "iminal": 4500,
      "dunkel": 4501,
      "revolution": 4502,
      "evi": 4503,
      "pae": 4504,
      "tch": 4505,
      "inse": 4506,
      "gefaehr": 4507,
      "dok": 4508,
      "hero": 4509,
      "illu": 4510,
      "speich": 4511,
      "links": 4512,
      "pping": 4513,
      "poly": 4514,
      "gruppen": 4515,
      "basic": 4516,
      "schwerpunkt": 4517,
      "absolvieren": 4518,
      "temporary": 4519,
      "mouth": 4520,
      "cof": 4521,
      "tam": 4522,
      "enlich": 4523,
      "envir": 4524,
      "theory": 4525,
      "eins": 4526,
      "eingang": 4527,
      "republik": 4528,
      "sech": 4529,
      "admit": 4530,
      "wochen": 4531,
      "parish": 4532,
      "volume": 4533,
      "environment": 4534,
      "fie": 4535,
      "thin": 4536,
      "anna": 4537,
      "isher": 4538,
      "igation": 4539,
      "manager": 4540,
      "exhibition": 4541,
      "finale": 4542,
      "halle": 4543,
      "graphy": 4544,
      "mehrfach": 4545,
      "beln": 4546,
      "organize": 4547,
      "ponent": 4548,
      "verwaltungs": 4549,
      "philip": 4550,
      "philosoph": 4551,
      "akadem": 4552,
      "security": 4553,
      "cing": 4554,
      "oth": 4555,
      "singen": 4556,
      "inv": 4557,
      "gestern": 4558,
      "imag": 4559,
      "liefern": 4560,
      "compare": 4561,
      "shar": 4562,
      "luck": 4563,
      "election": 4564,
      "italy": 4565,
      "walter": 4566,
      "dreh": 4567,
      "topic": 4568,
      "clearly": 4569,
      "lediglich": 4570,
      "verhaeltnis": 4571,
      "bingen": 4572,
      "gig": 4573,
      "ike": 4574,
      "mauer": 4575,
      "ole": 4576,
      "rent": 4577,
      "reu": 4578,
      "dens": 4579,
      "icke": 4580,
      "imper": 4581,
      "iful": 4582,
      "waste": 4583,
      "artikel": 4584,
      "lieder": 4585,
      "register": 4586,
      "hochschule": 4587,
      "mitteln": 4588,
      "milch": 4589,
      "freiburg": 4590,
      "profession": 4591,
      "meeting": 4592,
      "waerts": 4593,
      "klingen": 4594,
      "committee": 4595,
      "persoenlich": 4596,
      "kalt": 4597,
      "heiss": 4598,
      "benannt": 4599,
      "spital": 4600,
      "istische": 4601,
      "proce": 4602,
      "fael": 4603,
      "bow": 4604,
      "ktiv": 4605,
      "traeger": 4606,
      "prie": 4607,
      "haut": 4608,
      "fahrer": 4609,
      "musician": 4610,
      "staats": 4611,
      "tatsaechlich": 4612,
      "relatively": 4613,
      "industrial": 4614,
      "kenntnis": 4615,
      "fli": 4616,
      "vic": 4617,
      "below": 4618,
      "vereinig": 4619,
      "demon": 4620,
      "nachfolger": 4621,
      "jah": 4622,
      "temberg": 4623,
      "switzer": 4624,
      "taetigkeit": 4625,
      "promote": 4626,
      "dimens": 4627,
      "yesterday": 4628,
      "switzerland": 4629,
      "osten": 4630,
      "ante": 4631,
      "beziehen": 4632,
      "ury": 4633,
      "nover": 4634,
      "tex": 4635,
      "faer": 4636,
      "voraus": 4637,
      "opin": 4638,
      "dary": 4639,
      "schrank": 4640,
      "bunde": 4641,
      "schneiden": 4642,
      "emergency": 4643,
      "kritik": 4644,
      "recently": 4645,
      "staed": 4646,
      "commercial": 4647,
      "cologne": 4648,
      "kaf": 4649,
      "tank": 4650,
      "zif": 4651,
      "einheit": 4652,
      "einwohner": 4653,
      "atten": 4654,
      "gesicht": 4655,
      "implement": 4656,
      "massen": 4657,
      "ride": 4658,
      "boat": 4659,
      "sheim": 4660,
      "prize": 4661,
      "viet": 4662,
      "unterstuetzen": 4663,
      "geschehen": 4664,
      "suggest": 4665,
      "cele": 4666,
      "eber": 4667,
      "pure": 4668,
      "ttemberg": 4669,
      "schall": 4670,
      "meda": 4671,
      "noise": 4672,
      "spann": 4673,
      "adap": 4674,
      "david": 4675,
      "express": 4676,
      "polar": 4677,
      "milk": 4678,
      "verkehrs": 4679,
      "denkmal": 4680,
      "bibliothek": 4681,
      "bread": 4682,
      "mble": 4683,
      "rh": 4684,
      "tae": 4685,
      "beein": 4686,
      "bege": 4687,
      "beschreiben": 4688,
      "beaut": 4689,
      "aug": 4690,
      "verantwort": 4691,
      "oul": 4692,
      "rael": 4693,
      "weib": 4694,
      "kop": 4695,
      "article": 4696,
      "frist": 4697,
      "gegensatz": 4698,
      "cycle": 4699,
      "headquarter": 4700,
      "zentral": 4701,
      "platte": 4702,
      "elektr": 4703,
      "geschaefts": 4704,
      "dokument": 4705,
      "clar": 4706,
      "wendig": 4707,
      "ya": 4708,
      "onie": 4709,
      "neck": 4710,
      "moz": 4711,
      "streit": 4712,
      "lauben": 4713,
      "organisation": 4714,
      "richard": 4715,
      "bonn": 4716,
      "safe": 4717,
      "constitution": 4718,
      "geschlecht": 4719,
      "beautiful": 4720,
      "gi": 4721,
      "nutz": 4722,
      "ers": 4723,
      "erwachsen": 4724,
      "bewohner": 4725,
      "israel": 4726,
      "seiten": 4727,
      "amts": 4728,
      "mole": 4729,
      "bare": 4730,
      "butter": 4731,
      "judge": 4732,
      "gebir": 4733,
      "crete": 4734,
      "skin": 4735,
      "asteroid": 4736,
      "architect": 4737,
      "smoke": 4738,
      "cern": 4739,
      "szen": 4740,
      "bey": 4741,
      "alarm": 4742,
      "repe": 4743,
      "unknown": 4744,
      "ating": 4745,
      "schir": 4746,
      "metho": 4747,
      "genheit": 4748,
      "bogen": 4749,
      "vorne": 4750,
      "apon": 4751,
      "lande": 4752,
      "otive": 4753,
      "memor": 4754,
      "internationale": 4755,
      "landscape": 4756,
      "dresden": 4757,
      "coffee": 4758,
      "bone": 4759,
      "jun": 4760,
      "era": 4761,
      "einge": 4762,
      "concept": 4763,
      "nachdem": 4764,
      "vior": 4765,
      "straight": 4766,
      "solve": 4767,
      "egal": 4768,
      "danken": 4769,
      "lawyer": 4770,
      "wirtschaftlich": 4771,
      "ault": 4772,
      "institut": 4773,
      "ticket": 4774,
      "announce": 4775,
      "procedure": 4776,
      "opinion": 4777,
      "aver": 4778,
      "bund": 4779,
      "gam": 4780,
      "anschliessen": 4781,
      "verkaufen": 4782,
      "dete": 4783,
      "moon": 4784,
      "miteinander": 4785,
      "steig": 4786,
      "tire": 4787,
      "ueberra": 4788,
      "chef": 4789,
      "stadium": 4790,
      "produzieren": 4791,
      "calcul": 4792,
      "richter": 4793,
      "choir": 4794,
      "clus": 4795,
      "widmen": 4796,
      "extremely": 4797,
      "subsequently": 4798,
      "promise": 4799,
      "acade": 4800,
      "erhe": 4801,
      "ency": 4802,
      "oren": 4803,
      "arian": 4804,
      "lae": 4805,
      "werke": 4806,
      "bergen": 4807,
      "umin": 4808,
      "abine": 4809,
      "april": 4810,
      "bast": 4811,
      "prem": 4812,
      "lauten": 4813,
      "brot": 4814,
      "sieb": 4815,
      "schauen": 4816,
      "hannover": 4817,
      "climb": 4818,
      "angriff": 4819,
      "academy": 4820,
      "oben": 4821,
      "oestlich": 4822,
      "pause": 4823,
      "ttel": 4824,
      "zern": 4825,
      "begle": 4826,
      "alu": 4827,
      "leid": 4828,
      "icultur": 4829,
      "weapon": 4830,
      "keits": 4831,
      "hospital": 4832,
      "comment": 4833,
      "saenger": 4834,
      "greek": 4835,
      "filter": 4836,
      "corner": 4837,
      "meaning": 4838,
      "christop": 4839,
      "crown": 4840,
      "trip": 4841,
      "recording": 4842,
      "container": 4843,
      "...": 4844,
      "stabil": 4845,
      "eisenbahn": 4846,
      "geburt": 4847,
      "dick": 4848,
      "dele": 4849,
      "idi": 4850,
      "mik": 4851,
      "nit": 4852,
      "snow": 4853,
      "slight": 4854,
      "erster": 4855,
      "zuerst": 4856,
      "zuletzt": 4857,
      "posse": 4858,
      "hnung": 4859,
      "staer": 4860,
      "maintain": 4861,
      "matic": 4862,
      "kabel": 4863,
      "fahrrad": 4864,
      "visible": 4865,
      "surprise": 4866,
      "dauer": 4867,
      "latin": 4868,
      "kick": 4869,
      "tau": 4870,
      "thedr": 4871,
      "attract": 4872,
      "schar": 4873,
      "ash": 4874,
      "aufbau": 4875,
      "therap": 4876,
      "rub": 4877,
      "apple": 4878,
      "ueberall": 4879,
      "belg": 4880,
      "disappear": 4881,
      "rechte": 4882,
      "fassung": 4883,
      "specific": 4884,
      "bia": 4885,
      "nic": 4886,
      "theorie": 4887,
      "ichter": 4888,
      "raid": 4889,
      "teuer": 4890,
      "concern": 4891,
      "proto": 4892,
      "vorbei": 4893,
      "shut": 4894,
      "unterscheiden": 4895,
      "overall": 4896,
      "background": 4897,
      "evening": 4898,
      "schrau": 4899,
      "schaetzen": 4900,
      "fasste": 4901,
      "graduate": 4902,
      "might": 4903,
      "sberg": 4904,
      "beach": 4905,
      "belegen": 4906,
      "itern": 4907,
      "ram": 4908,
      "ueben": 4909,
      "ingu": 4910,
      "prefer": 4911,
      "liqu": 4912,
      "empt": 4913,
      "erstmals": 4914,
      "vote": 4915,
      "geschwind": 4916,
      "solo": 4917,
      "frame": 4918,
      "highly": 4919,
      "musiker": 4920,
      "fluegel": 4921,
      "behavior": 4922,
      "gabri": 4923,
      "lungs": 4924,
      "wunder": 4925,
      "erwarten": 4926,
      "enzen": 4927,
      "although": 4928,
      "relie": 4929,
      "orm": 4930,
      "eland": 4931,
      "islam": 4932,
      "tool": 4933,
      "laender": 4934,
      "kee": 4935,
      "doktor": 4936,
      "commission": 4937,
      "tik": 4938,
      "sack": 4939,
      "cake": 4940,
      "altar": 4941,
      "drauf": 4942,
      "klaus": 4943,
      "harm": 4944,
      "stattdessen": 4945,
      "singer": 4946,
      "successor": 4947,
      "kuchen": 4948,
      "medical": 4949,
      "flughafen": 4950,
      "schriftsteller": 4951,
      "piano": 4952,
      "bby": 4953,
      "jue": 4954,
      "ov": 4955,
      "pir": 4956,
      "phen": 4957,
      "incre": 4958,
      "geheim": 4959,
      "ssy": 4960,
      "entscheidung": 4961,
      "laer": 4962,
      "laeng": 4963,
      "spo": 4964,
      "command": 4965,
      "kommand": 4966,
      "ody": 4967,
      "welle": 4968,
      "kontakt": 4969,
      "starten": 4970,
      "sponsor": 4971,
      "definit": 4972,
      "amaz": 4973,
      "phase": 4974,
      "alexander": 4975,
      "verbreiten": 4976,
      "mittlerweile": 4977,
      "arrive": 4978,
      "celebr": 4979,
      "digen": 4980,
      "hut": 4981,
      "kart": 4982,
      "roe": 4983,
      "rome": 4984,
      "istik": 4985,
      "prozent": 4986,
      "peace": 4987,
      "percent": 4988,
      "expen": 4989,
      "extend": 4990,
      "frem": 4991,
      "haup": 4992,
      "swiss": 4993,
      "sorry": 4994,
      "medic": 4995,
      "electron": 4996,
      "speaker": 4997,
      "wissenschaftlich": 4998,
      "staette": 4999,
      "chairman": 5000,
      "vertreter": 5001,
      "consequence": 5002,
      "gute": 5003,
      "hus": 5004,
      "kul": 5005,
      "theast": 5006,
      "verd": 5007,
      "dear": 5008,
      "soc": 5009,
      "forderung": 5010,
      "afri": 5011,
      "jewish": 5012,
      "sage": 5013,
      "living": 5014,
      "zeitschrift": 5015,
      "stress": 5016,
      "flash": 5017,
      "sichtbar": 5018,
      "massnahme": 5019,
      "george": 5020,
      "icultural": 5021,
      "estate": 5022,
      "ote": 5023,
      "pig": 5024,
      "anschluss": 5025,
      "albert": 5026,
      "hey": 5027,
      "achen": 5028,
      "auftrag": 5029,
      "mode": 5030,
      "gaenger": 5031,
      "fresh": 5032,
      "solid": 5033,
      "schlaf": 5034,
      "captain": 5035,
      "succeed": 5036,
      "importance": 5037,
      "elektro": 5038,
      "herzog": 5039,
      "significantly": 5040,
      "customer": 5041,
      "ese": 5042,
      "kasse": 5043,
      "pli": 5044,
      "zoll": 5045,
      "redu": 5046,
      "hab": 5047,
      "raise": 5048,
      "rarely": 5049,
      "neuer": 5050,
      "hole": 5051,
      "mosp": 5052,
      "feu": 5053,
      "pag": 5054,
      "flict": 5055,
      "schlacht": 5056,
      "mayor": 5057,
      "expand": 5058,
      "vermutlich": 5059,
      "schwierig": 5060,
      "gelaende": 5061,
      "soccer": 5062,
      "aktion": 5063,
      "dchen": 5064,
      "fab": 5065,
      "ux": 5066,
      "ansehen": 5067,
      "alte": 5068,
      "weak": 5069,
      "goe": 5070,
      "gelb": 5071,
      "zeiten": 5072,
      "portra": 5073,
      "gusta": 5074,
      "sichtlich": 5075,
      "kapit": 5076,
      "spannen": 5077,
      "secure": 5078,
      "aenderung": 5079,
      "possibility": 5080,
      "lant": 5081,
      "slau": 5082,
      "iety": 5083,
      "urance": 5084,
      "oud": 5085,
      "nomin": 5086,
      "layer": 5087,
      "genre": 5088,
      "mitarbeiter": 5089,
      "hermann": 5090,
      "herstellen": 5091,
      "opponent": 5092,
      "sail": 5093,
      "painter": 5094,
      "freuen": 5095,
      "account": 5096,
      "foreign": 5097,
      "guitar": 5098,
      "donau": 5099,
      "hydro": 5100,
      "emerge": 5101,
      "passenger": 5102,
      "defense": 5103,
      "audience": 5104,
      "pau": 5105,
      "iner": 5106,
      "ueblich": 5107,
      "nee": 5108,
      "allen": 5109,
      "zugleich": 5110,
      "abschluss": 5111,
      "tial": 5112,
      "nahr": 5113,
      "worten": 5114,
      "durchfuehren": 5115,
      "scheitern": 5116,
      "bremen": 5117,
      "ziemlich": 5118,
      "silber": 5119,
      "religious": 5120,
      "austrian": 5121,
      "regularly": 5122,
      "previous": 5123,
      "derive": 5124,
      "stan": 5125,
      "stuer": 5126,
      "uner": 5127,
      "entsprechend": 5128,
      "zucker": 5129,
      "aussehen": 5130,
      "conflict": 5131,
      "nachricht": 5132,
      "mary": 5133,
      "publication": 5134,
      "sseldorf": 5135,
      "aktuell": 5136,
      "buergermeister": 5137,
      "brandenburg": 5138,
      "previously": 5139,
      "besucher": 5140,
      "africa": 5141,
      "inhabitant": 5142,
      "dir": 5143,
      "kas": 5144,
      "kiel": 5145,
      "ston": 5146,
      "theore": 5147,
      "unch": 5148,
      "gespra": 5149,
      "schalten": 5150,
      "heidel": 5151,
      "entdecken": 5152,
      "mobil": 5153,
      "tape": 5154,
      "sende": 5155,
      "maler": 5156,
      "archae": 5157,
      "schwein": 5158,
      "maedchen": 5159,
      "global": 5160,
      "soldier": 5161,
      "correspond": 5162,
      "wettbewer": 5163,
      "cis": 5164,
      "eich": 5165,
      "ehmen": 5166,
      "taeu": 5167,
      "xim": 5168,
      "reis": 5169,
      "messen": 5170,
      "tea": 5171,
      "adult": 5172,
      "coin": 5173,
      "pool": 5174,
      "founder": 5175,
      "intere": 5176,
      "interior": 5177,
      "worker": 5178,
      "darstellen": 5179,
      "effort": 5180,
      "hierbei": 5181,
      "born": 5182,
      "smell": 5183,
      "zunehmen": 5184,
      "prince": 5185,
      "latter": 5186,
      "praktisch": 5187,
      "permanent": 5188,
      "gin": 5189,
      "nue": 5190,
      "yard": 5191,
      "erwae": 5192,
      "chip": 5193,
      "chain": 5194,
      "thal": 5195,
      "stum": 5196,
      "atmosp": 5197,
      "ella": 5198,
      "augen": 5199,
      "tober": 5200,
      "territ": 5201,
      "core": 5202,
      "posite": 5203,
      "fassen": 5204,
      "ages": 5205,
      "darf": 5206,
      "drum": 5207,
      "troop": 5208,
      "stossen": 5209,
      "kraef": 5210,
      "complex": 5211,
      "loeschen": 5212,
      "fuel": 5213,
      "storm": 5214,
      "fundament": 5215,
      "automatisch": 5216,
      "apartment": 5217,
      "contrast": 5218,
      "financial": 5219,
      "territory": 5220,
      "iber": 5221,
      "iday": 5222,
      "inno": 5223,
      "annehmen": 5224,
      "bewegen": 5225,
      "eleven": 5226,
      "isol": 5227,
      "auton": 5228,
      "gefahr": 5229,
      "gefuehl": 5230,
      "ics": 5231,
      "iste": 5232,
      "advent": 5233,
      "wake": 5234,
      "dialog": 5235,
      "opposite": 5236,
      "grenz": 5237,
      "cid": 5238,
      "indicate": 5239,
      "konzept": 5240,
      "matisch": 5241,
      "breed": 5242,
      "holiday": 5243,
      "visitor": 5244,
      "suedo": 5245,
      "beispielsweise": 5246,
      "agricultural": 5247,
      "residen": 5248,
      "estim": 5249,
      "fabri": 5250,
      "sisch": 5251,
      "erich": 5252,
      "bedarf": 5253,
      "reject": 5254,
      "messer": 5255,
      "undzwanzig": 5256,
      "lade": 5257,
      "sogenannt": 5258,
      "rudol": 5259,
      "dige": 5260,
      "exception": 5261,
      "exclus": 5262,
      "zweimal": 5263,
      "edition": 5264,
      "syste": 5265,
      "beton": 5266,
      "assign": 5267,
      "communication": 5268,
      "kammer": 5269,
      "tube": 5270,
      "heilig": 5271,
      "suitable": 5272,
      "tauchen": 5273,
      "micro": 5274,
      "empty": 5275,
      "dise": 5276,
      "hip": 5277,
      "iar": 5278,
      "nick": 5279,
      "phal": 5280,
      "push": 5281,
      "sul": 5282,
      "erlauben": 5283,
      "chart": 5284,
      "ofen": 5285,
      "rote": 5286,
      "verbieten": 5287,
      "laess": 5288,
      "umfasst": 5289,
      "lokal": 5290,
      "abteilung": 5291,
      "koeln": 5292,
      "composition": 5293,
      "prechen": 5294,
      "interview": 5295,
      "darunter": 5296,
      "myth": 5297,
      "brem": 5298,
      "stretch": 5299,
      "scale": 5300,
      "secondary": 5301,
      "lesson": 5302,
      "vermeiden": 5303,
      "beteiligen": 5304,
      "medaille": 5305,
      "kup": 5306,
      "ran": 5307,
      "tze": 5308,
      "enken": 5309,
      "sting": 5310,
      "alisch": 5311,
      "rek": 5312,
      "gegner": 5313,
      "verbe": 5314,
      "folk": 5315,
      "warn": 5316,
      "strict": 5317,
      "obwohl": 5318,
      "schreib": 5319,
      "villa": 5320,
      "himmel": 5321,
      "situate": 5322,
      "ziell": 5323,
      "pferd": 5324,
      "konzert": 5325,
      "wonder": 5326,
      "evidence": 5327,
      "disease": 5328,
      "astronom": 5329,
      "hig": 5330,
      "wun": 5331,
      "ersetzen": 5332,
      "anze": 5333,
      "einstellen": 5334,
      "itte": 5335,
      "gema": 5336,
      "forward": 5337,
      "lossen": 5338,
      "zustaendig": 5339,
      "zukunft": 5340,
      "ausen": 5341,
      "herit": 5342,
      "potent": 5343,
      "sia": 5344,
      "march": 5345,
      "marie": 5346,
      "para": 5347,
      "minde": 5348,
      "idee": 5349,
      "ioes": 5350,
      "historic": 5351,
      "abeth": 5352,
      "spirit": 5353,
      "sturm": 5354,
      "beitrag": 5355,
      "battery": 5356,
      "griech": 5357,
      "hunt": 5358,
      "misch": 5359,
      "ni": 5360,
      "beise": 5361,
      "lehnen": 5362,
      "schmid": 5363,
      "sector": 5364,
      "toile": 5365,
      "meat": 5366,
      "rahmen": 5367,
      "improve": 5368,
      "meinung": 5369,
      "opt": 5370,
      "angabe": 5371,
      "muell": 5372,
      "zeitpunkt": 5373,
      "annel": 5374,
      "mussten": 5375,
      "phar": 5376,
      "joint": 5377,
      "nordo": 5378,
      "assume": 5379,
      "mittelbar": 5380,
      "brake": 5381,
      "kette": 5382,
      "consci": 5383,
      "spanish": 5384,
      "characteristic": 5385,
      "jaehrig": 5386,
      "siedeln": 5387,
      "publikum": 5388,
      "waffe": 5389,
      "veranstaltung": 5390,
      "krankheit": 5391,
      "doppel": 5392,
      "exec": 5393,
      "jahres": 5394,
      "mindestens": 5395,
      "bueh": 5396,
      "ecke": 5397,
      "kund": 5398,
      "mm": 5399,
      "mau": 5400,
      "erzaehlen": 5401,
      "erzielen": 5402,
      "thick": 5403,
      "best": 5404,
      "unabhaengig": 5405,
      "gemue": 5406,
      "gewalt": 5407,
      "ils": 5408,
      "verleihen": 5409,
      "immen": 5410,
      "nest": 5411,
      "loch": 5412,
      "ausstellung": 5413,
      "hersteller": 5414,
      "diag": 5415,
      "vorteil": 5416,
      "tige": 5417,
      "nahmen": 5418,
      "shirt": 5419,
      "sender": 5420,
      "speise": 5421,
      "strand": 5422,
      "stration": 5423,
      "format": 5424,
      "winner": 5425,
      "fourth": 5426,
      "maess": 5427,
      "russia": 5428,
      "typical": 5429,
      "score": 5430,
      "characterize": 5431,
      "offiziell": 5432,
      "sudden": 5433,
      "interested": 5434,
      "kuen": 5435,
      "tanz": 5436,
      "uck": 5437,
      "verletz": 5438,
      "meck": 5439,
      "umgebung": 5440,
      "omen": 5441,
      "keiten": 5442,
      "usual": 5443,
      "exchange": 5444,
      "landkreis": 5445,
      "telef": 5446,
      "reichs": 5447,
      "stuff": 5448,
      "drig": 5449,
      "angebot": 5450,
      "smith": 5451,
      "shake": 5452,
      "freiwill": 5453,
      "krae": 5454,
      "sicherheit": 5455,
      "elektron": 5456,
      "beziehung": 5457,
      "obviously": 5458,
      "rudolf": 5459,
      "pti": 5460,
      "erwer": 5461,
      "enjoy": 5462,
      "relev": 5463,
      "arisch": 5464,
      "ses": 5465,
      "ssern": 5466,
      "utage": 5467,
      "artific": 5468,
      "regiment": 5469,
      "krone": 5470,
      "linder": 5471,
      "greif": 5472,
      "gleichnam": 5473,
      "kurs": 5474,
      "ideal": 5475,
      "drug": 5476,
      "betrieben": 5477,
      "karls": 5478,
      "bomb": 5479,
      "occasionally": 5480,
      "advance": 5481,
      "liquid": 5482,
      "gespraech": 5483,
      "telefon": 5484,
      "gleichnamig": 5485,
      "cise": 5486,
      "ky": 5487,
      "swert": 5488,
      "uble": 5489,
      "bee": 5490,
      "eld": 5491,
      "schicht": 5492,
      "schwae": 5493,
      "urban": 5494,
      "ragen": 5495,
      "umgang": 5496,
      "zustand": 5497,
      "motion": 5498,
      "daily": 5499,
      "cock": 5500,
      "endigen": 5501,
      "jean": 5502,
      "finn": 5503,
      "angle": 5504,
      "reagieren": 5505,
      "handle": 5506,
      "norm": 5507,
      "disco": 5508,
      "everybody": 5509,
      "wird": 5510,
      "producer": 5511,
      "epis": 5512,
      "planen": 5513,
      "effic": 5514,
      "moeglichen": 5515,
      "fernsehen": 5516,
      "qualitaet": 5517,
      "data": 5518,
      "define": 5519,
      "democr": 5520,
      "soldat": 5521,
      "johannes": 5522,
      "composer": 5523,
      "cze": 5524,
      "gg": 5525,
      "vul": 5526,
      "ermoeglichen": 5527,
      "ini": 5528,
      "stol": 5529,
      "betre": 5530,
      "bewus": 5531,
      "leit": 5532,
      "allein": 5533,
      "conference": 5534,
      "sugar": 5535,
      "kommt": 5536,
      "malen": 5537,
      "sitzer": 5538,
      "alty": 5539,
      "deswegen": 5540,
      "gueltig": 5541,
      "zusammenhang": 5542,
      "haltung": 5543,
      "wolle": 5544,
      "specialist": 5545,
      "flaechen": 5546,
      "papier": 5547,
      "honorary": 5548,
      "chamber": 5549,
      "kong": 5550,
      "ming": 5551,
      "onto": 5552,
      "verdienen": 5553,
      "verpflicht": 5554,
      "icated": 5555,
      "entstammen": 5556,
      "imar": 5557,
      "asy": 5558,
      "adol": 5559,
      "endorf": 5560,
      "geraten": 5561,
      "carl": 5562,
      "trocken": 5563,
      "struction": 5564,
      "hoffen": 5565,
      "reality": 5566,
      "transl": 5567,
      "anese": 5568,
      "weekend": 5569,
      "frequently": 5570,
      "license": 5571,
      "kitchen": 5572,
      "gelegentlich": 5573,
      "acid": 5574,
      "camera": 5575,
      "sna": 5576,
      "enorm": 5577,
      "infra": 5578,
      "ano": 5579,
      "thesis": 5580,
      "beste": 5581,
      "ret": 5582,
      "ordent": 5583,
      "schiffe": 5584,
      "toll": 5585,
      "meanti": 5586,
      "desi": 5587,
      "decor": 5588,
      "sow": 5589,
      "mangel": 5590,
      "ruin": 5591,
      "affect": 5592,
      "rix": 5593,
      "sag": 5594,
      "standort": 5595,
      "liegend": 5596,
      "insurance": 5597,
      "kurze": 5598,
      "corpor": 5599,
      "dingt": 5600,
      "swissen": 5601,
      "variety": 5602,
      "tournament": 5603,
      "wirtschafts": 5604,
      "continu": 5605,
      "truppe": 5606,
      "gestalten": 5607,
      "unbedingt": 5608,
      "pruefung": 5609,
      "verlag": 5610,
      "pflanzen": 5611,
      "komponist": 5612,
      "spiegel": 5613,
      "narrow": 5614,
      "roemisch": 5615,
      "meantime": 5616,
      "kus": 5617,
      "sale": 5618,
      "erle": 5619,
      "behalten": 5620,
      "altern": 5621,
      "itter": 5622,
      "leaf": 5623,
      "gear": 5624,
      "andre": 5625,
      "ami": 5626,
      "spitz": 5627,
      "ned": 5628,
      "cean": 5629,
      "pot": 5630,
      "complain": 5631,
      "presse": 5632,
      "weitgehend": 5633,
      "westphal": 5634,
      "verschwinden": 5635,
      "ville": 5636,
      "berliner": 5637,
      "bination": 5638,
      "namen": 5639,
      "kaufs": 5640,
      "indian": 5641,
      "cloud": 5642,
      "sicherung": 5643,
      "initiative": 5644,
      "thought": 5645,
      "package": 5646,
      "automatically": 5647,
      "saxony": 5648,
      "hurt": 5649,
      "orchestra": 5650,
      "geschwindigkeit": 5651,
      "definitely": 5652,
      "wunsch": 5653,
      "aim": 5654,
      "ften": 5655,
      "hals": 5656,
      "sir": 5657,
      "unmittelbar": 5658,
      "lament": 5659,
      "lady": 5660,
      "sole": 5661,
      "ierungs": 5662,
      "contemporary": 5663,
      "boss": 5664,
      "opfer": 5665,
      "pact": 5666,
      "reaction": 5667,
      "pfarr": 5668,
      "bisschen": 5669,
      "colon": 5670,
      "carbon": 5671,
      "brecht": 5672,
      "klavier": 5673,
      "writing": 5674,
      "valid": 5675,
      "sculpt": 5676,
      "originate": 5677,
      "crow": 5678,
      "elfte": 5679,
      "architekt": 5680,
      "favorite": 5681,
      "broadcast": 5682,
      "schluessel": 5683,
      "slightly": 5684,
      "ime": 5685,
      "imeter": 5686,
      "ploe": 5687,
      "rhy": 5688,
      "erfor": 5689,
      "erleben": 5690,
      "inhalt": 5691,
      "anteil": 5692,
      "onym": 5693,
      "itude": 5694,
      "sep": 5695,
      "setzt": 5696,
      "root": 5697,
      "verwendung": 5698,
      "forum": 5699,
      "aufen": 5700,
      "coal": 5701,
      "perfect": 5702,
      "fett": 5703,
      "opa": 5704,
      "trig": 5705,
      "fris": 5706,
      "frieden": 5707,
      "komment": 5708,
      "gely": 5709,
      "speech": 5710,
      "zweig": 5711,
      "darin": 5712,
      "schoss": 5713,
      "gruendung": 5714,
      "funny": 5715,
      "states": 5716,
      "shoe": 5717,
      "latein": 5718,
      "primary": 5719,
      "message": 5720,
      "militaerisch": 5721,
      "distribution": 5722,
      "betrachten": 5723,
      "keeper": 5724,
      "autonom": 5725,
      "fabrik": 5726,
      "beisetzen": 5727,
      "cous": 5728,
      "ffe": 5729,
      "chief": 5730,
      "invent": 5731,
      "ortho": 5732,
      "gehoer": 5733,
      "olo": 5734,
      "lap": 5735,
      "split": 5736,
      "aufmerk": 5737,
      "dago": 5738,
      "compose": 5739,
      "fuerst": 5740,
      "opposition": 5741,
      "bright": 5742,
      "angst": 5743,
      "saar": 5744,
      "reaktion": 5745,
      "kontro": 5746,
      "strahl": 5747,
      "hydr": 5748,
      "examination": 5749,
      "hunger": 5750,
      "aussage": 5751,
      "jaehrlich": 5752,
      "gedicht": 5753,
      "schweizer": 5754,
      "pseu": 5755,
      "extensive": 5756,
      "erheblich": 5757,
      "expensive": 5758,
      "pharma": 5759,
      "aufmerksam": 5760,
      "gou": 5761,
      "gip": 5762,
      "greg": 5763,
      "pute": 5764,
      "riss": 5765,
      "sight": 5766,
      "uel": 5767,
      "wend": 5768,
      "chant": 5769,
      "alone": 5770,
      "unbekannt": 5771,
      "auen": 5772,
      "andal": 5773,
      "verlust": 5774,
      "heutz": 5775,
      "rath": 5776,
      "benef": 5777,
      "duke": 5778,
      "ueberlegen": 5779,
      "handy": 5780,
      "syl": 5781,
      "aku": 5782,
      "schuh": 5783,
      "betreiben": 5784,
      "fahrung": 5785,
      "grundsaetzlich": 5786,
      "weltmeister": 5787,
      "courage": 5788,
      "ebene": 5789,
      "hammer": 5790,
      "patron": 5791,
      "sicherheits": 5792,
      "aussprechen": 5793,
      "schwarze": 5794,
      "paaren": 5795,
      "kriegen": 5796,
      "washing": 5797,
      "europaeisch": 5798,
      "introduce": 5799,
      "behoerde": 5800,
      "heutzutage": 5801,
      "blu": 5802,
      "glie": 5803,
      "tong": 5804,
      "ergeben": 5805,
      "ono": 5806,
      "unver": 5807,
      "atlant": 5808,
      "toeten": 5809,
      "sseln": 5810,
      "denburg": 5811,
      "haelfte": 5812,
      "ential": 5813,
      "laser": 5814,
      "soil": 5815,
      "neum": 5816,
      "loy": 5817,
      "dome": 5818,
      "aufs": 5819,
      "mob": 5820,
      "moor": 5821,
      "herren": 5822,
      "concent": 5823,
      "ruck": 5824,
      "comfort": 5825,
      "tile": 5826,
      "fox": 5827,
      "effekt": 5828,
      "attach": 5829,
      "attri": 5830,
      "versorg": 5831,
      "obtain": 5832,
      "objekt": 5833,
      "guard": 5834,
      "resc": 5835,
      "danke": 5836,
      "largely": 5837,
      "bracht": 5838,
      "prior": 5839,
      "varia": 5840,
      "limited": 5841,
      "technisch": 5842,
      "sichtigen": 5843,
      "schauspiel": 5844,
      "eignen": 5845,
      "choice": 5846,
      "schneider": 5847,
      "ritter": 5848,
      "agreement": 5849,
      "metall": 5850,
      "olympic": 5851,
      "discussion": 5852,
      "advertise": 5853,
      "luxem": 5854,
      "medicine": 5855,
      "ploetzlich": 5856,
      "bist": 5857,
      "fuse": 5858,
      "keller": 5859,
      "rone": 5860,
      "tsche": 5861,
      "tausend": 5862,
      "injury": 5863,
      "betreten": 5864,
      "bestaet": 5865,
      "repair": 5866,
      "ita": 5867,
      "verbot": 5868,
      "desert": 5869,
      "iere": 5870,
      "poet": 5871,
      "poem": 5872,
      "susp": 5873,
      "emy": 5874,
      "strengen": 5875,
      "bereit": 5876,
      "rena": 5877,
      "shopping": 5878,
      "meanwhile": 5879,
      "empire": 5880,
      "classic": 5881,
      "schraenken": 5882,
      "conduct": 5883,
      "gustav": 5884,
      "agency": 5885,
      "gatt": 5886,
      "lungen": 5887,
      "ufer": 5888,
      "wu": 5889,
      "vergan": 5890,
      "verstecken": 5891,
      "entgegen": 5892,
      "weimar": 5893,
      "umwelt": 5894,
      "isten": 5895,
      "ckt": 5896,
      "hern": 5897,
      "stefan": 5898,
      "confirm": 5899,
      "proje": 5900,
      "afraid": 5901,
      "option": 5902,
      "policy": 5903,
      "kling": 5904,
      "weltweit": 5905,
      "herrn": 5906,
      "lotte": 5907,
      "strip": 5908,
      "californ": 5909,
      "crime": 5910,
      "screw": 5911,
      "philoso": 5912,
      "boese": 5913,
      "chapel": 5914,
      "laendisch": 5915,
      "methode": 5916,
      "kate": 5917,
      "nitz": 5918,
      "wan": 5919,
      "enner": 5920,
      "unten": 5921,
      "arg": 5922,
      "schel": 5923,
      "schach": 5924,
      "schwach": 5925,
      "sspra": 5926,
      "ental": 5927,
      "spin": 5928,
      "aufstellen": 5929,
      "aeuss": 5930,
      "dare": 5931,
      "wiener": 5932,
      "artig": 5933,
      "vorder": 5934,
      "pastor": 5935,
      "partially": 5936,
      "mineral": 5937,
      "evalu": 5938,
      "ssert": 5939,
      "stadtteil": 5940,
      "queen": 5941,
      "tember": 5942,
      "flasche": 5943,
      "harmon": 5944,
      "kapelle": 5945,
      "staff": 5946,
      "stimmung": 5947,
      "adapt": 5948,
      "september": 5949,
      "aeussern": 5950,
      "keln": 5951,
      "rick": 5952,
      "salt": 5953,
      "zil": 5954,
      "anwendung": 5955,
      "betragen": 5956,
      "alen": 5957,
      "schmer": 5958,
      "versi": 5959,
      "uegen": 5960,
      "spass": 5961,
      "umfang": 5962,
      "zes": 5963,
      "ausnahme": 5964,
      "ausgabe": 5965,
      "iften": 5966,
      "ulieren": 5967,
      "uebertragen": 5968,
      "untersuch": 5969,
      "muster": 5970,
      "cathedr": 5971,
      "minor": 5972,
      "ians": 5973,
      "darum": 5974,
      "konkur": 5975,
      "kontin": 5976,
      "portion": 5977,
      "century": 5978,
      "stimmt": 5979,
      "strike": 5980,
      "approxim": 5981,
      "responsibility": 5982,
      "kleid": 5983,
      "investig": 5984,
      "excuse": 5985,
      "occupy": 5986,
      "korrekt": 5987,
      "vorsitzender": 5988,
      "szene": 5989,
      "exclusively": 5990,
      "cuse": 5991,
      "clau": 5992,
      "ey": 5993,
      "ocean": 5994,
      "erlangen": 5995,
      "erzaehl": 5996,
      "rett": 5997,
      "resident": 5998,
      "unfall": 5999,
      "gedenken": 6000,
      "werner": 6001,
      "imit": 6002,
      "ums": 6003,
      "auftritt": 6004,
      "wagner": 6005,
      "endler": 6006,
      "fritz": 6007,
      "grant": 6008,
      "stain": 6009,
      "regie": 6010,
      "gets": 6011,
      "accompany": 6012,
      "lingen": 6013,
      "strae": 6014,
      "direktor": 6015,
      "farb": 6016,
      "renz": 6017,
      "organisieren": 6018,
      "basket": 6019,
      "translate": 6020,
      "click": 6021,
      "hilf": 6022,
      "forschungs": 6023,
      "knochen": 6024,
      "synchron": 6025,
      "website": 6026,
      "blaettern": 6027,
      "katholisch": 6028,
      "wuenschen": 6029,
      "smartphone": 6030,
      "cathedral": 6031,
      "cin": 6032,
      "diss": 6033,
      "length": 6034,
      "pad": 6035,
      "pine": 6036,
      "panz": 6037,
      "sick": 6038,
      "xis": 6039,
      "thar": 6040,
      "anwalt": 6041,
      "reli": 6042,
      "retire": 6043,
      "scht": 6044,
      "achim": 6045,
      "suffic": 6046,
      "endnis": 6047,
      "parlament": 6048,
      "willing": 6049,
      "anza": 6050,
      "realize": 6051,
      "wohnung": 6052,
      "neues": 6053,
      "lenburg": 6054,
      "stomach": 6055,
      "pretty": 6056,
      "manufacturer": 6057,
      "stiftung": 6058,
      "interessieren": 6059,
      "kaffee": 6060,
      "estimate": 6061,
      "desire": 6062,
      "candid": 6063,
      "hat": 6064,
      "kulture": 6065,
      "pier": 6066,
      "enemy": 6067,
      "beut": 6068,
      "besetzen": 6069,
      "reif": 6070,
      "reformation": 6071,
      "request": 6072,
      "elis": 6073,
      "ausein": 6074,
      "ssitz": 6075,
      "rare": 6076,
      "teile": 6077,
      "umn": 6078,
      "aufbauen": 6079,
      "auffaellig": 6080,
      "ielle": 6081,
      "boten": 6082,
      "paign": 6083,
      "kompli": 6084,
      "somewhere": 6085,
      "konfli": 6086,
      "streiten": 6087,
      "farmer": 6088,
      "generate": 6089,
      "brust": 6090,
      "kugel": 6091,
      "hub": 6092,
      "consum": 6093,
      "angeles": 6094,
      "ertlich": 6095,
      "chemical": 6096,
      "jaehrige": 6097,
      "japanese": 6098,
      "verfuegung": 6099,
      "negative": 6100,
      "relief": 6101,
      "mecklenburg": 6102,
      "relevant": 6103,
      "auseinander": 6104,
      "konflikt": 6105,
      "ahead": 6106,
      "cend": 6107,
      "coll": 6108,
      "jae": 6109,
      "mort": 6110,
      "pher": 6111,
      "zier": 6112,
      "erhoehen": 6113,
      "reda": 6114,
      "unity": 6115,
      "seed": 6116,
      "ational": 6117,
      "map": 6118,
      "kob": 6119,
      "aft": 6120,
      "ighter": 6121,
      "demic": 6122,
      "strecken": 6123,
      "busy": 6124,
      "sowieso": 6125,
      "staub": 6126,
      "engagieren": 6127,
      "discuss": 6128,
      "zweifel": 6129,
      "akademie": 6130,
      "fristig": 6131,
      "bewusst": 6132,
      "ordentlich": 6133,
      "blow": 6134,
      "zut": 6135,
      "erfahren": 6136,
      "eroeffnen": 6137,
      "chlor": 6138,
      "inth": 6139,
      "intend": 6140,
      "attra": 6141,
      "argent": 6142,
      "aust": 6143,
      "metro": 6144,
      "raeu": 6145,
      "terror": 6146,
      "genet": 6147,
      "formen": 6148,
      "hohen": 6149,
      "lichkeit": 6150,
      "auszeichnen": 6151,
      "steam": 6152,
      "ateur": 6153,
      "contro": 6154,
      "except": 6155,
      "trace": 6156,
      "gaben": 6157,
      "grade": 6158,
      "emil": 6159,
      "freie": 6160,
      "ordne": 6161,
      "guar": 6162,
      "aeusser": 6163,
      "tourism": 6164,
      "eigent": 6165,
      "electr": 6166,
      "wertung": 6167,
      "irgendwo": 6168,
      "trust": 6169,
      "appropri": 6170,
      "pruefen": 6171,
      "criticism": 6172,
      "widerstand": 6173,
      "leucht": 6174,
      "script": 6175,
      "beobachten": 6176,
      "increas": 6177,
      "kraefte": 6178,
      "kandid": 6179,
      "anlegen": 6180,
      "stik": 6181,
      "reifen": 6182,
      "gefallen": 6183,
      "schmal": 6184,
      "anda": 6185,
      "defe": 6186,
      "decade": 6187,
      "laenge": 6188,
      "mack": 6189,
      "atever": 6190,
      "concrete": 6191,
      "tram": 6192,
      "whatever": 6193,
      "halte": 6194,
      "viation": 6195,
      "accuse": 6196,
      "barkeit": 6197,
      "darm": 6198,
      "hinein": 6199,
      "klagen": 6200,
      "throughout": 6201,
      "melden": 6202,
      "gueter": 6203,
      "records": 6204,
      "constant": 6205,
      "wolfgang": 6206,
      "offizier": 6207,
      "analysis": 6208,
      "interpretation": 6209,
      "feind": 6210,
      "faehig": 6211,
      "faehigkeit": 6212,
      "feiern": 6213,
      "christoph": 6214,
      "wettbewerb": 6215,
      "schmidt": 6216,
      "aca": 6217,
      "equal": 6218,
      "hone": 6219,
      "kie": 6220,
      "till": 6221,
      "trei": 6222,
      "ernennen": 6223,
      "repar": 6224,
      "berueh": 6225,
      "ations": 6226,
      "ausstatten": 6227,
      "rug": 6228,
      "antrie": 6229,
      "combine": 6230,
      "jahre": 6231,
      "graz": 6232,
      "nerv": 6233,
      "stellt": 6234,
      "studie": 6235,
      "dringen": 6236,
      "dyna": 6237,
      "creative": 6238,
      "vierzig": 6239,
      "childhood": 6240,
      "shock": 6241,
      "politische": 6242,
      "approve": 6243,
      "explo": 6244,
      "katze": 6245,
      "campaign": 6246,
      "fotograf": 6247,
      "confuse": 6248,
      "chinese": 6249,
      "bundestag": 6250,
      "rhine": 6251,
      "versorgung": 6252,
      "candidate": 6253,
      "none": 6254,
      "rant": 6255,
      "sendung": 6256,
      "einkaufs": 6257,
      "reim": 6258,
      "remo": 6259,
      "gewoe": 6260,
      "versprechen": 6261,
      "verteilen": 6262,
      "het": 6263,
      "lapse": 6264,
      "asia": 6265,
      "conserv": 6266,
      "expression": 6267,
      "woher": 6268,
      "nachts": 6269,
      "landen": 6270,
      "platt": 6271,
      "gran": 6272,
      "odor": 6273,
      "newly": 6274,
      "crew": 6275,
      "dampf": 6276,
      "carrier": 6277,
      "actress": 6278,
      "valu": 6279,
      "ausserhalb": 6280,
      "flee": 6281,
      "trieb": 6282,
      "blueten": 6283,
      "cultiv": 6284,
      "buero": 6285,
      "assess": 6286,
      "typisch": 6287,
      "economy": 6288,
      "feuerwehr": 6289,
      "krieges": 6290,
      "weichen": 6291,
      "ordinate": 6292,
      "thomas": 6293,
      "lasst": 6294,
      "invite": 6295,
      "taeglich": 6296,
      "residential": 6297,
      "verletzung": 6298,
      "sowje": 6299,
      "bam": 6300,
      "dict": 6301,
      "jon": 6302,
      "kamera": 6303,
      "saeu": 6304,
      "vation": 6305,
      "cha": 6306,
      "beet": 6307,
      "bedienen": 6308,
      "besitzer": 6309,
      "ising": 6310,
      "rough": 6311,
      "noble": 6312,
      "teer": 6313,
      "amateur": 6314,
      "mittag": 6315,
      "ortschaft": 6316,
      "going": 6317,
      "mern": 6318,
      "predomin": 6319,
      "warte": 6320,
      "damal": 6321,
      "distingu": 6322,
      "flus": 6323,
      "criminal": 6324,
      "limm": 6325,
      "spective": 6326,
      "publi": 6327,
      "traditionell": 6328,
      "sperren": 6329,
      "dimension": 6330,
      "episode": 6331,
      "czech": 6332,
      "gipfel": 6333,
      "tongue": 6334,
      "tschech": 6335,
      "az": 6336,
      "ee": 6337,
      "eder": 6338,
      "tig": 6339,
      "stup": 6340,
      "bemerken": 6341,
      "lecture": 6342,
      "gebrauch": 6343,
      "seither": 6344,
      "hess": 6345,
      "elligen": 6346,
      "commit": 6347,
      "ueberleben": 6348,
      "stahl": 6349,
      "bauern": 6350,
      "intelligen": 6351,
      "joachim": 6352,
      "dynam": 6353,
      "gegenseitig": 6354,
      "dioce": 6355,
      "closed": 6356,
      "eventually": 6357,
      "schieben": 6358,
      "kostenlos": 6359,
      "definition": 6360,
      "victor": 6361,
      "verlaenger": 6362,
      "unterstuetzung": 6363,
      "engagement": 6364,
      "contribute": 6365,
      "headquarters": 6366,
      "cart": 6367,
      "canton": 6368,
      "gall": 6369,
      "gory": 6370,
      "ique": 6371,
      "kanton": 6372,
      "lig": 6373,
      "nab": 6374,
      "nisch": 6375,
      "sman": 6376,
      "sink": 6377,
      "erweit": 6378,
      "inal": 6379,
      "behandeln": 6380,
      "remark": 6381,
      "scha": 6382,
      "schro": 6383,
      "semin": 6384,
      "rack": 6385,
      "alleine": 6386,
      "address": 6387,
      "tennis": 6388,
      "notwendig": 6389,
      "kow": 6390,
      "boiler": 6391,
      "shell": 6392,
      "freude": 6393,
      "react": 6394,
      "tress": 6395,
      "linien": 6396,
      "myself": 6397,
      "konzern": 6398,
      "klima": 6399,
      "praxis": 6400,
      "niedrig": 6401,
      "highway": 6402,
      "aircraft": 6403,
      "turnier": 6404,
      "zero": 6405,
      "keyboard": 6406,
      "golf": 6407,
      "rollen": 6408,
      "waerme": 6409,
      "amerika": 6410,
      "destination": 6411,
      "criticize": 6412,
      "equipment": 6413,
      "zentrale": 6414,
      "afrika": 6415,
      "erweitern": 6416,
      "eif": 6417,
      "gt": 6418,
      "kant": 6419,
      "lion": 6420,
      "ting": 6421,
      "erfordern": 6422,
      "anlagen": 6423,
      "retten": 6424,
      "orn": 6425,
      "elter": 6426,
      "audio": 6427,
      "gewerbe": 6428,
      "schol": 6429,
      "rosen": 6430,
      "verfolgen": 6431,
      "heide": 6432,
      "berichten": 6433,
      "spl": 6434,
      "umgehen": 6435,
      "oma": 6436,
      "irr": 6437,
      "wiki": 6438,
      "artistic": 6439,
      "ped": 6440,
      "vorwiegen": 6441,
      "bake": 6442,
      "brut": 6443,
      "saal": 6444,
      "cient": 6445,
      "vio": 6446,
      "streng": 6447,
      "regulation": 6448,
      "symp": 6449,
      "kleiner": 6450,
      "iency": 6451,
      "portal": 6452,
      "guten": 6453,
      "trop": 6454,
      "verschlue": 6455,
      "chnung": 6456,
      "pattern": 6457,
      "kanal": 6458,
      "trolle": 6459,
      "naemlich": 6460,
      "italienisch": 6461,
      "victim": 6462,
      "victory": 6463,
      "certainly": 6464,
      "handels": 6465,
      "substance": 6466,
      "baroque": 6467,
      "dialect": 6468,
      "artificial": 6469,
      "bestaetigen": 6470,
      "argument": 6471,
      "ira": 6472,
      "obl": 6473,
      "inary": 6474,
      "onen": 6475,
      "alumin": 6476,
      "einrichtung": 6477,
      "reisen": 6478,
      "aux": 6479,
      "gefangen": 6480,
      "ursprung": 6481,
      "robot": 6482,
      "ilfe": 6483,
      "verlegen": 6484,
      "vertrauen": 6485,
      "ickt": 6486,
      "soviet": 6487,
      "herunter": 6488,
      "endar": 6489,
      "vorstand": 6490,
      "bade": 6491,
      "brick": 6492,
      "alsozial": 6493,
      "mueller": 6494,
      "stritten": 6495,
      "baut": 6496,
      "dispute": 6497,
      "wiederholen": 6498,
      "nationalsozial": 6499,
      "praeg": 6500,
      "observe": 6501,
      "bahnstrecke": 6502,
      "horiz": 6503,
      "digung": 6504,
      "transit": 6505,
      "associate": 6506,
      "likely": 6507,
      "fertig": 6508,
      "governor": 6509,
      "identify": 6510,
      "einzelne": 6511,
      "intensiv": 6512,
      "residence": 6513,
      "pianist": 6514,
      "thoma": 6515,
      "category": 6516,
      "budd": 6517,
      "variante": 6518,
      "satellite": 6519,
      "verzichten": 6520,
      "junior": 6521,
      "anzahl": 6522,
      "elisabeth": 6523,
      "increasingly": 6524,
      "stupid": 6525,
      "aspect": 6526,
      "cab": 6527,
      "diction": 6528,
      "mord": 6529,
      "sn": 6530,
      "ua": 6531,
      "chall": 6532,
      "ortes": 6533,
      "schick": 6534,
      "urt": 6535,
      "tee": 6536,
      "umstritten": 6537,
      "hrer": 6538,
      "steel": 6539,
      "korea": 6540,
      "proof": 6541,
      "liefer": 6542,
      "ferenz": 6543,
      "preci": 6544,
      "grill": 6545,
      "chess": 6546,
      "stehend": 6547,
      "moreover": 6548,
      "polish": 6549,
      "distin": 6550,
      "vene": 6551,
      "differently": 6552,
      "drain": 6553,
      "arbeitung": 6554,
      "horst": 6555,
      "sauer": 6556,
      "platten": 6557,
      "requirement": 6558,
      "brigade": 6559,
      "smooth": 6560,
      "landwirtschaftlich": 6561,
      "dutch": 6562,
      "pseudon": 6563,
      "aachen": 6564,
      "cler": 6565,
      "koll": 6566,
      "mol": 6567,
      "rin": 6568,
      "theme": 6569,
      "bedien": 6570,
      "schm": 6571,
      "urteil": 6572,
      "tomat": 6573,
      "ros": 6574,
      "verlauf": 6575,
      "veraendern": 6576,
      "verbracht": 6577,
      "hessen": 6578,
      "tages": 6579,
      "ria": 6580,
      "strich": 6581,
      "eless": 6582,
      "jahrzehn": 6583,
      "flucht": 6584,
      "holy": 6585,
      "opening": 6586,
      "moeglichst": 6587,
      "hintergrund": 6588,
      "lebensmittel": 6589,
      "lustig": 6590,
      "target": 6591,
      "jeweilig": 6592,
      "correctly": 6593,
      "genehm": 6594,
      "verantwortlich": 6595,
      "average": 6596,
      "karlsruhe": 6597,
      "valuable": 6598,
      "gum": 6599,
      "lind": 6600,
      "zburg": 6601,
      "erfinden": 6602,
      "bezahlen": 6603,
      "itur": 6604,
      "arrest": 6605,
      "isiert": 6606,
      "ieur": 6607,
      "robo": 6608,
      "icious": 6609,
      "vember": 6610,
      "november": 6611,
      "umgeben": 6612,
      "locom": 6613,
      "abschnitt": 6614,
      "ifa": 6615,
      "menschen": 6616,
      "convent": 6617,
      "prob": 6618,
      "liebe": 6619,
      "vorkommen": 6620,
      "tzig": 6621,
      "hler": 6622,
      "frischen": 6623,
      "grosse": 6624,
      "jag": 6625,
      "stair": 6626,
      "phan": 6627,
      "studien": 6628,
      "spiele": 6629,
      "hinten": 6630,
      "jahrhundert": 6631,
      "praise": 6632,
      "trouble": 6633,
      "skel": 6634,
      "zwingen": 6635,
      "relate": 6636,
      "positiv": 6637,
      "gramm": 6638,
      "growth": 6639,
      "crazy": 6640,
      "railroad": 6641,
      "britisch": 6642,
      "foermig": 6643,
      "feeling": 6644,
      "sweet": 6645,
      "oesterreichisch": 6646,
      "oxy": 6647,
      "moderator": 6648,
      "installation": 6649,
      "beamte": 6650,
      "imperial": 6651,
      "heidelberg": 6652,
      "bistum": 6653,
      "diocese": 6654,
      "locomotive": 6655,
      "aqu": 6656,
      "athen": 6657,
      "file": 6658,
      "gitar": 6659,
      "oden": 6660,
      "rus": 6661,
      "rural": 6662,
      "satur": 6663,
      "theit": 6664,
      "beere": 6665,
      "refuse": 6666,
      "itive": 6667,
      "une": 6668,
      "atter": 6669,
      "elev": 6670,
      "sey": 6671,
      "tear": 6672,
      "asant": 6673,
      "stes": 6674,
      "kohlen": 6675,
      "probe": 6676,
      "proceed": 6677,
      "peak": 6678,
      "pots": 6679,
      "factor": 6680,
      "liebling": 6681,
      "apfel": 6682,
      "pain": 6683,
      "quart": 6684,
      "ety": 6685,
      "cheap": 6686,
      "gray": 6687,
      "partly": 6688,
      "useful": 6689,
      "stadion": 6690,
      "darstellung": 6691,
      "synon": 6692,
      "colleague": 6693,
      "gegend": 6694,
      "wegs": 6695,
      "shore": 6696,
      "drama": 6697,
      "wenigstens": 6698,
      "athle": 6699,
      "electro": 6700,
      "kueste": 6701,
      "aneously": 6702,
      "facebook": 6703,
      "explos": 6704,
      "schauspielerin": 6705,
      "assistant": 6706,
      "salzburg": 6707,
      "icycle": 6708,
      "respective": 6709,
      "evangelisch": 6710,
      "seriously": 6711,
      "conductor": 6712,
      "speicher": 6713,
      "schirm": 6714,
      "taeuschen": 6715,
      "california": 6716,
      "symptom": 6717,
      "potsdam": 6718,
      "aid": 6719,
      "cted": 6720,
      "dische": 6721,
      "mate": 6722,
      "infe": 6723,
      "stable": 6724,
      "befest": 6725,
      "alco": 6726,
      "unzu": 6727,
      "elbe": 6728,
      "lehre": 6729,
      "geht": 6730,
      "iet": 6731,
      "schatz": 6732,
      "ician": 6733,
      "werten": 6734,
      "impression": 6735,
      "spag": 6736,
      "formal": 6737,
      "hose": 6738,
      "hobby": 6739,
      "context": 6740,
      "potat": 6741,
      "dule": 6742,
      "shof": 6743,
      "regisse": 6744,
      "jud": 6745,
      "acquire": 6746,
      "eva": 6747,
      "pfl": 6748,
      "skill": 6749,
      "gesang": 6750,
      "linear": 6751,
      "deliver": 6752,
      "hardware": 6753,
      "instal": 6754,
      "maschinen": 6755,
      "bernhard": 6756,
      "analog": 6757,
      "knock": 6758,
      "franzen": 6759,
      "englische": 6760,
      "steuern": 6761,
      "josef": 6762,
      "climate": 6763,
      "adopt": 6764,
      "wesentliche": 6765,
      "dumm": 6766,
      "defend": 6767,
      "husband": 6768,
      "democratic": 6769,
      "defeat": 6770,
      "potato": 6771,
      "fell": 6772,
      "kru": 6773,
      "kiss": 6774,
      "masse": 6775,
      "pion": 6776,
      "ping": 6777,
      "rul": 6778,
      "sund": 6779,
      "vort": 6780,
      "channel": 6781,
      "becken": 6782,
      "betreffen": 6783,
      "onent": 6784,
      "gefasst": 6785,
      "schup": 6786,
      "rohr": 6787,
      "denfalls": 6788,
      "outer": 6789,
      "veal": 6790,
      "teig": 6791,
      "bericht": 6792,
      "asien": 6793,
      "allian": 6794,
      "mitten": 6795,
      "elli": 6796,
      "cow": 6797,
      "convert": 6798,
      "tabel": 6799,
      "wies": 6800,
      "jedenfalls": 6801,
      "finance": 6802,
      "bavaria": 6803,
      "paket": 6804,
      "james": 6805,
      "linux": 6806,
      "mainten": 6807,
      "justus": 6808,
      "geschmack": 6809,
      "solar": 6810,
      "holly": 6811,
      "daniel": 6812,
      "grundlage": 6813,
      "blame": 6814,
      "component": 6815,
      "grammat": 6816,
      "stattfinden": 6817,
      "india": 6818,
      "hugo": 6819,
      "kino": 6820,
      "stroke": 6821,
      "knight": 6822,
      "platform": 6823,
      "schnee": 6824,
      "participant": 6825,
      "failure": 6826,
      "electricity": 6827,
      "raeum": 6828,
      "magnetic": 6829,
      "absolutely": 6830,
      "faerben": 6831,
      "calculate": 6832,
      "bastian": 6833,
      "erwaehnen": 6834,
      "rhyth": 6835,
      "philosophy": 6836,
      "roboter": 6837,
      "regisseur": 6838,
      "cine": 6839,
      "dae": 6840,
      "lift": 6841,
      "sant": 6842,
      "zell": 6843,
      "encry": 6844,
      "inspir": 6845,
      "reveal": 6846,
      "unteer": 6847,
      "schatten": 6848,
      "verkauf": 6849,
      "entice": 6850,
      "entry": 6851,
      "entweder": 6852,
      "lohnen": 6853,
      "auftreten": 6854,
      "herkunft": 6855,
      "uern": 6856,
      "koe": 6857,
      "rust": 6858,
      "bock": 6859,
      "exhau": 6860,
      "appr": 6861,
      "opport": 6862,
      "sence": 6863,
      "gaenglich": 6864,
      "chest": 6865,
      "phra": 6866,
      "empf": 6867,
      "kontrolle": 6868,
      "grey": 6869,
      "everywhere": 6870,
      "niemals": 6871,
      "volunteer": 6872,
      "publisher": 6873,
      "ereign": 6874,
      "autobahn": 6875,
      "christmas": 6876,
      "drohen": 6877,
      "magn": 6878,
      "examine": 6879,
      "bottom": 6880,
      "decline": 6881,
      "mbh": 6882,
      "grafik": 6883,
      "circum": 6884,
      "successfully": 6885,
      "francis": 6886,
      "gewiss": 6887,
      "konstruktion": 6888,
      "staffel": 6889,
      "diskussion": 6890,
      "offenbaren": 6891,
      "spelling": 6892,
      "complicated": 6893,
      "gebirge": 6894,
      "delete": 6895,
      "laengst": 6896,
      "fremd": 6897,
      "gattung": 6898,
      "untersuchung": 6899,
      "apprentice": 6900,
      "opportunity": 6901,
      "dough": 6902,
      "gier": 6903,
      "ii": 6904,
      "lum": 6905,
      "mmen": 6906,
      "tone": 6907,
      "erga": 6908,
      "indien": 6909,
      "anha": 6910,
      "angeben": 6911,
      "ancy": 6912,
      "ancient": 6913,
      "ons": 6914,
      "schlimm": 6915,
      "sebastian": 6916,
      "andrea": 6917,
      "ilen": 6918,
      "igner": 6919,
      "vern": 6920,
      "vey": 6921,
      "weite": 6922,
      "terr": 6923,
      "maer": 6924,
      "vorgaenger": 6925,
      "brenn": 6926,
      "ched": 6927,
      "ghan": 6928,
      "earn": 6929,
      "monitor": 6930,
      "evol": 6931,
      "konst": 6932,
      "joke": 6933,
      "mainz": 6934,
      "collapse": 6935,
      "gegenstand": 6936,
      "hello": 6937,
      "laufbahn": 6938,
      "prime": 6939,
      "positive": 6940,
      "sorge": 6941,
      "tourismus": 6942,
      "drucken": 6943,
      "hypo": 6944,
      "sachen": 6945,
      "ministerium": 6946,
      "kollege": 6947,
      "scream": 6948,
      "berufs": 6949,
      "safety": 6950,
      "bestandteil": 6951,
      "kommunikation": 6952,
      "pipe": 6953,
      "bourg": 6954,
      "begleiten": 6955,
      "adolf": 6956,
      "maintenance": 6957,
      "ago": 6958,
      "gmbh": 6959,
      "lis": 6960,
      "ziv": 6961,
      "theat": 6962,
      "besatz": 6963,
      "rear": 6964,
      "orgel": 6965,
      "austra": 6966,
      "lect": 6967,
      "sso": 6968,
      "verle": 6969,
      "lare": 6970,
      "sobald": 6971,
      "abschliessen": 6972,
      "ausschuss": 6973,
      "peror": 6974,
      "perspective": 6975,
      "jew": 6976,
      "trend": 6977,
      "grass": 6978,
      "anni": 6979,
      "blin": 6980,
      "stellungs": 6981,
      "stry": 6982,
      "demol": 6983,
      "hierfuer": 6984,
      "carol": 6985,
      "struct": 6986,
      "ologist": 6987,
      "charter": 6988,
      "venue": 6989,
      "aggress": 6990,
      "severe": 6991,
      "careful": 6992,
      "appeal": 6993,
      "fruehstueck": 6994,
      "achtung": 6995,
      "historische": 6996,
      "breakfast": 6997,
      "russland": 6998,
      "literary": 6999,
      "glaube": 7000,
      "wuerttemberg": 7001,
      "phabet": 7002,
      "neighboring": 7003,
      "spitze": 7004,
      "healthy": 7005,
      "dedicate": 7006,
      "prisoner": 7007,
      "reflect": 7008,
      "engineering": 7009,
      "vereinigte": 7010,
      "vergangenheit": 7011,
      "basketball": 7012,
      "pseudonym": 7013,
      "ereignis": 7014,
      "bite": 7015,
      "eigh": 7016,
      "pill": 7017,
      "treiben": 7018,
      "error": 7019,
      "erfahrung": 7020,
      "ennung": 7021,
      "init": 7022,
      "infant": 7023,
      "geh": 7024,
      "ursache": 7025,
      "vergeben": 7026,
      "heiz": 7027,
      "genie": 7028,
      "neither": 7029,
      "aufloesen": 7030,
      "mander": 7031,
      "ckel": 7032,
      "ausdruck": 7033,
      "kohle": 7034,
      "convin": 7035,
      "antworten": 7036,
      "baer": 7037,
      "diesel": 7038,
      "quad": 7039,
      "jakob": 7040,
      "cheese": 7041,
      "kennung": 7042,
      "angeboten": 7043,
      "underground": 7044,
      "versation": 7045,
      "justice": 7046,
      "geschw": 7047,
      "nationalmannschaft": 7048,
      "ios": 7049,
      "oberflaeche": 7050,
      "legung": 7051,
      "zunge": 7052,
      "classical": 7053,
      "beliebt": 7054,
      "ministry": 7055,
      "kaputt": 7056,
      "knapp": 7057,
      "giessen": 7058,
      "kuenstlich": 7059,
      "architecture": 7060,
      "frequency": 7061,
      "weih": 7062,
      "vermuten": 7063,
      "klassisch": 7064,
      "verstaer": 7065,
      "resistance": 7066,
      "liberal": 7067,
      "repeat": 7068,
      "scharf": 7069,
      "haupten": 7070,
      "kontroll": 7071,
      "comfortable": 7072,
      "appropriate": 7073,
      "ehre": 7074,
      "fighter": 7075,
      "kten": 7076,
      "prussian": 7077,
      "vine": 7078,
      "vary": 7079,
      "stir": 7080,
      "beweis": 7081,
      "begrenzen": 7082,
      "sevent": 7083,
      "uren": 7084,
      "lax": 7085,
      "benach": 7086,
      "forty": 7087,
      "lov": 7088,
      "dame": 7089,
      "progress": 7090,
      "sucht": 7091,
      "exhibit": 7092,
      "ighten": 7093,
      "ette": 7094,
      "emperor": 7095,
      "acy": 7096,
      "fuegen": 7097,
      "drue": 7098,
      "konserv": 7099,
      "ungsmittel": 7100,
      "native": 7101,
      "klaer": 7102,
      "archiv": 7103,
      "clothe": 7104,
      "cerem": 7105,
      "kunden": 7106,
      "presentation": 7107,
      "weiler": 7108,
      "instance": 7109,
      "amtlich": 7110,
      "kingdom": 7111,
      "knife": 7112,
      "traditional": 7113,
      "strongly": 7114,
      "kteur": 7115,
      "veroeffentlichung": 7116,
      "taxi": 7117,
      "murder": 7118,
      "raeumen": 7119,
      "distribute": 7120,
      "totally": 7121,
      "fifth": 7122,
      "select": 7123,
      "philosophie": 7124,
      "augsburg": 7125,
      "celebrate": 7126,
      "benefit": 7127,
      "panzer": 7128,
      "email": 7129,
      "gae": 7130,
      "kip": 7131,
      "ome": 7132,
      "raten": 7133,
      "ud": 7134,
      "ania": 7135,
      "stie": 7136,
      "schacht": 7137,
      "verb": 7138,
      "verg": 7139,
      "wealth": 7140,
      "werbung": 7141,
      "spun": 7142,
      "ked": 7143,
      "ierten": 7144,
      "zumeist": 7145,
      "zuordnen": 7146,
      "dian": 7147,
      "poe": 7148,
      "commander": 7149,
      "shift": 7150,
      "selb": 7151,
      "komposition": 7152,
      "marsch": 7153,
      "reihen": 7154,
      "internal": 7155,
      "drill": 7156,
      "belt": 7157,
      "breiten": 7158,
      "geschicht": 7159,
      "schenken": 7160,
      "resign": 7161,
      "ized": 7162,
      "bildungs": 7163,
      "hardt": 7164,
      "stattung": 7165,
      "clusion": 7166,
      "vereins": 7167,
      "kapital": 7168,
      "fliehen": 7169,
      "weltkriegs": 7170,
      "journey": 7171,
      "sturz": 7172,
      "barock": 7173,
      "orchester": 7174,
      "abgeordne": 7175,
      "ueberraschen": 7176,
      "possession": 7177,
      "gutes": 7178,
      "suddenly": 7179,
      "gitarre": 7180,
      "zivil": 7181,
      "apost": 7182,
      "biel": 7183,
      "fischer": 7184,
      "gard": 7185,
      "kim": 7186,
      "pitch": 7187,
      "rice": 7188,
      "ula": 7189,
      "reiter": 7190,
      "reffen": 7191,
      "orden": 7192,
      "rod": 7193,
      "verwand": 7194,
      "verbrennen": 7195,
      "impact": 7196,
      "amen": 7197,
      "aecht": 7198,
      "adler": 7199,
      "adjust": 7200,
      "aband": 7201,
      "abitur": 7202,
      "davor": 7203,
      "wasch": 7204,
      "dikt": 7205,
      "woer": 7206,
      "trail": 7207,
      "barely": 7208,
      "diesmal": 7209,
      "unterhalten": 7210,
      "intern": 7211,
      "krist": 7212,
      "juice": 7213,
      "myster": 7214,
      "konrad": 7215,
      "iene": 7216,
      "ingenieur": 7217,
      "breslau": 7218,
      "ansatz": 7219,
      "ologische": 7220,
      "kret": 7221,
      "fels": 7222,
      "volunt": 7223,
      "brain": 7224,
      "opera": 7225,
      "sorb": 7226,
      "siegen": 7227,
      "flood": 7228,
      "huge": 7229,
      "santa": 7230,
      "teaching": 7231,
      "reference": 7232,
      "beruflich": 7233,
      "muesst": 7234,
      "ehrlich": 7235,
      "nahezu": 7236,
      "amerikanisch": 7237,
      "comparison": 7238,
      "wochenend": 7239,
      "philipp": 7240,
      "beeinflus": 7241,
      "beutel": 7242,
      "cen": 7243,
      "laus": 7244,
      "oter": 7245,
      "til": 7246,
      "chile": 7247,
      "besiedeln": 7248,
      "behaupten": 7249,
      "alko": 7250,
      "review": 7251,
      "lehren": 7252,
      "lok": 7253,
      "zugen": 7254,
      "mount": 7255,
      "mai": 7256,
      "dahin": 7257,
      "herstellung": 7258,
      "affe": 7259,
      "pedia": 7260,
      "lieber": 7261,
      "comic": 7262,
      "sens": 7263,
      "preuss": 7264,
      "marburg": 7265,
      "bust": 7266,
      "warning": 7267,
      "freil": 7268,
      "barrel": 7269,
      "konsequ": 7270,
      "actual": 7271,
      "geschlossen": 7272,
      "runde": 7273,
      "familiar": 7274,
      "moeglicherweise": 7275,
      "atively": 7276,
      "massive": 7277,
      "botan": 7278,
      "truth": 7279,
      "weisse": 7280,
      "foerderung": 7281,
      "risiko": 7282,
      "bevorzugen": 7283,
      "scientist": 7284,
      "schreck": 7285,
      "leuchten": 7286,
      "reuth": 7287,
      "erwerben": 7288,
      "vulkan": 7289,
      "translation": 7290,
      "kategor": 7291,
      "geschwister": 7292,
      "dichter": 7293,
      "ego": 7294,
      "hous": 7295,
      "ibe": 7296,
      "mam": 7297,
      "vog": 7298,
      "erie": 7299,
      "erstellen": 7300,
      "erober": 7301,
      "erschein": 7302,
      "chlich": 7303,
      "einrichten": 7304,
      "resource": 7305,
      "una": 7306,
      "unclear": 7307,
      "gemaess": 7308,
      "seal": 7309,
      "ignor": 7310,
      "rasse": 7311,
      "lach": 7312,
      "loop": 7313,
      "zugang": 7314,
      "isches": 7315,
      "auswahl": 7316,
      "herd": 7317,
      "ates": 7318,
      "gerecht": 7319,
      "vorbild": 7320,
      "fuers": 7321,
      "malerei": 7322,
      "zeitweise": 7323,
      "zeitgeno": 7324,
      "minder": 7325,
      "offel": 7326,
      "deutig": 7327,
      "mehrheit": 7328,
      "descend": 7329,
      "erstre": 7330,
      "disci": 7331,
      "wiederum": 7332,
      "volcan": 7333,
      "fragment": 7334,
      "starter": 7335,
      "passion": 7336,
      "simult": 7337,
      "truck": 7338,
      "lingu": 7339,
      "graphie": 7340,
      "betriebs": 7341,
      "zeuge": 7342,
      "franzoesische": 7343,
      "neutral": 7344,
      "schreiten": 7345,
      "annoy": 7346,
      "accessible": 7347,
      "navy": 7348,
      "dangerous": 7349,
      "fieber": 7350,
      "beyond": 7351,
      "memorial": 7352,
      "staerke": 7353,
      "gemuese": 7354,
      "attribute": 7355,
      "apo": 7356,
      "faul": 7357,
      "lle": 7358,
      "pist": 7359,
      "sad": 7360,
      "tung": 7361,
      "betr": 7362,
      "alive": 7363,
      "alright": 7364,
      "leon": 7365,
      "gedanke": 7366,
      "roh": 7367,
      "rostock": 7368,
      "decke": 7369,
      "rab": 7370,
      "nore": 7371,
      "sichts": 7372,
      "lokom": 7373,
      "utieren": 7374,
      "abgeben": 7375,
      "sume": 7376,
      "rib": 7377,
      "rip": 7378,
      "fare": 7379,
      "febru": 7380,
      "vorstellung": 7381,
      "exem": 7382,
      "nase": 7383,
      "update": 7384,
      "etlich": 7385,
      "sheet": 7386,
      "grue": 7387,
      "issance": 7388,
      "freight": 7389,
      "welcome": 7390,
      "straf": 7391,
      "southeast": 7392,
      "lessly": 7393,
      "eigenschaft": 7394,
      "siehe": 7395,
      "schwanz": 7396,
      "spain": 7397,
      "trial": 7398,
      "mediter": 7399,
      "belieben": 7400,
      "glad": 7401,
      "kritisieren": 7402,
      "blicken": 7403,
      "entscheidend": 7404,
      "heavily": 7405,
      "heutige": 7406,
      "duty": 7407,
      "goethe": 7408,
      "buehne": 7409,
      "gouver": 7410,
      "controversi": 7411,
      "alcohol": 7412,
      "kamer": 7413,
      "rhe": 7414,
      "wund": 7415,
      "xe": 7416,
      "erzeugen": 7417,
      "chicken": 7418,
      "thic": 7419,
      "bestellen": 7420,
      "alische": 7421,
      "alfred": 7422,
      "elde": 7423,
      "lem": 7424,
      "ili": 7425,
      "noon": 7426,
      "tess": 7427,
      "spart": 7428,
      "hoech": 7429,
      "abstra": 7430,
      "ausbilden": 7431,
      "maker": 7432,
      "pest": 7433,
      "nachweisen": 7434,
      "bavarian": 7435,
      "shall": 7436,
      "unterliegen": 7437,
      "untersuchen": 7438,
      "somewhat": 7439,
      "regierungs": 7440,
      "stufe": 7441,
      "fuehrend": 7442,
      "norweg": 7443,
      "strafe": 7444,
      "klaerung": 7445,
      "muehle": 7446,
      "valent": 7447,
      "tonight": 7448,
      "sieger": 7449,
      "depict": 7450,
      "architektur": 7451,
      "forscher": 7452,
      "contribution": 7453,
      "spannung": 7454,
      "juedisch": 7455,
      "verpflichten": 7456,
      "sufficient": 7457,
      "predominantly": 7458,
      "hollywood": 7459,
      "initial": 7460,
      "housing": 7461,
      "ew": 7462,
      "emotion": 7463,
      "naech": 7464,
      "piz": 7465,
      "sab": 7466,
      "ture": 7467,
      "erseits": 7468,
      "derlich": 7469,
      "stunden": 7470,
      "ichen": 7471,
      "aly": 7472,
      "alz": 7473,
      "orbit": 7474,
      "ata": 7475,
      "isl": 7476,
      "toler": 7477,
      "hack": 7478,
      "teu": 7479,
      "sowas": 7480,
      "hrung": 7481,
      "dose": 7482,
      "abol": 7483,
      "ausgang": 7484,
      "steal": 7485,
      "steak": 7486,
      "ruption": 7487,
      "waschen": 7488,
      "waert": 7489,
      "fear": 7490,
      "canal": 7491,
      "foss": 7492,
      "ferdin": 7493,
      "uebergang": 7494,
      "senior": 7495,
      "lid": 7496,
      "quiet": 7497,
      "marken": 7498,
      "grain": 7499,
      "nerven": 7500,
      "zurzeit": 7501,
      "standen": 7502,
      "garage": 7503,
      "bitter": 7504,
      "egy": 7505,
      "zusammenarbeit": 7506,
      "schwede": 7507,
      "schlesw": 7508,
      "statue": 7509,
      "kalk": 7510,
      "russisch": 7511,
      "ungefaehr": 7512,
      "decrease": 7513,
      "spanisch": 7514,
      "hilde": 7515,
      "aussicht": 7516,
      "riechen": 7517,
      "zipl": 7518,
      "witness": 7519,
      "louis": 7520,
      "orientieren": 7521,
      "buecher": 7522,
      "waffen": 7523,
      "braunschwe": 7524,
      "stedt": 7525,
      "sprachig": 7526,
      "analyse": 7527,
      "extension": 7528,
      "wusste": 7529,
      "laeufer": 7530,
      "drehbuch": 7531,
      "freiwillig": 7532,
      "crowd": 7533,
      "trigger": 7534,
      "mobile": 7535,
      "challenge": 7536,
      "ruler": 7537,
      "controversial": 7538,
      "ferdinand": 7539,
      "bicycle": 7540,
      "cular": 7541,
      "jann": 7542,
      "kanz": 7543,
      "nimm": 7544,
      "stall": 7545,
      "streich": 7546,
      "bea": 7547,
      "onist": 7548,
      "elder": 7549,
      "haere": 7550,
      "haendler": 7551,
      "aessig": 7552,
      "aegy": 7553,
      "maje": 7554,
      "provi": 7555,
      "dient": 7556,
      "fever": 7557,
      "goett": 7558,
      "expl": 7559,
      "speziell": 7560,
      "freed": 7561,
      "regist": 7562,
      "kron": 7563,
      "deuten": 7564,
      "intellig": 7565,
      "kassel": 7566,
      "klassen": 7567,
      "viert": 7568,
      "effiz": 7569,
      "schreibung": 7570,
      "astro": 7571,
      "rechtswissen": 7572,
      "render": 7573,
      "renov": 7574,
      "punkte": 7575,
      "sanwalt": 7576,
      "humor": 7577,
      "virt": 7578,
      "mmern": 7579,
      "kritisch": 7580,
      "kritiker": 7581,
      "gerichts": 7582,
      "fassungs": 7583,
      "entirely": 7584,
      "investment": 7585,
      "nikol": 7586,
      "gefaehrlich": 7587,
      "oulder": 7588,
      "detect": 7589,
      "griechisch": 7590,
      "advertisement": 7591,
      "antrieb": 7592,
      "bing": 7593,
      "bord": 7594,
      "hion": 7595,
      "mold": 7596,
      "piel": 7597,
      "plug": 7598,
      "enkt": 7599,
      "angen": 7600,
      "ankommen": 7601,
      "anbau": 7602,
      "stap": 7603,
      "alphabet": 7604,
      "isst": 7605,
      "schale": 7606,
      "seil": 7607,
      "uring": 7608,
      "desto": 7609,
      "hed": 7610,
      "terie": 7611,
      "adam": 7612,
      "cob": 7613,
      "kost": 7614,
      "poison": 7615,
      "gos": 7616,
      "whom": 7617,
      "trink": 7618,
      "marga": 7619,
      "sonn": 7620,
      "wende": 7621,
      "edel": 7622,
      "reader": 7623,
      "teilnehmer": 7624,
      "acqu": 7625,
      "wellen": 7626,
      "diszipl": 7627,
      "ansied": 7628,
      "flach": 7629,
      "tags": 7630,
      "dortmund": 7631,
      "ventil": 7632,
      "frauen": 7633,
      "heinz": 7634,
      "kueche": 7635,
      "declare": 7636,
      "pond": 7637,
      "wuerde": 7638,
      "socialist": 7639,
      "vegetable": 7640,
      "rauchen": 7641,
      "insect": 7642,
      "kommando": 7643,
      "execute": 7644,
      "umfangreich": 7645,
      "beruehmt": 7646,
      "synonym": 7647,
      "discipl": 7648,
      "intelligent": 7649,
      "ege": 7650,
      "ete": 7651,
      "scr": 7652,
      "stin": 7653,
      "stance": 7654,
      "reck": 7655,
      "repraesent": 7656,
      "orten": 7657,
      "iling": 7658,
      "versehen": 7659,
      "hai": 7660,
      "height": 7661,
      "unddreissig": 7662,
      "nego": 7663,
      "aufge": 7664,
      "advice": 7665,
      "pedal": 7666,
      "permit": 7667,
      "ridge": 7668,
      "fuerchten": 7669,
      "uebersetzen": 7670,
      "ueberzeugen": 7671,
      "pac": 7672,
      "hnt": 7673,
      "grat": 7674,
      "vian": 7675,
      "warnen": 7676,
      "string": 7677,
      "monarch": 7678,
      "angeblich": 7679,
      "turk": 7680,
      "scheibe": 7681,
      "credit": 7682,
      "otte": 7683,
      "ultim": 7684,
      "laugh": 7685,
      "klappen": 7686,
      "kreativ": 7687,
      "kurt": 7688,
      "zwang": 7689,
      "weltkrieges": 7690,
      "schreiber": 7691,
      "blade": 7692,
      "operator": 7693,
      "donation": 7694,
      "fridge": 7695,
      "chocol": 7696,
      "foerder": 7697,
      "packung": 7698,
      "recognition": 7699,
      "verstaendnis": 7700,
      "subsequent": 7701,
      "flagge": 7702,
      "qualifizieren": 7703,
      "strahlung": 7704,
      "saeule": 7705,
      "distinguish": 7706,
      "jahrzehnt": 7707,
      "schuppen": 7708,
      "theatre": 7709,
      "simultaneously": 7710,
      "freedom": 7711,
      "negoti": 7712,
      "clin": 7713,
      "fte": 7714,
      "gil": 7715,
      "jr": 7716,
      "knie": 7717,
      "litz": 7718,
      "mama": 7719,
      "null": 7720,
      "sst": 7721,
      "tut": 7722,
      "tissue": 7723,
      "ansprechen": 7724,
      "stamp": 7725,
      "eindruck": 7726,
      "eindeutig": 7727,
      "leeren": 7728,
      "urg": 7729,
      "verkehren": 7730,
      "ladung": 7731,
      "spende": 7732,
      "manner": 7733,
      "ador": 7734,
      "ultra": 7735,
      "ortsteil": 7736,
      "endel": 7737,
      "ines": 7738,
      "durchsetzen": 7739,
      "vize": 7740,
      "earl": 7741,
      "freel": 7742,
      "gebue": 7743,
      "gleis": 7744,
      "bislang": 7745,
      "brett": 7746,
      "produzent": 7747,
      "gemeinden": 7748,
      "vieh": 7749,
      "gebiete": 7750,
      "kaufmann": 7751,
      "kuehlen": 7752,
      "pursue": 7753,
      "assemb": 7754,
      "leistungs": 7755,
      "accordingly": 7756,
      "stuecke": 7757,
      "deploy": 7758,
      "naehern": 7759,
      "tuerk": 7760,
      "zoo": 7761,
      "gorith": 7762,
      "strassenbahn": 7763,
      "schlange": 7764,
      "secretary": 7765,
      "doppeln": 7766,
      "physical": 7767,
      "giftig": 7768,
      "rapid": 7769,
      "wedding": 7770,
      "compete": 7771,
      "diplomat": 7772,
      "priest": 7773,
      "mikro": 7774,
      "feucht": 7775,
      "erforderlich": 7776,
      "damalig": 7777,
      "wikipedia": 7778,
      "wiesbaden": 7779,
      "phrase": 7780,
      "ceremony": 7781,
      "abandon": 7782,
      "gouverneur": 7783,
      "assembly": 7784,
      "fiction": 7785,
      "mme": 7786,
      "sday": 7787,
      "tight": 7788,
      "ersatz": 7789,
      "bewahren": 7790,
      "onic": 7791,
      "einladen": 7792,
      "releg": 7793,
      "lee": 7794,
      "schim": 7795,
      "sekunde": 7796,
      "offe": 7797,
      "mea": 7798,
      "vet": 7799,
      "lasten": 7800,
      "spire": 7801,
      "ierungen": 7802,
      "modif": 7803,
      "cott": 7804,
      "cooperation": 7805,
      "endgueltig": 7806,
      "rik": 7807,
      "shine": 7808,
      "fry": 7809,
      "ikan": 7810,
      "anning": 7811,
      "sserung": 7812,
      "efeld": 7813,
      "geblich": 7814,
      "dreck": 7815,
      "schriften": 7816,
      "werkzeug": 7817,
      "passage": 7818,
      "bruck": 7819,
      "schleun": 7820,
      "cherry": 7821,
      "processing": 7822,
      "wurzel": 7823,
      "sauce": 7824,
      "grandfather": 7825,
      "virus": 7826,
      "scott": 7827,
      "kennzeichnen": 7828,
      "kaese": 7829,
      "marketing": 7830,
      "critical": 7831,
      "gentle": 7832,
      "manufacture": 7833,
      "hoffentlich": 7834,
      "portugal": 7835,
      "potential": 7836,
      "alkohol": 7837,
      "chocolate": 7838,
      "bber": 7839,
      "bull": 7840,
      "dil": 7841,
      "galler": 7842,
      "tort": 7843,
      "erweisen": 7844,
      "stink": 7845,
      "beu": 7846,
      "ala": 7847,
      "algorith": 7848,
      "rem": 7849,
      "reser": 7850,
      "armen": 7851,
      "armed": 7852,
      "elig": 7853,
      "austau": 7854,
      "lese": 7855,
      "gegeben": 7856,
      "deny": 7857,
      "deput": 7858,
      "launch": 7859,
      "amin": 7860,
      "zucht": 7861,
      "aufstieg": 7862,
      "abbre": 7863,
      "prop": 7864,
      "diving": 7865,
      "extern": 7866,
      "wooden": 7867,
      "prehen": 7868,
      "muenden": 7869,
      "gros": 7870,
      "cave": 7871,
      "workshop": 7872,
      "ablehnen": 7873,
      "teles": 7874,
      "zuminde": 7875,
      "handwerk": 7876,
      "konzentr": 7877,
      "schoene": 7878,
      "solange": 7879,
      "walde": 7880,
      "kreta": 7881,
      "corps": 7882,
      "threaten": 7883,
      "deli": 7884,
      "heimlich": 7885,
      "kriegsende": 7886,
      "mitglieder": 7887,
      "magde": 7888,
      "luege": 7889,
      "fuehrt": 7890,
      "hungry": 7891,
      "games": 7892,
      "wahrheit": 7893,
      "wandern": 7894,
      "bayreuth": 7895,
      "allgemeine": 7896,
      "fifty": 7897,
      "maennchen": 7898,
      "kuehlschrank": 7899,
      "maximum": 7900,
      "siebzig": 7901,
      "electronic": 7902,
      "normally": 7903,
      "dagog": 7904,
      "gliedern": 7905,
      "zumindest": 7906,
      "bnis": 7907,
      "doll": 7908,
      "ggle": 7909,
      "jim": 7910,
      "lueck": 7911,
      "oertlich": 7912,
      "pump": 7913,
      "zung": 7914,
      "erna": 7915,
      "erleiden": 7916,
      "anbauen": 7917,
      "bemue": 7918,
      "bedenken": 7919,
      "beschraenken": 7920,
      "onkel": 7921,
      "unklar": 7922,
      "legend": 7923,
      "sed": 7924,
      "tox": 7925,
      "verze": 7926,
      "verwechseln": 7927,
      "raw": 7928,
      "lamp": 7929,
      "lagern": 7930,
      "umstand": 7931,
      "aufgeben": 7932,
      "manus": 7933,
      "zeige": 7934,
      "auszeichnung": 7935,
      "wire": 7936,
      "conversation": 7937,
      "promin": 7938,
      "prohibit": 7939,
      "ruhr": 7940,
      "affair": 7941,
      "dusseldorf": 7942,
      "rio": 7943,
      "diet": 7944,
      "comprehen": 7945,
      "exer": 7946,
      "bage": 7947,
      "sian": 7948,
      "senken": 7949,
      "ptisch": 7950,
      "button": 7951,
      "strength": 7952,
      "zurich": 7953,
      "oker": 7954,
      "kontra": 7955,
      "intu": 7956,
      "disse": 7957,
      "kathar": 7958,
      "zieh": 7959,
      "guide": 7960,
      "volle": 7961,
      "closely": 7962,
      "atorium": 7963,
      "shot": 7964,
      "fourteen": 7965,
      "politically": 7966,
      "technische": 7967,
      "kuemmern": 7968,
      "wolke": 7969,
      "spanien": 7970,
      "eduard": 7971,
      "swedish": 7972,
      "constantly": 7973,
      "educational": 7974,
      "interesting": 7975,
      "promotion": 7976,
      "adels": 7977,
      "florida": 7978,
      "ensemble": 7979,
      "african": 7980,
      "amerikanische": 7981,
      "verursachen": 7982,
      "amtszeit": 7983,
      "idiot": 7984,
      "pagne": 7985,
      "portrait": 7986,
      "fundamental": 7987,
      "sculpture": 7988,
      "schmerz": 7989,
      "dissol": 7990,
      "komplizieren": 7991,
      "academic": 7992,
      "anhaenger": 7993,
      "territor": 7994,
      "bid": 7995,
      "iro": 7996,
      "lange": 7997,
      "nuern": 7998,
      "poll": 7999,
      "scar": 8000,
      "wrest": 8001,
      "erfurt": 8002,
      "erfuellen": 8003,
      "encourage": 8004,
      "chte": 8005,
      "income": 8006,
      "anson": 8007,
      "anonym": 8008,
      "theology": 8009,
      "bestimmt": 8010,
      "reci": 8011,
      "remind": 8012,
      "respekt": 8013,
      "rechnung": 8014,
      "schiller": 8015,
      "semi": 8016,
      "uru": 8017,
      "toast": 8018,
      "mester": 8019,
      "oldenburg": 8020,
      "icul": 8021,
      "immun": 8022,
      "spu": 8023,
      "spuer": 8024,
      "afghan": 8025,
      "geraeu": 8026,
      "dieter": 8027,
      "combination": 8028,
      "export": 8029,
      "tzer": 8030,
      "hlt": 8031,
      "angele": 8032,
      "marien": 8033,
      "plastic": 8034,
      "bug": 8035,
      "sammel": 8036,
      "emig": 8037,
      "accur": 8038,
      "belly": 8039,
      "klus": 8040,
      "matrix": 8041,
      "izer": 8042,
      "nationally": 8043,
      "munster": 8044,
      "helmut": 8045,
      "relative": 8046,
      "simon": 8047,
      "sichtig": 8048,
      "yeah": 8049,
      "northwest": 8050,
      "crack": 8051,
      "luegen": 8052,
      "stroem": 8053,
      "britann": 8054,
      "transportieren": 8055,
      "chemisch": 8056,
      "elementary": 8057,
      "muenster": 8058,
      "merkmal": 8059,
      "integration": 8060,
      "komponieren": 8061,
      "navigation": 8062,
      "dialekt": 8063,
      "conventional": 8064,
      "gallery": 8065,
      "ader": 8066,
      "ais": 8067,
      "bae": 8068,
      "balt": 8069,
      "tall": 8070,
      "wich": 8071,
      "inspe": 8072,
      "thief": 8073,
      "anstrengen": 8074,
      "streichen": 8075,
      "beau": 8076,
      "alom": 8077,
      "unken": 8078,
      "uncle": 8079,
      "elte": 8080,
      "leh": 8081,
      "leer": 8082,
      "getrie": 8083,
      "ieck": 8084,
      "schung": 8085,
      "schalt": 8086,
      "schicken": 8087,
      "veraenderung": 8088,
      "irrit": 8089,
      "advis": 8090,
      "suspect": 8091,
      "vorstellen": 8092,
      "bac": 8093,
      "shaus": 8094,
      "sibling": 8095,
      "paste": 8096,
      "quote": 8097,
      "plaint": 8098,
      "freier": 8099,
      "mehrmals": 8100,
      "hierzu": 8101,
      "unique": 8102,
      "curve": 8103,
      "essig": 8104,
      "renn": 8105,
      "legende": 8106,
      "swing": 8107,
      "sprachen": 8108,
      "technique": 8109,
      "schwimmen": 8110,
      "weilig": 8111,
      "basically": 8112,
      "calendar": 8113,
      "innere": 8114,
      "kalender": 8115,
      "rueckwaerts": 8116,
      "saeure": 8117,
      "tubingen": 8118,
      "hallen": 8119,
      "practical": 8120,
      "alongside": 8121,
      "zzle": 8122,
      "eagle": 8123,
      "nuclear": 8124,
      "schwierigkeit": 8125,
      "knee": 8126,
      "pommern": 8127,
      "frueher": 8128,
      "begruender": 8129,
      "client": 8130,
      "weibchen": 8131,
      "constitutional": 8132,
      "aufmerksamkeit": 8133,
      "approximately": 8134,
      "jaeger": 8135,
      "violet": 8136,
      "jagd": 8137,
      "oxygen": 8138,
      "evolution": 8139,
      "aga": 8140,
      "fi": 8141,
      "git": 8142,
      "nant": 8143,
      "rut": 8144,
      "ries": 8145,
      "wy": 8146,
      "inge": 8147,
      "inhal": 8148,
      "befehl": 8149,
      "einstein": 8150,
      "elimin": 8151,
      "sson": 8152,
      "ilian": 8153,
      "medie": 8154,
      "denten": 8155,
      "genuegen": 8156,
      "nese": 8157,
      "ird": 8158,
      "auffuehren": 8159,
      "aequ": 8160,
      "moe": 8161,
      "steiger": 8162,
      "provo": 8163,
      "petr": 8164,
      "duct": 8165,
      "ones": 8166,
      "gothic": 8167,
      "comprise": 8168,
      "braten": 8169,
      "frisch": 8170,
      "etab": 8171,
      "item": 8172,
      "iking": 8173,
      "monte": 8174,
      "kler": 8175,
      "erstoff": 8176,
      "creme": 8177,
      "columb": 8178,
      "holder": 8179,
      "krebs": 8180,
      "gruene": 8181,
      "corn": 8182,
      "lassung": 8183,
      "quet": 8184,
      "kindheit": 8185,
      "starke": 8186,
      "airline": 8187,
      "chnik": 8188,
      "shaft": 8189,
      "legisl": 8190,
      "sorte": 8191,
      "endigung": 8192,
      "transmit": 8193,
      "existence": 8194,
      "wertvoll": 8195,
      "crash": 8196,
      "decis": 8197,
      "gestaltung": 8198,
      "uenstig": 8199,
      "storage": 8200,
      "sweat": 8201,
      "description": 8202,
      "lorenz": 8203,
      "lampe": 8204,
      "extreme": 8205,
      "slope": 8206,
      "variant": 8207,
      "appointment": 8208,
      "temporarily": 8209,
      "jackson": 8210,
      "verurteilen": 8211,
      "mozilla": 8212,
      "gabriel": 8213,
      "kartoffel": 8214,
      "decorate": 8215,
      "konkurrenz": 8216,
      "kulturell": 8217,
      "kandidat": 8218,
      "pflanz": 8219,
      "braunschweig": 8220,
      "meadow": 8221,
      "exercise": 8222,
      "acker": 8223,
      "bent": 8224,
      "cand": 8225,
      "kult": 8226,
      "mild": 8227,
      "obe": 8228,
      "rane": 8229,
      "scan": 8230,
      "swald": 8231,
      "trom": 8232,
      "bestreiten": 8233,
      "albrecht": 8234,
      "itzen": 8235,
      "unent": 8236,
      "unable": 8237,
      "atsch": 8238,
      "led": 8239,
      "leib": 8240,
      "semester": 8241,
      "verwe": 8242,
      "decess": 8243,
      "entwurf": 8244,
      "spenden": 8245,
      "asi": 8246,
      "aete": 8247,
      "hence": 8248,
      "conclusion": 8249,
      "dub": 8250,
      "wiese": 8251,
      "commod": 8252,
      "angular": 8253,
      "sacr": 8254,
      "sien": 8255,
      "pregn": 8256,
      "predecess": 8257,
      "plar": 8258,
      "serien": 8259,
      "prono": 8260,
      "durchschnitt": 8261,
      "staende": 8262,
      "zenz": 8263,
      "bark": 8264,
      "barbar": 8265,
      "ernsth": 8266,
      "dran": 8267,
      "column": 8268,
      "grossvater": 8269,
      "pens": 8270,
      "bush": 8271,
      "capac": 8272,
      "punish": 8273,
      "donate": 8274,
      "hara": 8275,
      "harbor": 8276,
      "christlich": 8277,
      "schauer": 8278,
      "breath": 8279,
      "sankt": 8280,
      "representation": 8281,
      "zweitausend": 8282,
      "religioes": 8283,
      "jugendliche": 8284,
      "dominate": 8285,
      "froh": 8286,
      "deckel": 8287,
      "substit": 8288,
      "saxon": 8289,
      "plateau": 8290,
      "verteidiger": 8291,
      "professionell": 8292,
      "tteln": 8293,
      "reduzieren": 8294,
      "orthodo": 8295,
      "remote": 8296,
      "cinema": 8297,
      "bielefeld": 8298,
      "predecessor": 8299,
      "gs": 8300,
      "gnen": 8301,
      "kent": 8302,
      "kna": 8303,
      "mason": 8304,
      "oclock": 8305,
      "purch": 8306,
      "plot": 8307,
      "erten": 8308,
      "chi": 8309,
      "instruction": 8310,
      "theologie": 8311,
      "beschleun": 8312,
      "alien": 8313,
      "eines": 8314,
      "rebuild": 8315,
      "reception": 8316,
      "urb": 8317,
      "todes": 8318,
      "iland": 8319,
      "meyer": 8320,
      "weshalb": 8321,
      "spol": 8322,
      "soci": 8323,
      "zugaenglich": 8324,
      "aufstehen": 8325,
      "aehn": 8326,
      "ausland": 8327,
      "ausbauen": 8328,
      "herein": 8329,
      "ruine": 8330,
      "sula": 8331,
      "faeltig": 8332,
      "goog": 8333,
      "explan": 8334,
      "wobei": 8335,
      "cancel": 8336,
      "ophy": 8337,
      "trich": 8338,
      "sensit": 8339,
      "eton": 8340,
      "burst": 8341,
      "mining": 8342,
      "krue": 8343,
      "bauten": 8344,
      "filmen": 8345,
      "guay": 8346,
      "vierzehn": 8347,
      "dreimal": 8348,
      "clown": 8349,
      "subsi": 8350,
      "musikalisch": 8351,
      "buchsta": 8352,
      "letztlich": 8353,
      "tub": 8354,
      "schuetze": 8355,
      "wurttemberg": 8356,
      "friede": 8357,
      "expans": 8358,
      "chemist": 8359,
      "hitler": 8360,
      "identity": 8361,
      "windows": 8362,
      "fungieren": 8363,
      "haeuser": 8364,
      "tuebingen": 8365,
      "zweifeln": 8366,
      "execut": 8367,
      "slalom": 8368,
      "illustration": 8369,
      "therapie": 8370,
      "hilfs": 8371,
      "seminar": 8372,
      "ergaenzen": 8373,
      "ansonsten": 8374,
      "medieval": 8375,
      "dder": 8376,
      "eup": 8377,
      "lein": 8378,
      "meln": 8379,
      "mischen": 8380,
      "mile": 8381,
      "ogen": 8382,
      "pto": 8383,
      "ske": 8384,
      "ui": 8385,
      "xy": 8386,
      "erika": 8387,
      "chica": 8388,
      "incident": 8389,
      "inherit": 8390,
      "stig": 8391,
      "arise": 8392,
      "illegal": 8393,
      "meier": 8394,
      "haps": 8395,
      "racing": 8396,
      "weigh": 8397,
      "forst": 8398,
      "aufhoeren": 8399,
      "aes": 8400,
      "absicht": 8401,
      "ausfuehren": 8402,
      "ulator": 8403,
      "perhaps": 8404,
      "fake": 8405,
      "faith": 8406,
      "vorlesen": 8407,
      "expose": 8408,
      "jection": 8409,
      "naz": 8410,
      "brat": 8411,
      "uebersetzung": 8412,
      "packen": 8413,
      "senator": 8414,
      "unterteilen": 8415,
      "mental": 8416,
      "grossen": 8417,
      "cia": 8418,
      "nochmal": 8419,
      "grape": 8420,
      "anzie": 8421,
      "standing": 8422,
      "ungsgebiet": 8423,
      "poland": 8424,
      "matth": 8425,
      "wirbel": 8426,
      "planung": 8427,
      "weltcup": 8428,
      "farben": 8429,
      "schnitz": 8430,
      "shower": 8431,
      "profile": 8432,
      "scal": 8433,
      "fleck": 8434,
      "loewe": 8435,
      "athlet": 8436,
      "haltig": 8437,
      "patri": 8438,
      "itaets": 8439,
      "craw": 8440,
      "powerful": 8441,
      "index": 8442,
      "foerm": 8443,
      "sauerstoff": 8444,
      "lebensjahr": 8445,
      "imming": 8446,
      "enteils": 8447,
      "timer": 8448,
      "anerkennen": 8449,
      "cooking": 8450,
      "habitat": 8451,
      "assistent": 8452,
      "violin": 8453,
      "wueste": 8454,
      "advertising": 8455,
      "voraussetzung": 8456,
      "elektrisch": 8457,
      "surprised": 8458,
      "amazon": 8459,
      "bremse": 8460,
      "gemaelde": 8461,
      "infantry": 8462,
      "poetry": 8463,
      "beeinflusst": 8464,
      "erstrecken": 8465,
      "discipline": 8466,
      "chicago": 8467,
      "faust": 8468,
      "ging": 8469,
      "iate": 8470,
      "nau": 8471,
      "nap": 8472,
      "tle": 8473,
      "wupper": 8474,
      "yu": 8475,
      "enable": 8476,
      "anzeigen": 8477,
      "anspruch": 8478,
      "stisch": 8479,
      "besch": 8480,
      "reten": 8481,
      "reign": 8482,
      "unlike": 8483,
      "els": 8484,
      "isis": 8485,
      "ieben": 8486,
      "schmu": 8487,
      "segment": 8488,
      "uran": 8489,
      "verfassungs": 8490,
      "dessert": 8491,
      "hay": 8492,
      "heck": 8493,
      "hesse": 8494,
      "fortress": 8495,
      "iran": 8496,
      "zufolge": 8497,
      "abor": 8498,
      "tenden": 8499,
      "conquer": 8500,
      "afel": 8501,
      "gerue": 8502,
      "gerhard": 8503,
      "antar": 8504,
      "cancer": 8505,
      "bath": 8506,
      "trunk": 8507,
      "shield": 8508,
      "selber": 8509,
      "etze": 8510,
      "plus": 8511,
      "anner": 8512,
      "aetze": 8513,
      "muscle": 8514,
      "konig": 8515,
      "intention": 8516,
      "angehoer": 8517,
      "gruender": 8518,
      "brasil": 8519,
      "lane": 8520,
      "profil": 8521,
      "organic": 8522,
      "capture": 8523,
      "personen": 8524,
      "sieh": 8525,
      "carefully": 8526,
      "bachel": 8527,
      "hinterlassen": 8528,
      "mira": 8529,
      "kaliforn": 8530,
      "britain": 8531,
      "identical": 8532,
      "verfueg": 8533,
      "huegel": 8534,
      "sophie": 8535,
      "netzwerk": 8536,
      "integrate": 8537,
      "ordinary": 8538,
      "gesundheit": 8539,
      "australia": 8540,
      "gewaesser": 8541,
      "competit": 8542,
      "amazing": 8543,
      "snake": 8544,
      "transition": 8545,
      "circumstance": 8546,
      "benachbart": 8547,
      "provider": 8548,
      "ernsthaft": 8549,
      "expansion": 8550,
      "cist": 8551,
      "cae": 8552,
      "dly": 8553,
      "fusion": 8554,
      "kannt": 8555,
      "mouse": 8556,
      "nad": 8557,
      "oer": 8558,
      "sische": 8559,
      "ukra": 8560,
      "wunde": 8561,
      "yl": 8562,
      "behave": 8563,
      "becher": 8564,
      "unfair": 8565,
      "gewe": 8566,
      "ilder": 8567,
      "heiten": 8568,
      "raet": 8569,
      "teich": 8570,
      "lab": 8571,
      "nether": 8572,
      "asian": 8573,
      "aby": 8574,
      "absorb": 8575,
      "vorwurf": 8576,
      "nachweis": 8577,
      "bye": 8578,
      "groesst": 8579,
      "fold": 8580,
      "pleasure": 8581,
      "kriminal": 8582,
      "drunk": 8583,
      "ienen": 8584,
      "streifen": 8585,
      "uniform": 8586,
      "skir": 8587,
      "hauptort": 8588,
      "hochzeit": 8589,
      "cornel": 8590,
      "visual": 8591,
      "trainieren": 8592,
      "dortig": 8593,
      "swimming": 8594,
      "schwimm": 8595,
      "empha": 8596,
      "schulter": 8597,
      "spare": 8598,
      "kuh": 8599,
      "aerger": 8600,
      "drome": 8601,
      "rats": 8602,
      "stroe": 8603,
      "irgendwann": 8604,
      "gewinn": 8605,
      "palace": 8606,
      "bindung": 8607,
      "enthus": 8608,
      "sweden": 8609,
      "researcher": 8610,
      "pilgr": 8611,
      "immig": 8612,
      "celer": 8613,
      "alternativ": 8614,
      "bisherig": 8615,
      "farming": 8616,
      "diskutieren": 8617,
      "employment": 8618,
      "installieren": 8619,
      "mexico": 8620,
      "nutzung": 8621,
      "stuerzen": 8622,
      "conscious": 8623,
      "diagno": 8624,
      "kommentar": 8625,
      "gewoehnlich": 8626,
      "apprenticeship": 8627,
      "seventy": 8628,
      "spunkt": 8629,
      "mediterrane": 8630,
      "teufel": 8631,
      "fossil": 8632,
      "nikolaus": 8633,
      "scratch": 8634,
      "delivery": 8635,
      "etablieren": 8636,
      "columbia": 8637,
      "pronounce": 8638,
      "purchase": 8639,
      "bou": 8640,
      "ewig": 8641,
      "gger": 8642,
      "gant": 8643,
      "hunter": 8644,
      "ji": 8645,
      "kins": 8646,
      "mister": 8647,
      "oster": 8648,
      "pant": 8649,
      "intel": 8650,
      "theodor": 8651,
      "relax": 8652,
      "arte": 8653,
      "arron": 8654,
      "schum": 8655,
      "vere": 8656,
      "vermoegen": 8657,
      "verfasste": 8658,
      "debut": 8659,
      "icide": 8660,
      "rasch": 8661,
      "rass": 8662,
      "raeger": 8663,
      "entlang": 8664,
      "weh": 8665,
      "weser": 8666,
      "noetigen": 8667,
      "impress": 8668,
      "berge": 8669,
      "utter": 8670,
      "istischen": 8671,
      "ruhig": 8672,
      "perio": 8673,
      "fame": 8674,
      "voran": 8675,
      "java": 8676,
      "reide": 8677,
      "burgh": 8678,
      "partie": 8679,
      "collo": 8680,
      "langfristig": 8681,
      "schott": 8682,
      "breis": 8683,
      "observ": 8684,
      "gucken": 8685,
      "klappe": 8686,
      "lettern": 8687,
      "fulda": 8688,
      "finding": 8689,
      "stoss": 8690,
      "stove": 8691,
      "ktions": 8692,
      "mittels": 8693,
      "brae": 8694,
      "wachen": 8695,
      "freiheit": 8696,
      "balken": 8697,
      "guess": 8698,
      "media": 8699,
      "schwerin": 8700,
      "thorough": 8701,
      "nutzer": 8702,
      "saemt": 8703,
      "prinz": 8704,
      "irgendwel": 8705,
      "sparen": 8706,
      "fluessig": 8707,
      "chemie": 8708,
      "ivalent": 8709,
      "witten": 8710,
      "properly": 8711,
      "bezirks": 8712,
      "magazin": 8713,
      "julius": 8714,
      "wues": 8715,
      "birthday": 8716,
      "zuege": 8717,
      "negativ": 8718,
      "ssystem": 8719,
      "breeding": 8720,
      "toilet": 8721,
      "schwaeche": 8722,
      "sunday": 8723,
      "rhythm": 8724,
      "verletzen": 8725,
      "pizza": 8726,
      "waertig": 8727,
      "deputy": 8728,
      "grossteil": 8729,
      "konzentrieren": 8730,
      "dissement": 8731,
      "dissolve": 8732,
      "britannien": 8733,
      "netherlands": 8734,
      "mediterranean": 8735,
      "arrondissement": 8736,
      "ack": 8737,
      "fate": 8738,
      "fisher": 8739,
      "guer": 8740,
      "ido": 8741,
      "oven": 8742,
      "pic": 8743,
      "vise": 8744,
      "zelle": 8745,
      "erkenn": 8746,
      "chat": 8747,
      "inate": 8748,
      "arl": 8749,
      "leop": 8750,
      "gehalt": 8751,
      "verbrauch": 8752,
      "amph": 8753,
      "achse": 8754,
      "forth": 8755,
      "zeal": 8756,
      "ausweis": 8757,
      "mast": 8758,
      "heran": 8759,
      "ifizieren": 8760,
      "steht": 8761,
      "confe": 8762,
      "withdraw": 8763,
      "wound": 8764,
      "canada": 8765,
      "shire": 8766,
      "lub": 8767,
      "ferien": 8768,
      "quo": 8769,
      "shed": 8770,
      "fressen": 8771,
      "angestell": 8772,
      "otic": 8773,
      "garant": 8774,
      "garbage": 8775,
      "voir": 8776,
      "grossbritannien": 8777,
      "ansaessig": 8778,
      "bereitung": 8779,
      "fellow": 8780,
      "starting": 8781,
      "politiker": 8782,
      "ketch": 8783,
      "schwanger": 8784,
      "weilen": 8785,
      "spreng": 8786,
      "fuenfzig": 8787,
      "statur": 8788,
      "classification": 8789,
      "palat": 8790,
      "herausgeber": 8791,
      "definieren": 8792,
      "wissenschaftler": 8793,
      "freundschaft": 8794,
      "gymna": 8795,
      "frost": 8796,
      "widely": 8797,
      "independently": 8798,
      "krankenhaus": 8799,
      "quantity": 8800,
      "vereinigung": 8801,
      "therapy": 8802,
      "kapitaen": 8803,
      "ologe": 8804,
      "renaissance": 8805,
      "honest": 8806,
      "hetti": 8807,
      "athlete": 8808,
      "spaghetti": 8809,
      "vortrag": 8810,
      "austragen": 8811,
      "convince": 8812,
      "magdeburg": 8813,
      "decisive": 8814,
      "bachelor": 8815,
      "gewebe": 8816,
      "groesstenteils": 8817,
      "jure": 8818,
      "oon": 8819,
      "oef": 8820,
      "shr": 8821,
      "uation": 8822,
      "erheben": 8823,
      "endige": 8824,
      "chum": 8825,
      "infan": 8826,
      "beir": 8827,
      "beissen": 8828,
      "rette": 8829,
      "gebrauchen": 8830,
      "geschoss": 8831,
      "urlaub": 8832,
      "andina": 8833,
      "verbringen": 8834,
      "verlangen": 8835,
      "versammlung": 8836,
      "verdanken": 8837,
      "dess": 8838,
      "rapper": 8839,
      "entially": 8840,
      "uebung": 8841,
      "wem": 8842,
      "berue": 8843,
      "kett": 8844,
      "logo": 8845,
      "ablauf": 8846,
      "mitbringen": 8847,
      "ausstellen": 8848,
      "ulf": 8849,
      "ulm": 8850,
      "ulrich": 8851,
      "arts": 8852,
      "diverse": 8853,
      "sustain": 8854,
      "bob": 8855,
      "bahnen": 8856,
      "ferner": 8857,
      "merit": 8858,
      "presence": 8859,
      "lith": 8860,
      "samuel": 8861,
      "oktober": 8862,
      "akku": 8863,
      "immerhin": 8864,
      "geschenk": 8865,
      "fluid": 8866,
      "zack": 8867,
      "kredit": 8868,
      "deutschsprachig": 8869,
      "brazil": 8870,
      "crisis": 8871,
      "valve": 8872,
      "hamburger": 8873,
      "ohnehin": 8874,
      "menschlich": 8875,
      "fleet": 8876,
      "basel": 8877,
      "basieren": 8878,
      "maechtig": 8879,
      "duesseldorf": 8880,
      "calm": 8881,
      "silent": 8882,
      "schaetzung": 8883,
      "literarisch": 8884,
      "amongst": 8885,
      "arnold": 8886,
      "scheinbar": 8887,
      "glaub": 8888,
      "motorrad": 8889,
      "jura": 8890,
      "scow": 8891,
      "muller": 8892,
      "mounta": 8893,
      "separately": 8894,
      "establishment": 8895,
      "aktivitaet": 8896,
      "psychiat": 8897,
      "crystal": 8898,
      "finanziell": 8899,
      "variable": 8900,
      "japanisch": 8901,
      "pferde": 8902,
      "konstruieren": 8903,
      "telephone": 8904,
      "bedingung": 8905,
      "bowl": 8906,
      "theoret": 8907,
      "verbessern": 8908,
      "luxemburg": 8909,
      "horizon": 8910,
      "bedienung": 8911,
      "kategorie": 8912,
      "eliminate": 8913,
      "bang": 8914,
      "bunt": 8915,
      "esch": 8916,
      "falt": 8917,
      "holl": 8918,
      "maus": 8919,
      "ringen": 8920,
      "reinig": 8921,
      "erlernen": 8922,
      "chol": 8923,
      "chern": 8924,
      "inspire": 8925,
      "thread": 8926,
      "bec": 8927,
      "recover": 8928,
      "ari": 8929,
      "meal": 8930,
      "debt": 8931,
      "haken": 8932,
      "noet": 8933,
      "dot": 8934,
      "maenner": 8935,
      "iffen": 8936,
      "kohl": 8937,
      "voneinander": 8938,
      "affen": 8939,
      "artiller": 8940,
      "vorgehen": 8941,
      "vorgang": 8942,
      "nago": 8943,
      "nazi": 8944,
      "shoulder": 8945,
      "diesen": 8946,
      "senden": 8947,
      "plier": 8948,
      "planning": 8949,
      "vibr": 8950,
      "minim": 8951,
      "freder": 8952,
      "iale": 8953,
      "demnach": 8954,
      "strahlen": 8955,
      "holt": 8956,
      "putation": 8957,
      "oeffnung": 8958,
      "diox": 8959,
      "tribut": 8960,
      "considerable": 8961,
      "hyper": 8962,
      "patent": 8963,
      "silence": 8964,
      "massage": 8965,
      "fashion": 8966,
      "gestalt": 8967,
      "niedersachsen": 8968,
      "britische": 8969,
      "virgin": 8970,
      "cash": 8971,
      "heilige": 8972,
      "freundin": 8973,
      "knoten": 8974,
      "amerikaner": 8975,
      "frequent": 8976,
      "frequenz": 8977,
      "jena": 8978,
      "geograph": 8979,
      "treatment": 8980,
      "wartung": 8981,
      "europaeische": 8982,
      "occupation": 8983,
      "politician": 8984,
      "insekt": 8985,
      "lucky": 8986,
      "umgangsspra": 8987,
      "verstaerken": 8988,
      "reservoir": 8989,
      "kretaer": 8990,
      "orthodox": 8991,
      "asp": 8992,
      "digkeit": 8993,
      "kaeu": 8994,
      "kiste": 8995,
      "plu": 8996,
      "rend": 8997,
      "seller": 8998,
      "uum": 8999,
      "zeln": 9000,
      "erwin": 9001,
      "erbauen": 9002,
      "ensure": 9003,
      "indem": 9004,
      "anfangen": 9005,
      "stel": 9006,
      "bean": 9007,
      "beque": 9008,
      "itim": 9009,
      "leser": 9010,
      "gesp": 9011,
      "gefa": 9012,
      "versicherung": 9013,
      "deserve": 9014,
      "haber": 9015,
      "raft": 9016,
      "zuschauer": 9017,
      "manfred": 9018,
      "abstieg": 9019,
      "abbey": 9020,
      "henry": 9021,
      "kore": 9022,
      "kobl": 9023,
      "prot": 9024,
      "prophe": 9025,
      "wag": 9026,
      "tack": 9027,
      "dible": 9028,
      "duction": 9029,
      "illness": 9030,
      "vorbereiten": 9031,
      "excell": 9032,
      "trage": 9033,
      "backen": 9034,
      "gaeng": 9035,
      "marx": 9036,
      "internationally": 9037,
      "grafen": 9038,
      "andern": 9039,
      "staend": 9040,
      "kraut": 9041,
      "teilnehmen": 9042,
      "stufen": 9043,
      "konferenz": 9044,
      "hinweis": 9045,
      "ungslos": 9046,
      "elector": 9047,
      "held": 9048,
      "berecht": 9049,
      "begab": 9050,
      "archive": 9051,
      "westfal": 9052,
      "germans": 9053,
      "dreieck": 9054,
      "charles": 9055,
      "criter": 9056,
      "subordinate": 9057,
      "ichtet": 9058,
      "magne": 9059,
      "southwest": 9060,
      "fuell": 9061,
      "officially": 9062,
      "sauber": 9063,
      "bernd": 9064,
      "significance": 9065,
      "franken": 9066,
      "eishockey": 9067,
      "gottingen": 9068,
      "kuenstlerisch": 9069,
      "regensburg": 9070,
      "worthy": 9071,
      "variation": 9072,
      "axis": 9073,
      "medizinisch": 9074,
      "mittelalterlich": 9075,
      "batterie": 9076,
      "advise": 9077,
      "hirsch": 9078,
      "imagine": 9079,
      "suedoestlich": 9080,
      "greifswald": 9081,
      "discovery": 9082,
      "erledigen": 9083,
      "rathaus": 9084,
      "investigate": 9085,
      "consumption": 9086,
      "cultivate": 9087,
      "splatz": 9088,
      "abbreviation": 9089,
      "katharina": 9090,
      "durchschnittlich": 9091,
      "ape": 9092,
      "bble": 9093,
      "ec": 9094,
      "eh": 9095,
      "gap": 9096,
      "gio": 9097,
      "hun": 9098,
      "teller": 9099,
      "whis": 9100,
      "chy": 9101,
      "inne": 9102,
      "anony": 9103,
      "einnahme": 9104,
      "ordens": 9105,
      "ished": 9106,
      "lecker": 9107,
      "tough": 9108,
      "verab": 9109,
      "deb": 9110,
      "dece": 9111,
      "deta": 9112,
      "rach": 9113,
      "lav": 9114,
      "forbid": 9115,
      "ausflug": 9116,
      "ausschliessen": 9117,
      "magen": 9118,
      "ifer": 9119,
      "steck": 9120,
      "aff": 9121,
      "tai": 9122,
      "duden": 9123,
      "nabel": 9124,
      "brau": 9125,
      "ueberschreiten": 9126,
      "saw": 9127,
      "sile": 9128,
      "seln": 9129,
      "unterstellen": 9130,
      "lippe": 9131,
      "kriter": 9132,
      "teils": 9133,
      "ernae": 9134,
      "ppich": 9135,
      "gebil": 9136,
      "northeast": 9137,
      "bitten": 9138,
      "geschue": 9139,
      "trotzen": 9140,
      "gleichung": 9141,
      "observation": 9142,
      "disturb": 9143,
      "tempel": 9144,
      "worldwide": 9145,
      "tagonist": 9146,
      "swim": 9147,
      "heimer": 9148,
      "tiny": 9149,
      "realitaet": 9150,
      "binde": 9151,
      "download": 9152,
      "october": 9153,
      "eignet": 9154,
      "qualify": 9155,
      "cracy": 9156,
      "bekann": 9157,
      "regeln": 9158,
      "rueckkehr": 9159,
      "sixth": 9160,
      "motoren": 9161,
      "miller": 9162,
      "berufen": 9163,
      "sperre": 9164,
      "wissenschaftliche": 9165,
      "michel": 9166,
      "couch": 9167,
      "necessarily": 9168,
      "lehrerin": 9169,
      "saft": 9170,
      "lockern": 9171,
      "cleaning": 9172,
      "verbreit": 9173,
      "erinnerung": 9174,
      "camping": 9175,
      "thailand": 9176,
      "physik": 9177,
      "sharp": 9178,
      "geburtstag": 9179,
      "atmosphere": 9180,
      "toilette": 9181,
      "argentin": 9182,
      "remarkable": 9183,
      "praegt": 9184,
      "pillar": 9185,
      "betroffen": 9186,
      "goettingen": 9187,
      "executive": 9188,
      "breisgau": 9189,
      "noetig": 9190,
      "criterion": 9191,
      "abel": 9192,
      "emot": 9193,
      "iam": 9194,
      "klettern": 9195,
      "maur": 9196,
      "narr": 9197,
      "sque": 9198,
      "tina": 9199,
      "witt": 9200,
      "chim": 9201,
      "infl": 9202,
      "anatom": 9203,
      "onia": 9204,
      "einhundert": 9205,
      "reper": 9206,
      "repor": 9207,
      "ito": 9208,
      "itation": 9209,
      "unsicher": 9210,
      "arist": 9211,
      "issa": 9212,
      "lett": 9213,
      "ieb": 9214,
      "rocket": 9215,
      "igan": 9216,
      "ignore": 9217,
      "versuche": 9218,
      "metz": 9219,
      "medien": 9220,
      "devote": 9221,
      "haeu": 9222,
      "haften": 9223,
      "rake": 9224,
      "wetz": 9225,
      "neo": 9226,
      "asle": 9227,
      "achter": 9228,
      "zuerich": 9229,
      "admir": 9230,
      "abstand": 9231,
      "ausfallen": 9232,
      "math": 9233,
      "ified": 9234,
      "steep": 9235,
      "congress": 9236,
      "propag": 9237,
      "wagon": 9238,
      "taschen": 9239,
      "diabe": 9240,
      "faktor": 9241,
      "vorschrift": 9242,
      "bruecken": 9243,
      "ferry": 9244,
      "worm": 9245,
      "pazif": 9246,
      "plastik": 9247,
      "intervention": 9248,
[...]
