{
  "version": "1.0",
  "truncation": null,
  "padding": null,
  "added_tokens": [
    {
      "id": 0,
      "content": "[UNK]",
      "single_word": false,
      "lstrip": false,
      "rstrip": false,
      "normalized": false,
      "special": true
    },
    {
      "id": 1,
      "content": "[CLS]",
      "single_word": false,
      "lstrip": false,
      "rstrip": false,
      "normalized": false,
      "special": true
    },
    {
      "id": 2,
      "content": "[SEP]",
      "single_word": false,
      "lstrip": false,
      "rstrip": false,
      "normalized": false,
      "special": true
    },
    {
      "id": 3,
      "content": "[PAD]",
      "single_word": false,
      "lstrip": false,
      "rstrip": false,
      "normalized": false,
      "special": true
    },
    {
      "id": 4,
      "content": "[MASK]",
      "single_word": false,
      "lstrip": false,
      "rstrip": false,
      "normalized": false,
      "special": true
    }
  ],
  "normalizer": null,
  "pre_tokenizer": {
    "type": "Whitespace"
  },
  "post_processor": null,
  "decoder": null,
  "model": {
    "type": "BPE",
    "dropout": null,
    "unk_token": "[UNK]",
    "continuing_subword_prefix": null,
    "end_of_word_suffix": null,
    "fuse_unk": false,
    "vocab": {
      "[UNK]": 0,
      "[CLS]": 1,
      "[SEP]": 2,
      "[PAD]": 3,
      "[MASK]": 4,
      "!": 5,
      "\"": 6,
      "'": 7,
      ",": 8,
      "-": 9,
      ".": 10,
      "/": 11,
      "0": 12,
      "1": 13,
      "2": 14,
      "3": 15,
      "4": 16,
      "5": 17,
      "6": 18,
      "7": 19,
      "8": 20,
      "9": 21,
      ":": 22,
      ";": 23,
      "?": 24,
      "A": 25,
      "B": 26,
      "C": 27,
      "D": 28,
      "E": 29,
      "F": 30,
      "G": 31,
      "H": 32,
      "I": 33,
      "J": 34,
      "K": 35,
      "L": 36,
      "M": 37,
      "N": 38,
      "O": 39,
      "P": 40,
      "Q": 41,
      "R": 42,
      "S": 43,
      "T": 44,
      "U": 45,
      "V": 46,
      "W": 47,
      "X": 48,
      "Y": 49,
      "Z": 50,
      "[": 51,
      "]": 52,
      "_": 53,
      "`": 54,
      "a": 55,
      "b": 56,
      "c": 57,
      "d": 58,
      "e": 59,
      "f": 60,
      "g": 61,
      "h": 62,
      "i": 63,
      "j": 64,
      "k": 65,
      "l": 66,
      "m": 67,
      "n": 68,
      "o": 69,
      "p": 70,
      "q": 71,
      "r": 72,
      "s": 73,
      "t": 74,
      "u": 75,
      "v": 76,
      "w": 77,
      "x": 78,
      "y": 79,
      "z": 80,
      "er": 81,
      "en": 82,
      "in": 83,
      "ch": 84,
      "th": 85,
      "an": 86,
      "st": 87,
      "EP": 88,
      "SEP": 89,
      "es": 90,
      "on": 91,
      "ie": 92,
      "ar": 93,
      "al": 94,
      "the": 95,
      "is": 96,
      "or": 97,
      "at": 98,
      "it": 99,
      "un": 100,
      "as": 101,
      "ed": 102,
      "el": 103,
      "ich": 104,
      "re": 105,
      "ein": 106,
      "der": 107,
      "au": 108,
      "ur": 109,
      "et": 110,
      "he": 111,
      "le": 112,
      "of": 113,
      "ge": 114,
      "to": 115,
      "de": 116,
      "and": 117,
      "ro": 118,
      "be": 119,
      "il": 120,
      "te": 121,
      "ing": 122,
      "ig": 123,
      "ion": 124,
      "ist": 125,
      "den": 126,
      "am": 127,
      "ou": 128,
      "ol": 129,
      "ic": 130,
      "ver": 131,
      "sch": 132,
      "im": 133,
      "ent": 134,
      "und": 135,
      "ir": 136,
      "om": 137,
      "The": 138,
      "ter": 139,
      "die": 140,
      "se": 141,
      "ra": 142,
      "ung": 143,
      "us": 144,
      "eh": 145,
      "ab": 146,
      "ten": 147,
      "no": 148,
      "ere": 149,
      "ach": 150,
      "we": 151,
      "all": 152,
      "um": 153,
      "for": 154,
      "la": 155,
      "em": 156,
      "ad": 157,
      "gen": 158,
      "icht": 159,
      "ck": 160,
      "ut": 161,
      "ies": 162,
      "was": 163,
      "ue": 164,
      "lo": 165,
      "ier": 166,
      "ct": 167,
      "ve": 168,
      "ber": 169,
      "als": 170,
      "lich": 171,
      "are": 172,
      "isch": 173,
      "sp": 174,
      "ne": 175,
      "ation": 176,
      "zu": 177,
      "ly": 178,
      "In": 179,
      "ess": 180,
      "auf": 181,
      "ann": 182,
      "eine": 183,
      "uer": 184,
      "ha": 185,
      "ind": 186,
      "hr": 187,
      "aus": 188,
      "ell": 189,
      "das": 190,
      "ho": 191,
      "ce": 192,
      "Die": 193,
      "St": 194,
      "war": 195,
      "ith": 196,
      "ul": 197,
      "man": 198,
      "if": 199,
      "hat": 200,
      "ke": 201,
      "ay": 202,
      "Sch": 203,
      "op": 204,
      "sich": 205,
      "ag": 206,
      "mit": 207,
      "id": 208,
      "end": 209,
      "nicht": 210,
      "von": 211,
      "wer": 212,
      "con": 213,
      "ru": 214,
      "ben": 215,
      "dem": 216,
      "ass": 217,
      "with": 218,
      "ehr": 219,
      "his": 220,
      "ts": 221,
      "you": 222,
      "pp": 223,
      "ze": 224,
      "af": 225,
      "des": 226,
      "iv": 227,
      "wir": 228,
      "ill": 229,
      "me": 230,
      "mo": 231,
      "com": 232,
      "so": 233,
      "art": 234,
      "ther": 235,
      "Er": 236,
      "He": 237,
      "do": 238,
      "iel": 239,
      "ib": 240,
      "that": 241,
      "An": 242,
      "enn": 243,
      "wur": 244,
      "ort": 245,
      "kt": 246,
      "not": 247,
      "pro": 248,
      "ain": 249,
      "ant": 250,
      "su": 251,
      "ah": 252,
      "ht": 253,
      "ex": 254,
      "auch": 255,
      "one": 256,
      "eg": 257,
      "pr": 258,
      "ers": 259,
      "fa": 260,
      "co": 261,
      "men": 262,
      "po": 263,
      "est": 264,
      "ang": 265,
      "ik": 266,
      "her": 267,
      "rom": 268,
      "etz": 269,
      "Der": 270,
      "ern": 271,
      "sie": 272,
      "ld": 273,
      "Sie": 274,
      "du": 275,
      "Al": 276,
      "od": 277,
      "Ver": 278,
      "ges": 279,
      "ive": 280,
      "sen": 281,
      "einen": 282,
      "Au": 283,
      "can": 284,
      "ste": 285,
      "per": 286,
      "ien": 287,
      "wor": 288,
      "Un": 289,
      "tr": 290,
      "sind": 291,
      "ot": 292,
      "wurde": 293,
      "wo": 294,
      "fuer": 295,
      "ae": 296,
      "from": 297,
      "uss": 298,
      "ischen": 299,
      "ally": 300,
      "Be": 301,
      "also": 302,
      "ger": 303,
      "mer": 304,
      "Ein": 305,
      "our": 306,
      "ast": 307,
      "by": 308,
      "this": 309,
      "out": 310,
      "ity": 311,
      "hen": 312,
      "ip": 313,
      "wie": 314,
      "have": 315,
      "ame": 316,
      "Das": 317,
      "sh": 318,
      "rie": 319,
      "dies": 320,
      "ma": 321,
      "einer": 322,
      "oll": 323,
      "fe": 324,
      "vor": 325,
      "tra": 326,
      "qu": 327,
      "here": 328,
      "sel": 329,
      "It": 330,
      "ow": 331,
      "ueber": 332,
      "urch": 333,
      "lie": 334,
      "ust": 335,
      "pl": 336,
      "chen": 337,
      "pe": 338,
      "ould": 339,
      "wird": 340,
      "ate": 341,
      "has": 342,
      "bei": 343,
      "werden": 344,
      "ug": 345,
      "fer": 346,
      "aet": 347,
      "ear": 348,
      "up": 349,
      "kann": 350,
      "igen": 351,
      "pla": 352,
      "ated": 353,
      "elt": 354,
      "iz": 355,
      "ok": 356,
      "ak": 357,
      "nach": 358,
      "ft": 359,
      "ong": 360,
      "ial": 361,
      "pt": 362,
      "ran": 363,
      "ss": 364,
      "noch": 365,
      "ine": 366,
      "tim": 367,
      "eit": 368,
      "mal": 369,
      "gel": 370,
      "ild": 371,
      "ungen": 372,
      "bo": 373,
      "wa": 374,
      "uch": 375,
      "sten": 376,
      "Sp": 377,
      "schaf": 378,
      "ick": 379,
      "ater": 380,
      "were": 381,
      "ian": 382,
      "ight": 383,
      "ia": 384,
      "fen": 385,
      "now": 386,
      "hn": 387,
      "its": 388,
      "bl": 389,
      "Ge": 390,
      "way": 391,
      "unter": 392,
      "iert": 393,
      "ous": 394,
      "res": 395,
      "go": 396,
      "Re": 397,
      "ment": 398,
      "ser": 399,
      "br": 400,
      "ome": 401,
      "fu": 402,
      "ac": 403,
      "very": 404,
      "og": 405,
      "hal": 406,
      "ction": 407,
      "gro": 408,
      "ard": 409,
      "age": 410,
      "ert": 411,
      "che": 412,
      "ition": 413,
      "fl": 414,
      "part": 415,
      "fol": 416,
      "there": 417,
      "Ar": 418,
      "ore": 419,
      "ige": 420,
      "ish": 421,
      "gr": 422,
      "einem": 423,
      "weit": 424,
      "Es": 425,
      "ische": 426,
      "ice": 427,
      "ander": 428,
      "ure": 429,
      "cht": 430,
      "land": 431,
      "ack": 432,
      "ap": 433,
      "inter": 434,
      "work": 435,
      "dr": 436,
      "ark": 437,
      "kom": 438,
      "bur": 439,
      "ide": 440,
      "will": 441,
      "di": 442,
      "li": 443,
      "ute": 444,
      "Mit": 445,
      "Le": 446,
      "geb": 447,
      "ko": 448,
      "En": 449,
      "ely": 450,
      "str": 451,
      "get": 452,
      "cl": 453,
      "time": 454,
      "So": 455,
      "ont": 456,
      "ahr": 457,
      "ueck": 458,
      "stell": 459,
      "any": 460,
      "eng": 461,
      "iss": 462,
      "other": 463,
      "ord": 464,
      "Ne": 465,
      "app": 466,
      "da": 467,
      "vers": 468,
      "och": 469,
      "This": 470,
      "ihr": 471,
      "off": 472,
      "Im": 473,
      "able": 474,
      "ete": 475,
      "rit": 476,
      "os": 477,
      "durch": 478,
      "thing": 479,
      "nur": 480,
      "fo": 481,
      "Nach": 482,
      "wh": 483,
      "ans": 484,
      "bes": 485,
      "zum": 486,
      "Dies": 487,
      "zur": 488,
      "fin": 489,
      "ise": 490,
      "hab": 491,
      "form": 492,
      "gan": 493,
      "ungs": 494,
      "etzt": 495,
      "inn": 496,
      "av": 497,
      "ult": 498,
      "schaft": 499,
      "Ger": 500,
      "mehr": 501,
      "stu": 502,
      "ele": 503,
      "ical": 504,
      "att": 505,
      "We": 506,
      "Auf": 507,
      "stand": 508,
      "ite": 509,
      "spe": 510,
      "itz": 511,
      "ven": 512,
      "gt": 513,
      "Pro": 514,
      "ree": 515,
      "steh": 516,
      "ff": 517,
      "oder": 518,
      "ign": 519,
      "ins": 520,
      "Aus": 521,
      "ih": 522,
      "ary": 523,
      "lin": 524,
      "old": 525,
      "bet": 526,
      "fir": 527,
      "rei": 528,
      "wn": 529,
      "only": 530,
      "ens": 531,
      "act": 532,
      "uen": 533,
      "ibt": 534,
      "hin": 535,
      "under": 536,
      "ehl": 537,
      "alt": 538,
      "Her": 539,
      "mus": 540,
      "adt": 541,
      "Or": 542,
      "bar": 543,
      "more": 544,
      "ese": 545,
      "ren": 546,
      "reich": 547,
      "mt": 548,
      "had": 549,
      "fr": 550,
      "ase": 551,
      "mach": 552,
      "ph": 553,
      "par": 554,
      "ster": 555,
      "You": 556,
      "igh": 557,
      "your": 558,
      "sein": 559,
      "ob": 560,
      "aber": 561,
      "Vor": 562,
      "bu": 563,
      "day": 564,
      "There": 565,
      "two": 566,
      "year": 567,
      "cre": 568,
      "ange": 569,
      "low": 570,
      "iden": 571,
      "some": 572,
      "zwe": 573,
      "kl": 574,
      "min": 575,
      "reg": 576,
      "dass": 577,
      "Zeit": 578,
      "read": 579,
      "alle": 580,
      "oe": 581,
      "assen": 582,
      "soll": 583,
      "bel": 584,
      "rem": 585,
      "know": 586,
      "Te": 587,
      "him": 588,
      "jed": 589,
      "first": 590,
      "beit": 591,
      "atz": 592,
      "ty": 593,
      "tern": 594,
      "Se": 595,
      "ings": 596,
      "aen": 597,
      "Ber": 598,
      "lichen": 599,
      "Ich": 600,
      "Ges": 601,
      "gesch": 602,
      "amp": 603,
      "red": 604,
      "je": 605,
      "lies": 606,
      "they": 607,
      "haben": 608,
      "burg": 609,
      "like": 610,
      "ennen": 611,
      "leich": 612,
      "ied": 613,
      "ken": 614,
      "my": 615,
      "ieren": 616,
      "She": 617,
      "over": 618,
      "Ab": 619,
      "liche": 620,
      "she": 621,
      "cc": 622,
      "ry": 623,
      "For": 624,
      "ta": 625,
      "but": 626,
      "eren": 627,
      "again": 628,
      "De": 629,
      "ces": 630,
      "zeit": 631,
      "ble": 632,
      "fuehr": 633,
      "play": 634,
      "most": 635,
      "wieder": 636,
      "les": 637,
      "ational": 638,
      "bis": 639,
      "ett": 640,
      "sc": 641,
      "pu": 642,
      "ors": 643,
      "pre": 644,
      "into": 645,
      "ler": 646,
      "fall": 647,
      "Ch": 648,
      "port": 649,
      "ations": 650,
      "dis": 651,
      "sy": 652,
      "sho": 653,
      "essen": 654,
      "utsch": 655,
      "mon": 656,
      "dar": 657,
      "Ho": 658,
      "eln": 659,
      "ahl": 660,
      "Do": 661,
      "Th": 662,
      "hand": 663,
      "German": 664,
      "los": 665,
      "keit": 666,
      "zen": 667,
      "ict": 668,
      "olog": 669,
      "ds": 670,
      "ks": 671,
      "ons": 672,
      "been": 673,
      "onn": 674,
      "ath": 675,
      "used": 676,
      "int": 677,
      "Af": 678,
      "ile": 679,
      "immer": 680,
      "find": 681,
      "schon": 682,
      "about": 683,
      "net": 684,
      "new": 685,
      "Fl": 686,
      "unt": 687,
      "wurden": 688,
      "amil": 689,
      "Mar": 690,
      "\".": 691,
      "ance": 692,
      "aut": 693,
      "mat": 694,
      "gibt": 695,
      "ents": 696,
      "still": 697,
      "ivers": 698,
      "ory": 699,
      "ahn": 700,
      "gra": 701,
      "teil": 702,
      "ister": 703,
      "ierte": 704,
      "ner": 705,
      "use": 706,
      "ud": 707,
      "mir": 708,
      "after": 709,
      "does": 710,
      "hl": 711,
      "cont": 712,
      "roug": 713,
      "ions": 714,
      "comp": 715,
      "gar": 716,
      "their": 717,
      "then": 718,
      "What": 719,
      "ire": 720,
      "ider": 721,
      "muss": 722,
      "well": 723,
      "uring": 724,
      "eter": 725,
      "aech": 726,
      "ved": 727,
      "bec": 728,
      "istr": 729,
      "mar": 730,
      "After": 731,
      "loc": 732,
      "zwei": 733,
      "gh": 734,
      "Jahr": 735,
      "ehn": 736,
      "Bo": 737,
      "Ko": 738,
      "elle": 739,
      "Ro": 740,
      "atur": 741,
      "seine": 742,
      "Wie": 743,
      "Da": 744,
      "Wo": 745,
      "itt": 746,
      "dif": 747,
      "dition": 748,
      "At": 749,
      "vie": 750,
      "amm": 751,
      "fore": 752,
      "stru": 753,
      "vel": 754,
      "bst": 755,
      "should": 756,
      "just": 757,
      "Br": 758,
      "pol": 759,
      "pos": 760,
      "Land": 761,
      "urn": 762,
      "iger": 763,
      "rel": 764,
      "bre": 765,
      "Ma": 766,
      "gl": 767,
      "cent": 768,
      "spiel": 769,
      "ingen": 770,
      "who": 771,
      "viel": 772,
      "ced": 773,
      "every": 774,
      "Wer": 775,
      "ause": 776,
      "ious": 777,
      "mun": 778,
      "eld": 779,
      "sta": 780,
      "seiner": 781,
      "scho": 782,
      "Man": 783,
      "uns": 784,
      "pres": 785,
      "col": 786,
      "Was": 787,
      "son": 788,
      "would": 789,
      "issen": 790,
      "gend": 791,
      "sol": 792,
      "gleich": 793,
      "arbeit": 794,
      "wever": 795,
      "Wir": 796,
      "bt": 797,
      "dieser": 798,
      "lang": 799,
      "back": 800,
      "rau": 801,
      "ink": 802,
      "dern": 803,
      "ful": 804,
      "ja": 805,
      "On": 806,
      "publ": 807,
      "rough": 808,
      "ople": 809,
      "self": 810,
      "ible": 811,
      "ub": 812,
      "utz": 813,
      "His": 814,
      "Pr": 815,
      "ix": 816,
      "Stadt": 817,
      "which": 818,
      "car": 819,
      "beg": 820,
      "erst": 821,
      "As": 822,
      "Reg": 823,
      "berg": 824,
      "bed": 825,
      "hier": 826,
      "sa": 827,
      "igt": 828,
      "gew": 829,
      "ilm": 830,
      "That": 831,
      "Gr": 832,
      "anz": 833,
      "fahr": 834,
      "They": 835,
      "dam": 836,
      "geho": 837,
      "Am": 838,
      "aten": 839,
      "Zu": 840,
      "cons": 841,
      "Kl": 842,
      "ways": 843,
      "pra": 844,
      "zeich": 845,
      "But": 846,
      "Mo": 847,
      "med": 848,
      "tel": 849,
      "aupt": 850,
      "ep": 851,
      "isten": 852,
      "steht": 853,
      "ready": 854,
      "Jo": 855,
      "did": 856,
      "richt": 857,
      "Unter": 858,
      "fach": 859,
      "ium": 860,
      "stem": 861,
      "nah": 862,
      "want": 863,
      "people": 864,
      "bere": 865,
      "gest": 866,
      "hy": 867,
      "produ": 868,
      "zw": 869,
      "emp": 870,
      "heit": 871,
      "tw": 872,
      "schen": 873,
      "nt": 874,
      "cted": 875,
      "gegen": 876,
      "itaet": 877,
      "ank": 878,
      "mann": 879,
      "same": 880,
      "cial": 881,
      "them": 882,
      "koennen": 883,
      "ular": 884,
      "Pl": 885,
      "gre": 886,
      "mein": 887,
      "ilt": 888,
      "could": 889,
      "air": 890,
      "rif": 891,
      "Fran": 892,
      "eu": 893,
      "Univers": 894,
      "place": 895,
      "Auch": 896,
      "cle": 897,
      "ale": 898,
      "fre": 899,
      "els": 900,
      "iet": 901,
      "Diese": 902,
      "mu": 903,
      "bit": 904,
      "call": 905,
      "ple": 906,
      "tre": 907,
      "acht": 908,
      "Kom": 909,
      "nam": 910,
      "bro": 911,
      "Um": 912,
      "ative": 913,
      "asse": 914,
      "name": 915,
      "wen": 916,
      "Bl": 917,
      "aeter": 918,
      "Bes": 919,
      "War": 920,
      "liegt": 921,
      "halten": 922,
      "fun": 923,
      "cur": 924,
      "main": 925,
      "already": 926,
      "ade": 927,
      "ci": 928,
      "than": 929,
      "chn": 930,
      "through": 931,
      "hatte": 932,
      "bor": 933,
      "kommen": 934,
      "Is": 935,
      "Kar": 936,
      "nor": 937,
      "many": 938,
      "heute": 939,
      "differ": 940,
      "Eur": 941,
      "gs": 942,
      "ets": 943,
      "waren": 944,
      "Kon": 945,
      "three": 946,
      "vo": 947,
      "city": 948,
      "ech": 949,
      "ates": 950,
      "gu": 951,
      "wenn": 952,
      "tem": 953,
      "ktion": 954,
      "ll": 955,
      "ammen": 956,
      "Par": 957,
      "ried": 958,
      "cken": 959,
      "own": 960,
      "years": 961,
      "vent": 962,
      "dire": 963,
      "ald": 964,
      "ific": 965,
      "what": 966,
      "ities": 967,
      "hel": 968,
      "ual": 969,
      "keine": 970,
      "ys": 971,
      "vier": 972,
      "versch": 973,
      "ember": 974,
      "ihn": 975,
      "always": 976,
      "liess": 977,
      "Gesch": 978,
      "Su": 979,
      "inder": 980,
      "Nor": 981,
      "cess": 982,
      "igkeit": 983,
      "sm": 984,
      "erk": 985,
      "diese": 986,
      "ms": 987,
      "vis": 988,
      "jedoch": 989,
      "If": 990,
      "Du": 991,
      "need": 992,
      "Lu": 993,
      "entlich": 994,
      "sehr": 995,
      "far": 996,
      "ives": 997,
      "To": 998,
      "ppen": 999,
      "long": 1000,
      "lage": 1001,
      "ife": 1002,
      "weiter": 1003,
      "Eine": 1004,
      "stre": 1005,
      "cr": 1006,
      "cy": 1007,
      "stehen": 1008,
      "such": 1009,
      "Gem": 1010,
      "findet": 1011,
      "vom": 1012,
      "child": 1013,
      "folg": 1014,
      "bau": 1015,
      "io": 1016,
      "sur": 1017,
      "right": 1018,
      "No": 1019,
      "Bau": 1020,
      "Me": 1021,
      "Bei": 1022,
      "best": 1023,
      "Str": 1024,
      "found": 1025,
      "oren": 1026,
      "sche": 1027,
      "mich": 1028,
      "weise": 1029,
      "eder": 1030,
      "drei": 1031,
      "How": 1032,
      "num": 1033,
      "Welt": 1034,
      "cor": 1035,
      "cour": 1036,
      "ship": 1037,
      "ihm": 1038,
      "que": 1039,
      "ehmen": 1040,
      "nie": 1041,
      "geben": 1042,
      "dann": 1043,
      "famil": 1044,
      "too": 1045,
      "ough": 1046,
      "ics": 1047,
      "onder": 1048,
      "school": 1049,
      "zie": 1050,
      "ient": 1051,
      "look": 1052,
      "sk": 1053,
      "hol": 1054,
      "doch": 1055,
      "made": 1056,
      "led": 1057,
      "xt": 1058,
      "serv": 1059,
      "ital": 1060,
      "etwas": 1061,
      "turn": 1062,
      "amen": 1063,
      "Fuer": 1064,
      "orf": 1065,
      "lar": 1066,
      "imm": 1067,
      "ischer": 1068,
      "usammen": 1069,
      "Gro": 1070,
      "test": 1071,
      "However": 1072,
      "vol": 1073,
      "stellt": 1074,
      "cher": 1075,
      "ron": 1076,
      "With": 1077,
      "national": 1078,
      "Als": 1079,
      "build": 1080,
      "ually": 1081,
      "ional": 1082,
      "And": 1083,
      "see": 1084,
      "ga": 1085,
      "kommt": 1086,
      "four": 1087,
      "ants": 1088,
      "Haupt": 1089,
      "reis": 1090,
      "Europ": 1091,
      "even": 1092,
      "eines": 1093,
      "einfach": 1094,
      "Co": 1095,
      "ince": 1096,
      "distr": 1097,
      "Berlin": 1098,
      "konn": 1099,
      "pen": 1100,
      "geht": 1101,
      "take": 1102,
      "alk": 1103,
      "last": 1104,
      "supp": 1105,
      "bra": 1106,
      "cts": 1107,
      "El": 1108,
      "ellen": 1109,
      "Wenn": 1110,
      "later": 1111,
      "All": 1112,
      "pass": 1113,
      "Fre": 1114,
      "Teil": 1115,
      "located": 1116,
      "West": 1117,
      "eten": 1118,
      "Men": 1119,
      "hist": 1120,
      "Deutsch": 1121,
      "became": 1122,
      "when": 1123,
      "ically": 1124,
      "cond": 1125,
      "ctor": 1126,
      "poss": 1127,
      "bekann": 1128,
      "ently": 1129,
      "area": 1130,
      "zahl": 1131,
      "oeff": 1132,
      "Dar": 1133,
      "sollte": 1134,
      "compl": 1135,
      "ident": 1136,
      "Lo": 1137,
      "aeu": 1138,
      "schu": 1139,
      "put": 1140,
      "iter": 1141,
      "Mus": 1142,
      "come": 1143,
      "ded": 1144,
      "lot": 1145,
      "nis": 1146,
      "follow": 1147,
      "ail": 1148,
      "head": 1149,
      "train": 1150,
      "eing": 1151,
      "Pol": 1152,
      "less": 1153,
      "ats": 1154,
      "Wa": 1155,
      "Dan": 1156,
      "Ha": 1157,
      "bas": 1158,
      "stadt": 1159,
      "bin": 1160,
      "Ad": 1161,
      "ished": 1162,
      "erson": 1163,
      "unde": 1164,
      "ri": 1165,
      "Gra": 1166,
      "fur": 1167,
      "habe": 1168,
      "row": 1169,
      "import": 1170,
      "eben": 1171,
      "kur": 1172,
      "zo": 1173,
      "press": 1174,
      "Hand": 1175,
      "gab": 1176,
      "wend": 1177,
      "When": 1178,
      "ists": 1179,
      "schn": 1180,
      "how": 1181,
      "ized": 1182,
      "Com": 1183,
      "water": 1184,
      "ters": 1185,
      "west": 1186,
      "known": 1187,
      "Gru": 1188,
      "annt": 1189,
      "sub": 1190,
      "ived": 1191,
      "enf": 1192,
      "char": 1193,
      "cke": 1194,
      "ierung": 1195,
      "Leben": 1196,
      "high": 1197,
      "ize": 1198,
      "ball": 1199,
      "selbst": 1200,
      "ef": 1201,
      "seinen": 1202,
      "ween": 1203,
      "cord": 1204,
      "called": 1205,
      "mark": 1206,
      "ym": 1207,
      "ps": 1208,
      "heim": 1209,
      "star": 1210,
      "lassen": 1211,
      "start": 1212,
      "wuer": 1213,
      "Gemein": 1214,
      "ves": 1215,
      "halb": 1216,
      "got": 1217,
      "bild": 1218,
      "hne": 1219,
      "coun": 1220,
      "rot": 1221,
      "sever": 1222,
      "zwischen": 1223,
      "Chr": 1224,
      "gut": 1225,
      "these": 1226,
      "Sta": 1227,
      "igin": 1228,
      "entr": 1229,
      "band": 1230,
      "different": 1231,
      "Seine": 1232,
      "kehr": 1233,
      "zurueck": 1234,
      "ihre": 1235,
      "lag": 1236,
      "bus": 1237,
      "between": 1238,
      "ily": 1239,
      "Min": 1240,
      "Tra": 1241,
      "ehen": 1242,
      "eglich": 1243,
      "Wor": 1244,
      "let": 1245,
      "ator": 1246,
      "ody": 1247,
      "present": 1248,
      "del": 1249,
      "az": 1250,
      "during": 1251,
      "voll": 1252,
      "make": 1253,
      "ca": 1254,
      "good": 1255,
      "clo": 1256,
      "wards": 1257,
      "ccess": 1258,
      "often": 1259,
      "ason": 1260,
      "arch": 1261,
      "Frau": 1262,
      "sehen": 1263,
      "ged": 1264,
      "nichts": 1265,
      "Den": 1266,
      "ues": 1267,
      "egt": 1268,
      "ativ": 1269,
      "ieden": 1270,
      "Sa": 1271,
      "ence": 1272,
      "na": 1273,
      "Geb": 1274,
      "aller": 1275,
      "pa": 1276,
      "Kinder": 1277,
      "glie": 1278,
      "unden": 1279,
      "Gen": 1280,
      "macht": 1281,
      "Ste": 1282,
      "don": 1283,
      "velop": 1284,
      "Hier": 1285,
      "ement": 1286,
      "Und": 1287,
      "Seit": 1288,
      "success": 1289,
      "Auss": 1290,
      "member": 1291,
      "weg": 1292,
      "esen": 1293,
      "dest": 1294,
      "sign": 1295,
      "val": 1296,
      "spaeter": 1297,
      "diesem": 1298,
      "system": 1299,
      "viele": 1300,
      "lau": 1301,
      "polit": 1302,
      "Spiel": 1303,
      "ette": 1304,
      "outh": 1305,
      "ution": 1306,
      "today": 1307,
      "konnte": 1308,
      "open": 1309,
      "Ex": 1310,
      "Can": 1311,
      "Wass": 1312,
      "letz": 1313,
      "pon": 1314,
      "public": 1315,
      "deutsch": 1316,
      "gener": 1317,
      "down": 1318,
      "tak": 1319,
      "ited": 1320,
      "oper": 1321,
      "much": 1322,
      "Kir": 1323,
      "ennt": 1324,
      "Ober": 1325,
      "lung": 1326,
      "consider": 1327,
      "eigen": 1328,
      "line": 1329,
      "flo": 1330,
      "Tod": 1331,
      "care": 1332,
      "sim": 1333,
      "ately": 1334,
      "miss": 1335,
      "Ort": 1336,
      "Mon": 1337,
      "hof": 1338,
      "side": 1339,
      "organ": 1340,
      "omet": 1341,
      "esser": 1342,
      "anderen": 1343,
      "dont": 1344,
      "vil": 1345,
      "aro": 1346,
      "fru": 1347,
      "think": 1348,
      "develop": 1349,
      "beim": 1350,
      "icip": 1351,
      "addition": 1352,
      "ages": 1353,
      "fuehrt": 1354,
      "undes": 1355,
      "gru": 1356,
      "unk": 1357,
      "where": 1358,
      "town": 1359,
      "show": 1360,
      "prof": 1361,
      "fuenf": 1362,
      "commun": 1363,
      "aster": 1364,
      "bahn": 1365,
      "dir": 1366,
      "fiel": 1367,
      "ature": 1368,
      "aer": 1369,
      "dre": 1370,
      "wohl": 1371,
      "leg": 1372,
      "falls": 1373,
      "died": 1374,
      "without": 1375,
      "za": 1376,
      "orn": 1377,
      "fra": 1378,
      "several": 1379,
      "rich": 1380,
      "hard": 1381,
      "writ": 1382,
      "ouse": 1383,
      "ckt": 1384,
      "ric": 1385,
      "inger": 1386,
      "iff": 1387,
      "var": 1388,
      "sport": 1389,
      "ipp": 1390,
      "esst": 1391,
      "met": 1392,
      "kein": 1393,
      "Christ": 1394,
      "ael": 1395,
      "film": 1396,
      "lack": 1397,
      "schl": 1398,
      "ctions": 1399,
      "family": 1400,
      "team": 1401,
      "remain": 1402,
      "kam": 1403,
      "ted": 1404,
      "pop": 1405,
      "gemein": 1406,
      "jetzt": 1407,
      "zer": 1408,
      "finden": 1409,
      "trans": 1410,
      "besch": 1411,
      "being": 1412,
      "seinem": 1413,
      "important": 1414,
      "gehen": 1415,
      "nen": 1416,
      "alten": 1417,
      "olle": 1418,
      "ehlt": 1419,
      "Bet": 1420,
      "cap": 1421,
      "plan": 1422,
      "Aber": 1423,
      "Schu": 1424,
      "sto": 1425,
      "Sein": 1426,
      "ism": 1427,
      "ahre": 1428,
      "eher": 1429,
      "mil": 1430,
      "einz": 1431,
      "weil": 1432,
      "staend": 1433,
      "krie": 1434,
      "stit": 1435,
      "second": 1436,
      "law": 1437,
      "elf": 1438,
      "Von": 1439,
      "ersten": 1440,
      "ichte": 1441,
      "ielt": 1442,
      "akt": 1443,
      "ones": 1444,
      "stud": 1445,
      "Durch": 1446,
      "real": 1447,
      "position": 1448,
      "aum": 1449,
      "light": 1450,
      "aul": 1451,
      "Schw": 1452,
      "woll": 1453,
      "dec": 1454,
      "took": 1455,
      "One": 1456,
      "unkt": 1457,
      "ultur": 1458,
      "music": 1459,
      "ides": 1460,
      "left": 1461,
      "cker": 1462,
      "liegen": 1463,
      "works": 1464,
      "Mal": 1465,
      "ating": 1466,
      "Fahr": 1467,
      "fest": 1468,
      "schliess": 1469,
      "cept": 1470,
      "ganz": 1471,
      "dien": 1472,
      "stra": 1473,
      "dent": 1474,
      "children": 1475,
      "Wasser": 1476,
      "statt": 1477,
      "loss": 1478,
      "ehrend": 1479,
      "ka": 1480,
      "district": 1481,
      "fig": 1482,
      "setz": 1483,
      "world": 1484,
      "haus": 1485,
      "fahren": 1486,
      "befindet": 1487,
      "aechst": 1488,
      "group": 1489,
      "amt": 1490,
      "ausge": 1491,
      "possible": 1492,
      "bekannt": 1493,
      "Bundes": 1494,
      "Fo": 1495,
      "Po": 1496,
      "isen": 1497,
      "origin": 1498,
      "University": 1499,
      "ght": 1500,
      "enz": 1501,
      "schein": 1502,
      "constru": 1503,
      "ped": 1504,
      "Famil": 1505,
      "rech": 1506,
      "complet": 1507,
      "dich": 1508,
      "kon": 1509,
      "asch": 1510,
      "alles": 1511,
      "besonder": 1512,
      "zusammen": 1513,
      "ihrer": 1514,
      "must": 1515,
      "verb": 1516,
      "appear": 1517,
      "bitte": 1518,
      "Ihr": 1519,
      "angen": 1520,
      "rest": 1521,
      "ton": 1522,
      "ina": 1523,
      "against": 1524,
      "zehn": 1525,
      "five": 1526,
      "mand": 1527,
      "lagen": 1528,
      "small": 1529,
      "times": 1530,
      "because": 1531,
      "worked": 1532,
      "Grund": 1533,
      "Some": 1534,
      "stein": 1535,
      "top": 1536,
      "bert": 1537,
      "ruck": 1538,
      "really": 1539,
      "try": 1540,
      "Herr": 1541,
      "bs": 1542,
      "Art": 1543,
      "bach": 1544,
      "round": 1545,
      "machen": 1546,
      "life": 1547,
      "book": 1548,
      "tun": 1549,
      "ask": 1550,
      "Ausser": 1551,
      "ede": 1552,
      "amer": 1553,
      "brauch": 1554,
      "techn": 1555,
      "Hol": 1556,
      "urs": 1557,
      "andere": 1558,
      "ott": 1559,
      "meist": 1560,
      "ays": 1561,
      "During": 1562,
      "oft": 1563,
      "point": 1564,
      "building": 1565,
      "Dam": 1566,
      "eden": 1567,
      "mot": 1568,
      "schaften": 1569,
      "wissen": 1570,
      "ument": 1571,
      "gros": 1572,
      "something": 1573,
      "Film": 1574,
      "atten": 1575,
      "dabei": 1576,
      "Des": 1577,
      "Rom": 1578,
      "church": 1579,
      "immt": 1580,
      "Ru": 1581,
      "Tr": 1582,
      "before": 1583,
      "La": 1584,
      "Sy": 1585,
      "ison": 1586,
      "laesst": 1587,
      "ivid": 1588,
      "Its": 1589,
      "Jahre": 1590,
      "Car": 1591,
      "ende": 1592,
      "ines": 1593,
      "company": 1594,
      "Fe": 1595,
      "ace": 1596,
      "Ju": 1597,
      "etter": 1598,
      "Bur": 1599,
      "station": 1600,
      "Schl": 1601,
      "Sh": 1602,
      "\",": 1603,
      "cannot": 1604,
      "dort": 1605,
      "each": 1606,
      "class": 1607,
      "around": 1608,
      "Go": 1609,
      "occ": 1610,
      "ures": 1611,
      "gehoert": 1612,
      "Pra": 1613,
      "fle": 1614,
      "ppe": 1615,
      "Mann": 1616,
      "few": 1617,
      "stop": 1618,
      "tschaft": 1619,
      "These": 1620,
      "ext": 1621,
      "litt": 1622,
      "olf": 1623,
      "ject": 1624,
      "Musik": 1625,
      "Beg": 1626,
      "ift": 1627,
      "Arbeit": 1628,
      "walt": 1629,
      "Dabei": 1630,
      "Gemeinde": 1631,
      "My": 1632,
      "big": 1633,
      "list": 1634,
      "org": 1635,
      "World": 1636,
      "dau": 1637,
      "mag": 1638,
      "iele": 1639,
      "mittel": 1640,
      "both": 1641,
      "Fol": 1642,
      "body": 1643,
      "eller": 1644,
      "wert": 1645,
      "recht": 1646,
      "seit": 1647,
      "werk": 1648,
      "verschieden": 1649,
      "zial": 1650,
      "erste": 1651,
      "rol": 1652,
      "formation": 1653,
      "ially": 1654,
      "number": 1655,
      "ender": 1656,
      "Every": 1657,
      "offen": 1658,
      "cover": 1659,
      "Ent": 1660,
      "run": 1661,
      "ior": 1662,
      "schw": 1663,
      "next": 1664,
      "stellen": 1665,
      "spra": 1666,
      "clear": 1667,
      "Europe": 1668,
      "cast": 1669,
      "dert": 1670,
      "Menschen": 1671,
      "lon": 1672,
      "leicht": 1673,
      "Nie": 1674,
      "beiden": 1675,
      "wind": 1676,
      "going": 1677,
      "Schul": 1678,
      "euch": 1679,
      "bab": 1680,
      "nung": 1681,
      "Stu": 1682,
      "rat": 1683,
      "New": 1684,
      "Amer": 1685,
      "Bahn": 1686,
      "Lie": 1687,
      "ash": 1688,
      "gether": 1689,
      "Dort": 1690,
      "dings": 1691,
      "dio": 1692,
      "Germany": 1693,
      "Mr": 1694,
      "uten": 1695,
      "iving": 1696,
      "satz": 1697,
      "itu": 1698,
      "belie": 1699,
      "kte": 1700,
      "belong": 1701,
      "zeichnet": 1702,
      "kauf": 1703,
      "sw": 1704,
      "Gegen": 1705,
      "Ur": 1706,
      "por": 1707,
      "conne": 1708,
      "ging": 1709,
      "gestellt": 1710,
      "Mitglie": 1711,
      "Bar": 1712,
      "bereits": 1713,
      "iver": 1714,
      "licher": 1715,
      "never": 1716,
      "ohne": 1717,
      "alter": 1718,
      "igung": 1719,
      "beginn": 1720,
      "father": 1721,
      "away": 1722,
      "cro": 1723,
      "free": 1724,
      "jo": 1725,
      "cho": 1726,
      "order": 1727,
      "ends": 1728,
      "course": 1729,
      "Spe": 1730,
      "damit": 1731,
      "Ih": 1732,
      "kes": 1733,
      "fact": 1734,
      "halt": 1735,
      "Con": 1736,
      "room": 1737,
      "power": 1738,
      "pf": 1739,
      "sing": 1740,
      "rece": 1741,
      "grund": 1742,
      "Ausserdem": 1743,
      "wel": 1744,
      "another": 1745,
      "Vol": 1746,
      "prov": 1747,
      "ker": 1748,
      "ene": 1749,
      "lae": 1750,
      "ology": 1751,
      "schied": 1752,
      "erte": 1753,
      "lead": 1754,
      "raft": 1755,
      "Dem": 1756,
      "aden": 1757,
      "hil": 1758,
      "Why": 1759,
      "ku": 1760,
      "iges": 1761,
      "contin": 1762,
      "isst": 1763,
      "nun": 1764,
      "short": 1765,
      "exper": 1766,
      "Stre": 1767,
      "chs": 1768,
      "asst": 1769,
      "spec": 1770,
      "Kur": 1771,
      "Will": 1772,
      "cil": 1773,
      "sha": 1774,
      "state": 1775,
      "esse": 1776,
      "Jahren": 1777,
      "Fra": 1778,
      "played": 1779,
      "himself": 1780,
      "langu": 1781,
      "considered": 1782,
      "gilt": 1783,
      "tho": 1784,
      "weiss": 1785,
      "ihren": 1786,
      "enden": 1787,
      "faell": 1788,
      "spr": 1789,
      "cal": 1790,
      "came": 1791,
      "case": 1792,
      "leben": 1793,
      "Fr": 1794,
      "Sw": 1795,
      "mut": 1796,
      "fast": 1797,
      "zun": 1798,
      "nehmen": 1799,
      "Qu": 1800,
      "cause": 1801,
      "post": 1802,
      "ground": 1803,
      "Ham": 1804,
      "Med": 1805,
      "lange": 1806,
      "little": 1807,
      "gang": 1808,
      "Ende": 1809,
      "Ka": 1810,
      "useum": 1811,
      "auth": 1812,
      "haelt": 1813,
      "ingt": 1814,
      "curr": 1815,
      "Bru": 1816,
      "comes": 1817,
      "irat": 1818,
      "colle": 1819,
      "Krie": 1820,
      "inde": 1821,
      "ike": 1822,
      "wicht": 1823,
      "ret": 1824,
      "appro": 1825,
      "built": 1826,
      "Today": 1827,
      "wick": 1828,
      "chsel": 1829,
      "neue": 1830,
      "allem": 1831,
      "bum": 1832,
      "Frank": 1833,
      "Sal": 1834,
      "rieb": 1835,
      "offic": 1836,
      "reiche": 1837,
      "Universitaet": 1838,
      "pur": 1839,
      "zig": 1840,
      "einander": 1841,
      "har": 1842,
      "ommen": 1843,
      "rank": 1844,
      "ev": 1845,
      "reu": 1846,
      "ament": 1847,
      "chte": 1848,
      "dle": 1849,
      "ucht": 1850,
      "Damit": 1851,
      "Who": 1852,
      "Ze": 1853,
      "feld": 1854,
      "wee": 1855,
      "uenst": 1856,
      "National": 1857,
      "verl": 1858,
      "wohn": 1859,
      "ime": 1860,
      "ments": 1861,
      "muessen": 1862,
      "allen": 1863,
      "ffic": 1864,
      "Vo": 1865,
      "achsen": 1866,
      "Dieser": 1867,
      "Zwe": 1868,
      "ius": 1869,
      "ness": 1870,
      "sicht": 1871,
      "zweit": 1872,
      "chang": 1873,
      "quest": 1874,
      "Kann": 1875,
      "ches": 1876,
      "Intern": 1877,
      "result": 1878,
      "unge": 1879,
      "allow": 1880,
      "dist": 1881,
      "erg": 1882,
      "darauf": 1883,
      "Not": 1884,
      "front": 1885,
      "Dann": 1886,
      "house": 1887,
      "iga": 1888,
      "tens": 1889,
      "Ital": 1890,
      "Spra": 1891,
      "profess": 1892,
      "dra": 1893,
      "loy": 1894,
      "progr": 1895,
      "Neben": 1896,
      "nahm": 1897,
      "histor": 1898,
      "Mu": 1899,
      "Weit": 1900,
      "six": 1901,
      "sequ": 1902,
      "qual": 1903,
      "waere": 1904,
      "village": 1905,
      "eas": 1906,
      "lea": 1907,
      "moeglich": 1908,
      "gerade": 1909,
      "stor": 1910,
      "ief": 1911,
      "Of": 1912,
      "Haus": 1913,
      "iness": 1914,
      "center": 1915,
      "mid": 1916,
      "ders": 1917,
      "fert": 1918,
      "elect": 1919,
      "imes": 1920,
      "wuerde": 1921,
      "construction": 1922,
      "Sohn": 1923,
      "yo": 1924,
      "iven": 1925,
      "Ple": 1926,
      "together": 1927,
      "beh": 1928,
      "Alle": 1929,
      "fand": 1930,
      "incl": 1931,
      "Ob": 1932,
      "pain": 1933,
      "road": 1934,
      "abl": 1935,
      "rift": 1936,
      "Gl": 1937,
      "set": 1938,
      "erous": 1939,
      "asso": 1940,
      "Fin": 1941,
      "isp": 1942,
      "zeug": 1943,
      "speak": 1944,
      "Only": 1945,
      "Ser": 1946,
      "gn": 1947,
      "roll": 1948,
      "agt": 1949,
      "exp": 1950,
      "blie": 1951,
      "rad": 1952,
      "capital": 1953,
      "pat": 1954,
      "itte": 1955,
      "tran": 1956,
      "Deutschland": 1957,
      "omin": 1958,
      "Fern": 1959,
      "special": 1960,
      "koenn": 1961,
      "leit": 1962,
      "ierten": 1963,
      "inz": 1964,
      "Platz": 1965,
      "ights": 1966,
      "Bu": 1967,
      "ey": 1968,
      "sam": 1969,
      "say": 1970,
      "alen": 1971,
      "folgen": 1972,
      "kla": 1973,
      "Hel": 1974,
      "Wil": 1975,
      "thir": 1976,
      "ought": 1977,
      "genau": 1978,
      "Je": 1979,
      "exist": 1980,
      "mor": 1981,
      "ulation": 1982,
      "wirtschaft": 1983,
      "rieben": 1984,
      "international": 1985,
      "sicher": 1986,
      "gesetzt": 1987,
      "lossen": 1988,
      "hum": 1989,
      "etzen": 1990,
      "blo": 1991,
      "ata": 1992,
      "Engl": 1993,
      "spru": 1994,
      "priv": 1995,
      "view": 1996,
      "bad": 1997,
      "ling": 1998,
      "Sued": 1999,
      "may": 2000,
      "Inter": 2001,
      "ester": 2002,
      "board": 2003,
      "Are": 2004,
      "person": 2005,
      "process": 2006,
      "Now": 2007,
      "atuer": 2008,
      "however": 2009,
      "wirk": 2010,
      "Namen": 2011,
      "ward": 2012,
      "opf": 2013,
      "Auto": 2014,
      "groes": 2015,
      "Flug": 2016,
      "Americ": 2017,
      "ismus": 2018,
      "thern": 2019,
      "maess": 2020,
      "better": 2021,
      "Ihre": 2022,
      "park": 2023,
      "igentlich": 2024,
      "ctive": 2025,
      "named": 2026,
      "Please": 2027,
      "punkt": 2028,
      "stat": 2029,
      "Mittel": 2030,
      "ility": 2031,
      "Heute": 2032,
      "Ele": 2033,
      "married": 2034,
      "Then": 2035,
      "ired": 2036,
      "Gu": 2037,
      "ris": 2038,
      "tal": 2039,
      "ika": 2040,
      "studied": 2041,
      "Lebens": 2042,
      "erfolg": 2043,
      "ision": 2044,
      "Frie": 2045,
      "Nicht": 2046,
      "cut": 2047,
      "uf": 2048,
      "haeng": 2049,
      "mehrere": 2050,
      "reichen": 2051,
      "mp": 2052,
      "auto": 2053,
      "heirat": 2054,
      "partic": 2055,
      "fallen": 2056,
      "Ist": 2057,
      "Nord": 2058,
      "yer": 2059,
      "record": 2060,
      "sowie": 2061,
      "prote": 2062,
      "dieses": 2063,
      "Bere": 2064,
      "Best": 2065,
      "Kr": 2066,
      "Mor": 2067,
      "hielt": 2068,
      "ices": 2069,
      "Austr": 2070,
      "Joh": 2071,
      "frei": 2072,
      "home": 2073,
      "tro": 2074,
      "kurz": 2075,
      "quick": 2076,
      "fire": 2077,
      "mitt": 2078,
      "Familie": 2079,
      "went": 2080,
      "rae": 2081,
      "meister": 2082,
      "region": 2083,
      "dro": 2084,
      "iere": 2085,
      "change": 2086,
      "please": 2087,
      "Mil": 2088,
      "iod": 2089,
      "arn": 2090,
      "Schwe": 2091,
      "aende": 2092,
      "ministr": 2093,
      "uecken": 2094,
      "Mein": 2095,
      "inc": 2096,
      "ars": 2097,
      "rail": 2098,
      "mean": 2099,
      "others": 2100,
      "inner": 2101,
      "Weltkrie": 2102,
      "Fir": 2103,
      "things": 2104,
      "Where": 2105,
      "Hoch": 2106,
      "spre": 2107,
      "gebiet": 2108,
      "Char": 2109,
      "almost": 2110,
      "init": 2111,
      "ams": 2112,
      "dazu": 2113,
      "completely": 2114,
      "Wh": 2115,
      "bir": 2116,
      "hinter": 2117,
      "vern": 2118,
      "abel": 2119,
      "ehlen": 2120,
      "ane": 2121,
      "wechsel": 2122,
      "Bel": 2123,
      "design": 2124,
      "why": 2125,
      "Produ": 2126,
      "ames": 2127,
      "everything": 2128,
      "due": 2129,
      "ever": 2130,
      "former": 2131,
      "May": 2132,
      "denn": 2133,
      "gross": 2134,
      "enig": 2135,
      "break": 2136,
      "auer": 2137,
      "utter": 2138,
      "studierte": 2139,
      "Lin": 2140,
      "standen": 2141,
      "ased": 2142,
      "mainly": 2143,
      "Just": 2144,
      "sent": 2145,
      "einmal": 2146,
      "weitere": 2147,
      "further": 2148,
      "dorf": 2149,
      "king": 2150,
      "term": 2151,
      "large": 2152,
      "means": 2153,
      "mass": 2154,
      "platz": 2155,
      "wegen": 2156,
      "untain": 2157,
      "icipal": 2158,
      "lebt": 2159,
      "laeu": 2160,
      "anim": 2161,
      "pper": 2162,
      "proble": 2163,
      "club": 2164,
      "keinen": 2165,
      "lauf": 2166,
      "enough": 2167,
      "ience": 2168,
      "aetig": 2169,
      "milit": 2170,
      "Band": 2171,
      "lex": 2172,
      "office": 2173,
      "Johann": 2174,
      "Dre": 2175,
      "Viel": 2176,
      "lim": 2177,
      "usually": 2178,
      "entwick": 2179,
      "afuer": 2180,
      "Rad": 2181,
      "cks": 2182,
      "hoch": 2183,
      "oph": 2184,
      "meisten": 2185,
      "faehr": 2186,
      "once": 2187,
      "verwend": 2188,
      "omen": 2189,
      "hren": 2190,
      "until": 2191,
      "utzt": 2192,
      "schule": 2193,
      "author": 2194,
      "arr": 2195,
      "Verein": 2196,
      "indust": 2197,
      "lern": 2198,
      "diesen": 2199,
      "help": 2200,
      "Even": 2201,
      "cert": 2202,
      "iker": 2203,
      "community": 2204,
      "atter": 2205,
      "Vater": 2206,
      "vi": 2207,
      "ined": 2208,
      "ither": 2209,
      "Wohn": 2210,
      "great": 2211,
      "longer": 2212,
      "Ben": 2213,
      "rele": 2214,
      "einige": 2215,
      "Schn": 2216,
      "ometimes": 2217,
      "iten": 2218,
      "itel": 2219,
      "ume": 2220,
      "ull": 2221,
      "Gener": 2222,
      "bil": 2223,
      "lives": 2224,
      "won": 2225,
      "acc": 2226,
      "Ja": 2227,
      "trag": 2228,
      "ization": 2229,
      "field": 2230,
      "uerger": 2231,
      "particular": 2232,
      "bank": 2233,
      "fue": 2234,
      "enth": 2235,
      "itten": 2236,
      "ikan": 2237,
      "From": 2238,
      "Pu": 2239,
      "Tag": 2240,
      "Danach": 2241,
      "Sk": 2242,
      "wall": 2243,
      "inen": 2244,
      "Mag": 2245,
      "hunder": 2246,
      "stark": 2247,
      "represent": 2248,
      "ehm": 2249,
      "schnell": 2250,
      "fort": 2251,
      "emer": 2252,
      "etzlich": 2253,
      "stellung": 2254,
      "Gre": 2255,
      "ersch": 2256,
      "incre": 2257,
      "sty": 2258,
      "formed": 2259,
      "sil": 2260,
      "sitz": 2261,
      "among": 2262,
      "edu": 2263,
      "half": 2264,
      "cant": 2265,
      "mov": 2266,
      "fri": 2267,
      "Luft": 2268,
      "Pla": 2269,
      "kir": 2270,
      "elte": 2271,
      "ided": 2272,
      "song": 2273,
      "period": 2274,
      "earch": 2275,
      "ampion": 2276,
      "Ku": 2277,
      "mb": 2278,
      "meine": 2279,
      "itch": 2280,
      "ationen": 2281,
      "sound": 2282,
      "charac": 2283,
      "jem": 2284,
      "ences": 2285,
      "ague": 2286,
      "municipal": 2287,
      "history": 2288,
      "associ": 2289,
      "Oh": 2290,
      "sett": 2291,
      "moved": 2292,
      "gebaut": 2293,
      "support": 2294,
      "Sol": 2295,
      "ting": 2296,
      "besteht": 2297,
      "oney": 2298,
      "Because": 2299,
      "ases": 2300,
      "tour": 2301,
      "sieht": 2302,
      "ians": 2303,
      "vious": 2304,
      "keep": 2305,
      "Person": 2306,
      "equ": 2307,
      "give": 2308,
      "zentr": 2309,
      "teach": 2310,
      "administr": 2311,
      "zogen": 2312,
      "kn": 2313,
      "live": 2314,
      "tru": 2315,
      "arbeitete": 2316,
      "Har": 2317,
      "dan": 2318,
      "mals": 2319,
      "wand": 2320,
      "gefuehrt": 2321,
      "Schau": 2322,
      "sued": 2323,
      "anything": 2324,
      "service": 2325,
      "following": 2326,
      "started": 2327,
      "wants": 2328,
      "reach": 2329,
      "ktur": 2330,
      "athol": 2331,
      "Landes": 2332,
      "Waehrend": 2333,
      "Bild": 2334,
      "Rh": 2335,
      "enter": 2336,
      "echte": 2337,
      "effe": 2338,
      "Per": 2339,
      "cture": 2340,
      "heiratet": 2341,
      "zog": 2342,
      "though": 2343,
      "irgend": 2344,
      "stead": 2345,
      "Roman": 2346,
      "bably": 2347,
      "infl": 2348,
      "oment": 2349,
      "endet": 2350,
      "davon": 2351,
      "local": 2352,
      "wenig": 2353,
      "Gross": 2354,
      "Wel": 2355,
      "cer": 2356,
      "nahmen": 2357,
      "language": 2358,
      "Som": 2359,
      "ony": 2360,
      "season": 2361,
      "Reich": 2362,
      "Karl": 2363,
      "zunaechst": 2364,
      "fang": 2365,
      "naech": 2366,
      "pack": 2367,
      "aher": 2368,
      "doesnt": 2369,
      "Kun": 2370,
      "Mot": 2371,
      "hor": 2372,
      "utes": 2373,
      "typ": 2374,
      "urm": 2375,
      "contra": 2376,
      "Here": 2377,
      "ju": 2378,
      "orts": 2379,
      "dep": 2380,
      "while": 2381,
      "App": 2382,
      "black": 2383,
      "len": 2384,
      "yet": 2385,
      "Coun": 2386,
      "Fuss": 2387,
      "bal": 2388,
      "haeu": 2389,
      "aged": 2390,
      "ktor": 2391,
      "plant": 2392,
      "Natur": 2393,
      "schle": 2394,
      "vest": 2395,
      "zeu": 2396,
      "blieb": 2397,
      "Ta": 2398,
      "etwa": 2399,
      "isse": 2400,
      "achen": 2401,
      "crit": 2402,
      "lu": 2403,
      "conom": 2404,
      "received": 2405,
      "ispiel": 2406,
      "sucht": 2407,
      "Bis": 2408,
      "arily": 2409,
      "Berg": 2410,
      "atuerlich": 2411,
      "bte": 2412,
      "innen": 2413,
      "color": 2414,
      "north": 2415,
      "turned": 2416,
      "verheiratet": 2417,
      "cially": 2418,
      "ban": 2419,
      "fel": 2420,
      "ively": 2421,
      "contain": 2422,
      "born": 2423,
      "Hauptstadt": 2424,
      "racht": 2425,
      "Lehr": 2426,
      "Res": 2427,
      "zt": 2428,
      "death": 2429,
      "Zur": 2430,
      "text": 2431,
      "zug": 2432,
      "angel": 2433,
      "grow": 2434,
      "Mitglied": 2435,
      "Since": 2436,
      "sl": 2437,
      "interest": 2438,
      "behind": 2439,
      "Tor": 2440,
      "cir": 2441,
      "dig": 2442,
      "wig": 2443,
      "ederal": 2444,
      "Gel": 2445,
      "Ir": 2446,
      "Wies": 2447,
      "besser": 2448,
      "Ant": 2449,
      "uecke": 2450,
      "aeude": 2451,
      "quickly": 2452,
      "Russ": 2453,
      "ding": 2454,
      "schwer": 2455,
      "eger": 2456,
      "resp": 2457,
      "ziehen": 2458,
      "Park": 2459,
      "fern": 2460,
      "atch": 2461,
      "else": 2462,
      "ils": 2463,
      "Scho": 2464,
      "business": 2465,
      "successful": 2466,
      "ump": 2467,
      "rench": 2468,
      "Cl": 2469,
      "Part": 2470,
      "bru": 2471,
      "enger": 2472,
      "lost": 2473,
      "schafts": 2474,
      "ample": 2475,
      "Weg": 2476,
      "fil": 2477,
      "become": 2478,
      "icult": 2479,
      "ival": 2480,
      "allerdings": 2481,
      "past": 2482,
      "individ": 2483,
      "employ": 2484,
      "night": 2485,
      "aur": 2486,
      "undred": 2487,
      "young": 2488,
      "Dis": 2489,
      "sal": 2490,
      "win": 2491,
      "erd": 2492,
      "inst": 2493,
      "party": 2494,
      "Buch": 2495,
      "jor": 2496,
      "isiert": 2497,
      "worden": 2498,
      "Fa": 2499,
      "Fru": 2500,
      "role": 2501,
      "affe": 2502,
      "soon": 2503,
      "verwendet": 2504,
      "icher": 2505,
      "prim": 2506,
      "whole": 2507,
      "based": 2508,
      "mel": 2509,
      "erhalten": 2510,
      "reco": 2511,
      "foer": 2512,
      "jaehr": 2513,
      "followed": 2514,
      "eigentlich": 2515,
      "etten": 2516,
      "quar": 2517,
      "food": 2518,
      "grosse": 2519,
      "covered": 2520,
      "taetig": 2521,
      "absol": 2522,
      "ebenfalls": 2523,
      "Hamburg": 2524,
      "happen": 2525,
      "mother": 2526,
      "probably": 2527,
      "jeder": 2528,
      "schoen": 2529,
      "transport": 2530,
      "Brit": 2531,
      "Zusammen": 2532,
      "ified": 2533,
      "Koenig": 2534,
      "staendig": 2535,
      "Sto": 2536,
      "Zweit": 2537,
      "pie": 2538,
      "legen": 2539,
      "schul": 2540,
      "word": 2541,
      "faellt": 2542,
      "det": 2543,
      "tit": 2544,
      "erper": 2545,
      "istic": 2546,
      "seem": 2547,
      "sechs": 2548,
      "ausser": 2549,
      "moechte": 2550,
      "trib": 2551,
      "Mich": 2552,
      "east": 2553,
      "daugh": 2554,
      "respons": 2555,
      "Hal": 2556,
      "hig": 2557,
      "ogra": 2558,
      "darf": 2559,
      "career": 2560,
      "sprechen": 2561,
      "jemand": 2562,
      "Ind": 2563,
      "zeigt": 2564,
      "continu": 2565,
      "Tre": 2566,
      "south": 2567,
      "requ": 2568,
      "imin": 2569,
      "Bre": 2570,
      "Jetzt": 2571,
      "Phil": 2572,
      "lic": 2573,
      "anno": 2574,
      "offer": 2575,
      "Eng": 2576,
      "nahme": 2577,
      "Che": 2578,
      "Chin": 2579,
      "ziel": 2580,
      "heisst": 2581,
      "days": 2582,
      "Untern": 2583,
      "ologie": 2584,
      "Hil": 2585,
      "fte": 2586,
      "erhielt": 2587,
      "zeitig": 2588,
      "Does": 2589,
      "Kirche": 2590,
      "learn": 2591,
      "lands": 2592,
      "week": 2593,
      "Kopf": 2594,
      "Mutter": 2595,
      "ionen": 2596,
      "ended": 2597,
      "Geschichte": 2598,
      "oeffent": 2599,
      "Muen": 2600,
      "bi": 2601,
      "eight": 2602,
      "pho": 2603,
      "schliesslich": 2604,
      "bezeichnet": 2605,
      "iple": 2606,
      "makes": 2607,
      "research": 2608,
      "Also": 2609,
      "yourself": 2610,
      "econom": 2611,
      "adv": 2612,
      "descr": 2613,
      "signific": 2614,
      "Na": 2615,
      "Tour": 2616,
      "dessen": 2617,
      "natur": 2618,
      "drich": 2619,
      "liter": 2620,
      "itter": 2621,
      "rote": 2622,
      "gets": 2623,
      "Prof": 2624,
      "Zug": 2625,
      "hundred": 2626,
      "talk": 2627,
      "isches": 2628,
      "mod": 2629,
      "gesehen": 2630,
      "wood": 2631,
      "wahr": 2632,
      "educ": 2633,
      "Bern": 2634,
      "French": 2635,
      "dou": 2636,
      "pts": 2637,
      "vert": 2638,
      "therefore": 2639,
      "Gar": 2640,
      "forest": 2641,
      "aeft": 2642,
      "working": 2643,
      "diff": 2644,
      "rotz": 2645,
      "Fest": 2646,
      "hau": 2647,
      "defin": 2648,
      "hast": 2649,
      "glau": 2650,
      "said": 2651,
      "deutschen": 2652,
      "since": 2653,
      "herr": 2654,
      "Arch": 2655,
      "englich": 2656,
      "breit": 2657,
      "Friedrich": 2658,
      "Far": 2659,
      "Port": 2660,
      "example": 2661,
      "scheid": 2662,
      "schliessend": 2663,
      "Vi": 2664,
      "reiben": 2665,
      "ampf": 2666,
      "Paris": 2667,
      "castle": 2668,
      "kr": 2669,
      "oest": 2670,
      "early": 2671,
      "spieler": 2672,
      "begann": 2673,
      "numerous": 2674,
      "furt": 2675,
      "Bra": 2676,
      "Paul": 2677,
      "kind": 2678,
      "seven": 2679,
      "ipt": 2680,
      "Main": 2681,
      "alth": 2682,
      "reason": 2683,
      "nothing": 2684,
      "Dieses": 2685,
      "Nur": 2686,
      "ichen": 2687,
      "genommen": 2688,
      "face": 2689,
      "deut": 2690,
      "happ": 2691,
      "Spaeter": 2692,
      "market": 2693,
      "koennte": 2694,
      "Such": 2695,
      "inge": 2696,
      "level": 2697,
      "idge": 2698,
      "various": 2699,
      "remained": 2700,
      "Richt": 2701,
      "hib": 2702,
      "iben": 2703,
      "whe": 2704,
      "anal": 2705,
      "umen": 2706,
      "uest": 2707,
      "English": 2708,
      "Gleich": 2709,
      "ying": 2710,
      "ache": 2711,
      "Proble": 2712,
      "pract": 2713,
      "funden": 2714,
      "direct": 2715,
      "North": 2716,
      "San": 2717,
      "igte": 2718,
      "Stand": 2719,
      "aterial": 2720,
      "hnen": 2721,
      "species": 2722,
      "ums": 2723,
      "handelt": 2724,
      "aechlich": 2725,
      "nal": 2726,
      "tag": 2727,
      "stay": 2728,
      "Wald": 2729,
      "itor": 2730,
      "ellschaft": 2731,
      "mostly": 2732,
      "riff": 2733,
      "character": 2734,
      "Pe": 2735,
      "cra": 2736,
      "ragen": 2737,
      "key": 2738,
      "spielte": 2739,
      "Fall": 2740,
      "ehe": 2741,
      "sou": 2742,
      "album": 2743,
      "seen": 2744,
      "ements": 2745,
      "neuen": 2746,
      "uchs": 2747,
      "strong": 2748,
      "Form": 2749,
      "Kind": 2750,
      "wort": 2751,
      "unterschied": 2752,
      "musste": 2753,
      "Fu": 2754,
      "leav": 2755,
      "selves": 2756,
      "Plan": 2757,
      "Sel": 2758,
      "active": 2759,
      "klar": 2760,
      "Burg": 2761,
      "non": 2762,
      "spricht": 2763,
      "neun": 2764,
      "essel": 2765,
      "antly": 2766,
      "pot": 2767,
      "pect": 2768,
      "Aut": 2769,
      "Kn": 2770,
      "Mark": 2771,
      "welt": 2772,
      "ica": 2773,
      "separ": 2774,
      "ager": 2775,
      "gericht": 2776,
      "zahlreiche": 2777,
      "Sil": 2778,
      "kun": 2779,
      "money": 2780,
      "takes": 2781,
      "Ther": 2782,
      "cell": 2783,
      "partment": 2784,
      "white": 2785,
      "Other": 2786,
      "Zum": 2787,
      "least": 2788,
      "erei": 2789,
      "utung": 2790,
      "near": 2791,
      "necess": 2792,
      "Rueck": 2793,
      "bla": 2794,
      "chter": 2795,
      "ichten": 2796,
      "uren": 2797,
      "verkehr": 2798,
      "jekt": 2799,
      "Hu": 2800,
      "meas": 2801,
      "cross": 2802,
      "Unternehmen": 2803,
      "Don": 2804,
      "hold": 2805,
      "ths": 2806,
      "iste": 2807,
      "mountain": 2808,
      "relativ": 2809,
      "schluss": 2810,
      "recogn": 2811,
      "meinen": 2812,
      "err": 2813,
      "neben": 2814,
      "brother": 2815,
      "Many": 2816,
      "ral": 2817,
      "hair": 2818,
      "heraus": 2819,
      "govern": 2820,
      "aender": 2821,
      "wollte": 2822,
      "Son": 2823,
      "vir": 2824,
      "zir": 2825,
      "adurch": 2826,
      "gabe": 2827,
      "eigenen": 2828,
      "mission": 2829,
      "Dont": 2830,
      "reicht": 2831,
      "apan": 2832,
      "ehler": 2833,
      "modern": 2834,
      "major": 2835,
      "disc": 2836,
      "country": 2837,
      "Kap": 2838,
      "Sitz": 2839,
      "abr": 2840,
      "Techn": 2841,
      "fuehren": 2842,
      "allowed": 2843,
      "Ged": 2844,
      "Name": 2845,
      "egen": 2846,
      "iner": 2847,
      "areas": 2848,
      "besitz": 2849,
      "avail": 2850,
      "See": 2851,
      "close": 2852,
      "Jugend": 2853,
      "situ": 2854,
      "scht": 2855,
      "Insel": 2856,
      "wirklich": 2857,
      "Doch": 2858,
      "cost": 2859,
      "ihrem": 2860,
      "ultural": 2861,
      "besondere": 2862,
      "military": 2863,
      "Kunst": 2864,
      "difficult": 2865,
      "Kreis": 2866,
      "ances": 2867,
      "fuehrte": 2868,
      "medi": 2869,
      "Hab": 2870,
      "fasst": 2871,
      "iser": 2872,
      "ama": 2873,
      "Neu": 2874,
      "schau": 2875,
      "count": 2876,
      "arbeitet": 2877,
      "developed": 2878,
      "Lauf": 2879,
      "teen": 2880,
      "ships": 2881,
      "automat": 2882,
      "Dorf": 2883,
      "tell": 2884,
      "chem": 2885,
      "ana": 2886,
      "anzen": 2887,
      "itze": 2888,
      "ummer": 2889,
      "Werk": 2890,
      "John": 2891,
      "chts": 2892,
      "eler": 2893,
      "iment": 2894,
      "establ": 2895,
      "tradition": 2896,
      "available": 2897,
      "Dr": 2898,
      "Two": 2899,
      "cop": 2900,
      "ffer": 2901,
      "ieg": 2902,
      "leep": 2903,
      "particip": 2904,
      "bereit": 2905,
      "popular": 2906,
      "ised": 2907,
      "haette": 2908,
      "wart": 2909,
      "social": 2910,
      "those": 2911,
      "hundert": 2912,
      "via": 2913,
      "espe": 2914,
      "ateg": 2915,
      "schre": 2916,
      "ibr": 2917,
      "proper": 2918,
      "ained": 2919,
      "ienst": 2920,
      "kannst": 2921,
      "Weltkrieg": 2922,
      "Mart": 2923,
      "Ty": 2924,
      "ning": 2925,
      "xim": 2926,
      "anst": 2927,
      "gemacht": 2928,
      "ush": 2929,
      "neigh": 2930,
      "Feuer": 2931,
      "South": 2932,
      "bind": 2933,
      "clos": 2934,
      "iat": 2935,
      "licht": 2936,
      "ivil": 2937,
      "trau": 2938,
      "aetze": 2939,
      "treten": 2940,
      "Acc": 2941,
      "ilar": 2942,
      "opp": 2943,
      "anderem": 2944,
      "Bay": 2945,
      "cou": 2946,
      "sof": 2947,
      "anges": 2948,
      "wanted": 2949,
      "Em": 2950,
      "Fach": 2951,
      "game": 2952,
      "jahr": 2953,
      "kor": 2954,
      "tee": 2955,
      "letzten": 2956,
      "bot": 2957,
      "job": 2958,
      "iers": 2959,
      "benannt": 2960,
      "icks": 2961,
      "Most": 2962,
      "Parte": 2963,
      "Licht": 2964,
      "Pass": 2965,
      "haupt": 2966,
      "exact": 2967,
      "ards": 2968,
      "taken": 2969,
      "reuz": 2970,
      "Bede": 2971,
      "zy": 2972,
      "ada": 2973,
      "Entw": 2974,
      "cret": 2975,
      "sych": 2976,
      "spielen": 2977,
      "didnt": 2978,
      "Strassen": 2979,
      "Wort": 2980,
      "wehr": 2981,
      "rock": 2982,
      "lower": 2983,
      "range": 2984,
      "gleichen": 2985,
      "raum": 2986,
      "zoes": 2987,
      "members": 2988,
      "maessig": 2989,
      "Mod": 2990,
      "fan": 2991,
      "fal": 2992,
      "Sport": 2993,
      "compet": 2994,
      "published": 2995,
      "..": 2996,
      "Hans": 2997,
      "Later": 2998,
      "Titel": 2999,
      "pfl": 3000,
      "uege": 3001,
      "lose": 3002,
      "fair": 3003,
      "sieben": 3004,
      "gaben": 3005,
      "\"\"": 3006,
      "sor": 3007,
      "utt": 3008,
      "puter": 3009,
      "Both": 3010,
      "Museum": 3011,
      "fish": 3012,
      "mem": 3013,
      "eins": 3014,
      "activ": 3015,
      "actually": 3016,
      "seines": 3017,
      "regional": 3018,
      "Warum": 3019,
      "Buerger": 3020,
      "Pal": 3021,
      "roy": 3022,
      "waehrend": 3023,
      "Zweiten": 3024,
      "Wahl": 3025,
      "trat": 3026,
      "anders": 3027,
      "forms": 3028,
      "beginning": 3029,
      "middle": 3030,
      "Peter": 3031,
      "ather": 3032,
      "scre": 3033,
      "arian": 3034,
      "offe": 3035,
      "folgt": 3036,
      "bildung": 3037,
      "By": 3038,
      "dens": 3039,
      "understand": 3040,
      "Eis": 3041,
      "ax": 3042,
      "hung": 3043,
      "kreis": 3044,
      "gegeben": 3045,
      "bede": 3046,
      "Thats": 3047,
      "braucht": 3048,
      "Kin": 3049,
      "Lon": 3050,
      "data": 3051,
      "flow": 3052,
      "zel": 3053,
      "esent": 3054,
      "feel": 3055,
      "series": 3056,
      "temper": 3057,
      "needs": 3058,
      "Gebiet": 3059,
      "European": 3060,
      "jur": 3061,
      "kel": 3062,
      "ries": 3063,
      "zent": 3064,
      "weis": 3065,
      "space": 3066,
      "graph": 3067,
      "vielen": 3068,
      "Rolle": 3069,
      "laut": 3070,
      "natuerlich": 3071,
      "stab": 3072,
      "besten": 3073,
      "amin": 3074,
      "ehle": 3075,
      "Beim": 3076,
      "development": 3077,
      "Geld": 3078,
      "held": 3079,
      "kar": 3080,
      "som": 3081,
      "univers": 3082,
      "ueb": 3083,
      "sure": 3084,
      "someone": 3085,
      "anzig": 3086,
      "Eltern": 3087,
      "wissenschaft": 3088,
      "Noch": 3089,
      "igent": 3090,
      "served": 3091,
      "scheiden": 3092,
      "riere": 3093,
      "paar": 3094,
      "besonders": 3095,
      "rul": 3096,
      "ref": 3097,
      "endung": 3098,
      "Folge": 3099,
      "haeufig": 3100,
      "East": 3101,
      "Fur": 3102,
      "fam": 3103,
      "oid": 3104,
      "tele": 3105,
      "schutz": 3106,
      "geschlossen": 3107,
      "System": 3108,
      "Krieg": 3109,
      "ena": 3110,
      "ork": 3111,
      "forman": 3112,
      "Ost": 3113,
      "gangen": 3114,
      "parents": 3115,
      "ktionen": 3116,
      "corre": 3117,
      "certain": 3118,
      "individual": 3119,
      "Beh": 3120,
      "pose": 3121,
      "Verwalt": 3122,
      "Klein": 3123,
      "production": 3124,
      "sprach": 3125,
      "Did": 3126,
      "Ul": 3127,
      "hu": 3128,
      "champion": 3129,
      "itzer": 3130,
      "parts": 3131,
      "liessen": 3132,
      "ihnen": 3133,
      "uenstler": 3134,
      "changed": 3135,
      "Accord": 3136,
      "Mun": 3137,
      "Pa": 3138,
      "dy": 3139,
      "dafuer": 3140,
      "liga": 3141,
      "mult": 3142,
      "walk": 3143,
      "gehoerte": 3144,
      "According": 3145,
      "Gott": 3146,
      "Pfl": 3147,
      "Your": 3148,
      "wachsen": 3149,
      "ehic": 3150,
      "created": 3151,
      "oeffentlich": 3152,
      "Christian": 3153,
      "Schule": 3154,
      "Bedeutung": 3155,
      "Well": 3156,
      "wr": 3157,
      "onor": 3158,
      "hatten": 3159,
      "affen": 3160,
      "Augen": 3161,
      "foot": 3162,
      "compan": 3163,
      "everyone": 3164,
      "sondern": 3165,
      "looks": 3166,
      "London": 3167,
      "Zahl": 3168,
      "aehn": 3169,
      "enty": 3170,
      "super": 3171,
      "cool": 3172,
      "tries": 3173,
      "kompl": 3174,
      "Nieder": 3175,
      "Col": 3176,
      "Met": 3177,
      "Viele": 3178,
      "action": 3179,
      "bran": 3180,
      "moment": 3181,
      "refer": 3182,
      "Stein": 3183,
      "gesp": 3184,
      "river": 3185,
      "grossen": 3186,
      "Volks": 3187,
      "Eisen": 3188,
      "arm": 3189,
      "sei": 3190,
      "haft": 3191,
      "door": 3192,
      "selben": 3193,
      "respon": 3194,
      "plays": 3195,
      "single": 3196,
      "government": 3197,
      "along": 3198,
      "manu": 3199,
      "Heim": 3200,
      "folge": 3201,
      "pendent": 3202,
      "wohner": 3203,
      "Afr": 3204,
      "Gren": 3205,
      "bald": 3206,
      "deter": 3207,
      "dev": 3208,
      "usa": 3209,
      "meant": 3210,
      "coming": 3211,
      "Georg": 3212,
      "Leute": 3213,
      "Jose": 3214,
      "wollen": 3215,
      "kaemp": 3216,
      "Wilhel": 3217,
      "Sand": 3218,
      "fly": 3219,
      "gere": 3220,
      "wies": 3221,
      "chmal": 3222,
      "common": 3223,
      "grand": 3224,
      "similar": 3225,
      "belongs": 3226,
      "natural": 3227,
      "famous": 3228,
      "Ot": 3229,
      "gas": 3230,
      "illed": 3231,
      "ochter": 3232,
      "osed": 3233,
      "Klo": 3234,
      "Mer": 3235,
      "vehic": 3236,
      "chten": 3237,
      "itself": 3238,
      "roem": 3239,
      "schrift": 3240,
      "Theater": 3241,
      "steller": 3242,
      "anymore": 3243,
      "American": 3244,
      "especially": 3245,
      "Alex": 3246,
      "pet": 3247,
      "wrote": 3248,
      "alte": 3249,
      "urt": 3250,
      "heits": 3251,
      "outs": 3252,
      "genannt": 3253,
      "sour": 3254,
      "Erst": 3255,
      "ological": 3256,
      "themselves": 3257,
      "stitut": 3258,
      "smo": 3259,
      "seite": 3260,
      "Stra": 3261,
      "regard": 3262,
      "Air": 3263,
      "Let": 3264,
      "Sim": 3265,
      "Tran": 3266,
      "flae": 3267,
      "icated": 3268,
      "ivision": 3269,
      "doing": 3270,
      "original": 3271,
      "Fun": 3272,
      "Hein": 3273,
      "Wissen": 3274,
      "stag": 3275,
      "ehne": 3276,
      "ustom": 3277,
      "relig": 3278,
      "ograph": 3279,
      "Bas": 3280,
      "Fil": 3281,
      "Pet": 3282,
      "Tochter": 3283,
      "plann": 3284,
      "ulture": 3285,
      "Afterwards": 3286,
      "ymn": 3287,
      "third": 3288,
      "friend": 3289,
      "Vers": 3290,
      "information": 3291,
      "atic": 3292,
      "lock": 3293,
      "prochen": 3294,
      "ips": 3295,
      "waer": 3296,
      "Progr": 3297,
      "bleibt": 3298,
      "Strasse": 3299,
      "training": 3300,
      "gy": 3301,
      "mill": 3302,
      "thes": 3303,
      "regel": 3304,
      "ention": 3305,
      "aff": 3306,
      "box": 3307,
      "dient": 3308,
      "attack": 3309,
      "regular": 3310,
      "Zentr": 3311,
      "cit": 3312,
      "druck": 3313,
      "iety": 3314,
      "lement": 3315,
      "rain": 3316,
      "conf": 3317,
      "gebracht": 3318,
      "onnen": 3319,
      "fully": 3320,
      "hous": 3321,
      "ieten": 3322,
      "Beispiel": 3323,
      "flies": 3324,
      "Gest": 3325,
      "Kont": 3326,
      "Forsch": 3327,
      "Brand": 3328,
      "euten": 3329,
      "letzte": 3330,
      "question": 3331,
      "includ": 3332,
      "private": 3333,
      "animals": 3334,
      "Ach": 3335,
      "Sicher": 3336,
      "Tuer": 3337,
      "wagen": 3338,
      "influen": 3339,
      "Lau": 3340,
      "duer": 3341,
      "gust": 3342,
      "squ": 3343,
      "tower": 3344,
      "oud": 3345,
      "fail": 3346,
      "sollten": 3347,
      "gehoeren": 3348,
      "igkeiten": 3349,
      "Further": 3350,
      "Lat": 3351,
      "Wuer": 3352,
      "cus": 3353,
      "daher": 3354,
      "kaum": 3355,
      "wish": 3356,
      "elker": 3357,
      "verg": 3358,
      "Einige": 3359,
      "ournal": 3360,
      "quite": 3361,
      "engine": 3362,
      "version": 3363,
      "clean": 3364,
      "groesste": 3365,
      "Wien": 3366,
      "kten": 3367,
      "nimmt": 3368,
      "gewa": 3369,
      "ceed": 3370,
      "ago": 3371,
      "sense": 3372,
      "tragen": 3373,
      "traffic": 3374,
      "ously": 3375,
      "flu": 3376,
      "geboren": 3377,
      "tware": 3378,
      "normal": 3379,
      "Seite": 3380,
      "verschiedenen": 3381,
      "folgenden": 3382,
      "photo": 3383,
      "fangen": 3384,
      "ving": 3385,
      "etze": 3386,
      "ross": 3387,
      "Rechts": 3388,
      "control": 3389,
      "Dazu": 3390,
      "title": 3391,
      "fran": 3392,
      "stoff": 3393,
      "worth": 3394,
      "ption": 3395,
      "Organ": 3396,
      "Gebaeude": 3397,
      "current": 3398,
      "human": 3399,
      "Japan": 3400,
      "deine": 3401,
      "fts": 3402,
      "jeweil": 3403,
      "arbeiten": 3404,
      "full": 3405,
      "heiten": 3406,
      "frequ": 3407,
      "Blu": 3408,
      "general": 3409,
      "Internet": 3410,
      "Masch": 3411,
      "Rich": 3412,
      "geh": 3413,
      "began": 3414,
      "Anschliessend": 3415,
      "Span": 3416,
      "icken": 3417,
      "Prov": 3418,
      "idence": 3419,
      "redu": 3420,
      "Zudem": 3421,
      "appeared": 3422,
      "responsible": 3423,
      "Wein": 3424,
      "hang": 3425,
      "ared": 3426,
      "phone": 3427,
      "scient": 3428,
      "Ca": 3429,
      "iler": 3430,
      "user": 3431,
      "performan": 3432,
      "stens": 3433,
      "minister": 3434,
      "zwanzig": 3435,
      "border": 3436,
      "frueh": 3437,
      "books": 3438,
      "Ehe": 3439,
      "Mass": 3440,
      "Mehr": 3441,
      "kre": 3442,
      "oint": 3443,
      "sold": 3444,
      "wise": 3445,
      "laenger": 3446,
      "neu": 3447,
      "Schwer": 3448,
      "goes": 3449,
      "sonst": 3450,
      "sagen": 3451,
      "vision": 3452,
      "court": 3453,
      "eigene": 3454,
      "Holz": 3455,
      "camp": 3456,
      "event": 3457,
      "museum": 3458,
      "ints": 3459,
      "anten": 3460,
      "unser": 3461,
      "Beide": 3462,
      "bring": 3463,
      "pret": 3464,
      "Regel": 3465,
      "zeichnung": 3466,
      "shows": 3467,
      "ehemal": 3468,
      "kunft": 3469,
      "necessary": 3470,
      "Ed": 3471,
      "Rest": 3472,
      "York": 3473,
      "cing": 3474,
      "pay": 3475,
      "wid": 3476,
      "stam": 3477,
      "achie": 3478,
      "dog": 3479,
      "Alt": 3480,
      "hinaus": 3481,
      "Second": 3482,
      "leave": 3483,
      "railway": 3484,
      "Kor": 3485,
      "Kil": 3486,
      "ara": 3487,
      "itive": 3488,
      "besuch": 3489,
      "phys": 3490,
      "street": 3491,
      "political": 3492,
      "currently": 3493,
      "program": 3494,
      "laeuft": 3495,
      "daughter": 3496,
      "sun": 3497,
      "thin": 3498,
      "thod": 3499,
      "themat": 3500,
      "bringen": 3501,
      "Polit": 3502,
      "pression": 3503,
      "written": 3504,
      "Kannst": 3505,
      "Bro": 3506,
      "Cor": 3507,
      "bist": 3508,
      "dom": 3509,
      "wont": 3510,
      "rein": 3511,
      "scha": 3512,
      "ometer": 3513,
      "genutzt": 3514,
      "lichkeit": 3515,
      "lied": 3516,
      "rought": 3517,
      "Begriff": 3518,
      "Dienst": 3519,
      "done": 3520,
      "rid": 3521,
      "thought": 3522,
      "ured": 3523,
      "agric": 3524,
      "endete": 3525,
      "largest": 3526,
      "supposed": 3527,
      "Bad": 3528,
      "cul": 3529,
      "fung": 3530,
      "lam": 3531,
      "project": 3532,
      "strasse": 3533,
      "Fluss": 3534,
      "bedeuten": 3535,
      "twenty": 3536,
      "iber": 3537,
      "kennt": 3538,
      "tu": 3539,
      "gefunden": 3540,
      "entire": 3541,
      "umm": 3542,
      "Schon": 3543,
      "ows": 3544,
      "bleiben": 3545,
      "green": 3546,
      "Gruppe": 3547,
      "Publ": 3548,
      "cry": 3549,
      "pan": 3550,
      "sometimes": 3551,
      "wuchs": 3552,
      "rop": 3553,
      "rather": 3554,
      "abor": 3555,
      "herum": 3556,
      "gesam": 3557,
      "placed": 3558,
      "accord": 3559,
      "Besch": 3560,
      "Kla": 3561,
      "MO": 3562,
      "Pre": 3563,
      "Raum": 3564,
      "kil": 3565,
      "ose": 3566,
      "urspru": 3567,
      "ifen": 3568,
      "Einsatz": 3569,
      "ersto": 3570,
      "richten": 3571,
      "urg": 3572,
      "schla": 3573,
      "clim": 3574,
      "aenger": 3575,
      "ification": 3576,
      "easy": 3577,
      "Bereich": 3578,
      "association": 3579,
      "continued": 3580,
      "Daten": 3581,
      "Miss": 3582,
      "ria": 3583,
      "ators": 3584,
      "ordin": 3585,
      "studies": 3586,
      "Entwick": 3587,
      "Bitte": 3588,
      "Ihnen": 3589,
      "wald": 3590,
      "leid": 3591,
      "warz": 3592,
      "compar": 3593,
      "agement": 3594,
      "machine": 3595,
      "grew": 3596,
      "verschiedene": 3597,
      "General": 3598,
      "leaves": 3599,
      "Tom": 3600,
      "Wolf": 3601,
      "Ziel": 3602,
      "fried": 3603,
      "lived": 3604,
      "pict": 3605,
      "setzt": 3606,
      "uecher": 3607,
      "opt": 3608,
      "within": 3609,
      "iller": 3610,
      "wiegend": 3611,
      "Staed": 3612,
      "stock": 3613,
      "First": 3614,
      "cu": 3615,
      "seat": 3616,
      "subject": 3617,
      "viously": 3618,
      "Wind": 3619,
      "ober": 3620,
      "engen": 3621,
      "verse": 3622,
      "immedi": 3623,
      "abhaeng": 3624,
      "spir": 3625,
      "final": 3626,
      "Wochen": 3627,
      "problem": 3628,
      "Krit": 3629,
      "Spr": 3630,
      "ham": 3631,
      "swe": 3632,
      "enk": 3633,
      "tegr": 3634,
      "uegel": 3635,
      "log": 3636,
      "comm": 3637,
      "drive": 3638,
      "surround": 3639,
      "Meister": 3640,
      "Jul": 3641,
      "Lang": 3642,
      "hall": 3643,
      "wife": 3644,
      "stone": 3645,
      "legt": 3646,
      "ids": 3647,
      "sus": 3648,
      "chan": 3649,
      "ises": 3650,
      "dead": 3651,
      "using": 3652,
      "spaet": 3653,
      "model": 3654,
      "cook": 3655,
      "selten": 3656,
      "glass": 3657,
      "Freund": 3658,
      "Hof": 3659,
      "Tur": 3660,
      "ba": 3661,
      "pul": 3662,
      "saf": 3663,
      "theater": 3664,
      "einge": 3665,
      "fortun": 3666,
      "police": 3667,
      "preser": 3668,
      "gewann": 3669,
      "population": 3670,
      "Hinter": 3671,
      "Ohne": 3672,
      "ots": 3673,
      "imal": 3674,
      "stellte": 3675,
      "machte": 3676,
      "kleine": 3677,
      "spielt": 3678,
      "remains": 3679,
      "describ": 3680,
      "RE": 3681,
      "Rel": 3682,
      "olden": 3683,
      "immen": 3684,
      "meet": 3685,
      "style": 3686,
      "custom": 3687,
      "return": 3688,
      "appoint": 3689,
      "matter": 3690,
      "garten": 3691,
      "nisse": 3692,
      "bedeut": 3693,
      "Cal": 3694,
      "Hat": 3695,
      "VE": 3696,
      "Winter": 3697,
      "fas": 3698,
      "master": 3699,
      "path": 3700,
      "route": 3701,
      "love": 3702,
      "akter": 3703,
      "burger": 3704,
      "Wieder": 3705,
      "Willi": 3706,
      "naechsten": 3707,
      "MOVE": 3708,
      "Liter": 3709,
      "Pat": 3710,
      "bung": 3711,
      "brought": 3712,
      "sagt": 3713,
      "stelle": 3714,
      "rab": 3715,
      "aint": 3716,
      "jeden": 3717,
      "buildings": 3718,
      "hausen": 3719,
      "install": 3720,
      "REMOVE": 3721,
      "Di": 3722,
      "Kan": 3723,
      "leist": 3724,
      "illa": 3725,
      "abo": 3726,
      "Before": 3727,
      "posed": 3728,
      "wrong": 3729,
      "Bed": 3730,
      "Geh": 3731,
      "Ol": 3732,
      "TO": 3733,
      "nine": 3734,
      "ude": 3735,
      "anze": 3736,
      "stets": 3737,
      "schme": 3738,
      "ney": 3739,
      "ults": 3740,
      "suchen": 3741,
      "ollen": 3742,
      "legal": 3743,
      "Kurz": 3744,
      "Frankfurt": 3745,
      "Schweiz": 3746,
      "Due": 3747,
      "Kue": 3748,
      "stamm": 3749,
      "Aller": 3750,
      "fluss": 3751,
      "Leist": 3752,
      "produced": 3753,
      "zieht": 3754,
      "zaehlt": 3755,
      "erfolgreich": 3756,
      "Vienn": 3757,
      "Wal": 3758,
      "abe": 3759,
      "fund": 3760,
      "reas": 3761,
      "versucht": 3762,
      "uments": 3763,
      "lymp": 3764,
      "ossen": 3765,
      "Orts": 3766,
      "solche": 3767,
      "archite": 3768,
      "Dadurch": 3769,
      "bon": 3770,
      "fight": 3771,
      "erne": 3772,
      "eingesetzt": 3773,
      "deren": 3774,
      "secret": 3775,
      "tritt": 3776,
      "erkla": 3777,
      "believe": 3778,
      "Selbst": 3779,
      "Dire": 3780,
      "passen": 3781,
      "ellow": 3782,
      "terms": 3783,
      "sports": 3784,
      "buried": 3785,
      "minutes": 3786,
      "bisher": 3787,
      "richtet": 3788,
      "farm": 3789,
      "electric": 3790,
      "Rot": 3791,
      "ials": 3792,
      "tt": 3793,
      "upper": 3794,
      "watch": 3795,
      "towards": 3796,
      "Alter": 3797,
      "player": 3798,
      "extrem": 3799,
      "initially": 3800,
      "chest": 3801,
      "island": 3802,
      "itar": 3803,
      "heut": 3804,
      "heav": 3805,
      "dents": 3806,
      "stands": 3807,
      "musik": 3808,
      "knows": 3809,
      "Karriere": 3810,
      "seems": 3811,
      "correct": 3812,
      "Leit": 3813,
      "Sor": 3814,
      "honor": 3815,
      "chair": 3816,
      "arms": 3817,
      "befinden": 3818,
      "usion": 3819,
      "hours": 3820,
      "ending": 3821,
      "iziert": 3822,
      "Nachbar": 3823,
      "ganze": 3824,
      "speed": 3825,
      "structure": 3826,
      "Gros": 3827,
      "anstalt": 3828,
      "Ill": 3829,
      "Olymp": 3830,
      "Turn": 3831,
      "Uhr": 3832,
      "either": 3833,
      "ley": 3834,
      "amo": 3835,
      "Erfolg": 3836,
      "Boden": 3837,
      "names": 3838,
      "Minuten": 3839,
      "Zwei": 3840,
      "Gold": 3841,
      "Kat": 3842,
      "mix": 3843,
      "wing": 3844,
      "story": 3845,
      "ural": 3846,
      "beha": 3847,
      "doc": 3848,
      "exhib": 3849,
      "goal": 3850,
      "Maenn": 3851,
      "occur": 3852,
      "County": 3853,
      "Heinrich": 3854,
      "franzoes": 3855,
      "Red": 3856,
      "card": 3857,
      "living": 3858,
      "van": 3859,
      "orient": 3860,
      "beru": 3861,
      "spl": 3862,
      "boy": 3863,
      "anderer": 3864,
      "Region": 3865,
      "voelker": 3866,
      "director": 3867,
      "groups": 3868,
      "Sprache": 3869,
      "Morgen": 3870,
      "Wilhelm": 3871,
      "Get": 3872,
      "fass": 3873,
      "annte": 3874,
      "werde": 3875,
      "boten": 3876,
      "blue": 3877,
      "kosten": 3878,
      "riften": 3879,
      "Kirchen": 3880,
      "closed": 3881,
      "Amt": 3882,
      "Schne": 3883,
      "endlich": 3884,
      "syn": 3885,
      "Frauen": 3886,
      "independent": 3887,
      "education": 3888,
      "Yes": 3889,
      "given": 3890,
      "pil": 3891,
      "sleep": 3892,
      "Ins": 3893,
      "ueberhaupt": 3894,
      "wait": 3895,
      "Team": 3896,
      "Beruf": 3897,
      "jects": 3898,
      "iction": 3899,
      "bereich": 3900,
      "Franz": 3901,
      "Foto": 3902,
      "professional": 3903,
      "fueg": 3904,
      "Rhein": 3905,
      "stammt": 3906,
      "Fle": 3907,
      "Kal": 3908,
      "Kreuz": 3909,
      "gent": 3910,
      "invest": 3911,
      "spar": 3912,
      "sprech": 3913,
      "hoeren": 3914,
      "ehren": 3915,
      "zept": 3916,
      "track": 3917,
      "gelang": 3918,
      "ideo": 3919,
      "tempor": 3920,
      "Studi": 3921,
      "Bruder": 3922,
      "Bil": 3923,
      "Fried": 3924,
      "Nun": 3925,
      "Zw": 3926,
      "cup": 3927,
      "material": 3928,
      "wom": 3929,
      "erten": 3930,
      "health": 3931,
      "scher": 3932,
      "gency": 3933,
      "wasser": 3934,
      "Heil": 3935,
      "counter": 3936,
      "reser": 3937,
      "ordnet": 3938,
      "ritt": 3939,
      "Moeglich": 3940,
      "Darueber": 3941,
      "deutsche": 3942,
      "Vielleicht": 3943,
      "Pap": 3944,
      "dark": 3945,
      "stieg": 3946,
      "irl": 3947,
      "forder": 3948,
      "condition": 3949,
      "ktiv": 3950,
      "expla": 3951,
      "issig": 3952,
      "Therefore": 3953,
      "tax": 3954,
      "hlen": 3955,
      "Werke": 3956,
      "weniger": 3957,
      "Daneben": 3958,
      "wichtig": 3959,
      "viol": 3960,
      "Martin": 3961,
      "ias": 3962,
      "mess": 3963,
      "method": 3964,
      "sogar": 3965,
      "suit": 3966,
      "anger": 3967,
      "unsere": 3968,
      "gegenueber": 3969,
      "wenden": 3970,
      "Europa": 3971,
      "operation": 3972,
      "risk": 3973,
      "teacher": 3974,
      "Kloster": 3975,
      "Colle": 3976,
      "Sen": 3977,
      "Ter": 3978,
      "Trotz": 3979,
      "lass": 3980,
      "meiner": 3981,
      "host": 3982,
      "attle": 3983,
      "alley": 3984,
      "teilt": 3985,
      "stood": 3986,
      "British": 3987,
      "Hin": 3988,
      "echt": 3989,
      "rt": 3990,
      "aler": 3991,
      "ingly": 3992,
      "August": 3993,
      "iale": 3994,
      "grenz": 3995,
      "approach": 3996,
      "purpose": 3997,
      "established": 3998,
      "exactly": 3999,
      "Tru": 4000,
      "nut": 4001,
      "nature": 4002,
      "oet": 4003,
      "pair": 4004,
      "hoeh": 4005,
      "gelegt": 4006,
      "zeichen": 4007,
      "richtig": 4008,
      "function": 4009,
      "funktion": 4010,
      "Seiten": 4011,
      "particularly": 4012,
      "Sommer": 4013,
      "Hast": 4014,
      "Kre": 4015,
      "lebte": 4016,
      "ola": 4017,
      "Angel": 4018,
      "favor": 4019,
      "Verkehr": 4020,
      "words": 4021,
      "weiteren": 4022,
      "lines": 4023,
      "klein": 4024,
      "voice": 4025,
      "brachte": 4026,
      "Fort": 4027,
      "Tem": 4028,
      "fem": 4029,
      "nete": 4030,
      "sand": 4031,
      "beits": 4032,
      "igten": 4033,
      "wers": 4034,
      "gerne": 4035,
      "access": 4036,
      "Deutschen": 4037,
      "Saison": 4038,
      "aelter": 4039,
      "scheinlich": 4040,
      "Weiter": 4041,
      "groessten": 4042,
      "Hen": 4043,
      "Hau": 4044,
      "Sm": 4045,
      "Schloss": 4046,
      "suffer": 4047,
      "valu": 4048,
      "scheint": 4049,
      "England": 4050,
      "Back": 4051,
      "Mid": 4052,
      "lungen": 4053,
      "bevor": 4054,
      "Strom": 4055,
      "pped": 4056,
      "Union": 4057,
      "Arme": 4058,
      "Leip": 4059,
      "anyone": 4060,
      "Mensch": 4061,
      "floor": 4062,
      "transl": 4063,
      "connection": 4064,
      "Wieso": 4065,
      "Mel": 4066,
      "Nam": 4067,
      "Sing": 4068,
      "eur": 4069,
      "andid": 4070,
      "emeter": 4071,
      "Schre": 4072,
      "playing": 4073,
      "Thom": 4074,
      "fahrt": 4075,
      "Sax": 4076,
      "bilden": 4077,
      "Theres": 4078,
      "Jed": 4079,
      "kuer": 4080,
      "mist": 4081,
      "sat": 4082,
      "sau": 4083,
      "schrieb": 4084,
      "mitted": 4085,
      "princ": 4086,
      "Verbind": 4087,
      "appen": 4088,
      "sollen": 4089,
      "Ak": 4090,
      "Fen": 4091,
      "Hall": 4092,
      "Kultur": 4093,
      "Lud": 4094,
      "Mir": 4095,
      "Off": 4096,
      "icts": 4097,
      "aufen": 4098,
      "hop": 4099,
      "kept": 4100,
      "monaster": 4101,
      "Koerper": 4102,
      "Geschae": 4103,
      "volution": 4104,
      "gave": 4105,
      "uesse": 4106,
      "official": 4107,
      "ergy": 4108,
      "China": 4109,
      "Partei": 4110,
      "ymnas": 4111,
      "Hoe": 4112,
      "Tage": 4113,
      "ress": 4114,
      "attra": 4115,
      "kleinen": 4116,
      "mues": 4117,
      "setzen": 4118,
      "welche": 4119,
      "municipality": 4120,
      "Dav": 4121,
      "Kno": 4122,
      "caus": 4123,
      "kap": 4124,
      "ula": 4125,
      "invol": 4126,
      "reten": 4127,
      "radio": 4128,
      "extens": 4129,
      "elekt": 4130,
      "surv": 4131,
      "founded": 4132,
      "International": 4133,
      "Offen": 4134,
      "Elekt": 4135,
      "administrative": 4136,
      "Profess": 4137,
      "companies": 4138,
      "besuchte": 4139,
      "immediately": 4140,
      "Mat": 4141,
      "kamen": 4142,
      "othe": 4143,
      "rueck": 4144,
      "total": 4145,
      "ousand": 4146,
      "itions": 4147,
      "starb": 4148,
      "Frage": 4149,
      "Richtung": 4150,
      "Programm": 4151,
      "Eben": 4152,
      "Preis": 4153,
      "Text": 4154,
      "games": 4155,
      "ring": 4156,
      "til": 4157,
      "icy": 4158,
      "ford": 4159,
      "loes": 4160,
      "Stad": 4161,
      "etzung": 4162,
      "destroy": 4163,
      "frag": 4164,
      "divid": 4165,
      "fell": 4166,
      "theor": 4167,
      "istor": 4168,
      "secur": 4169,
      "Schrift": 4170,
      "extra": 4171,
      "rief": 4172,
      "finally": 4173,
      "hands": 4174,
      "gradu": 4175,
      "ietet": 4176,
      "Polize": 4177,
      "bildet": 4178,
      "Staats": 4179,
      "Munich": 4180,
      "Et": 4181,
      "Kra": 4182,
      "krit": 4183,
      "lik": 4184,
      "mund": 4185,
      "runs": 4186,
      "sn": 4187,
      "ita": 4188,
      "imme": 4189,
      "seh": 4190,
      "search": 4191,
      "iessen": 4192,
      "hoer": 4193,
      "Regen": 4194,
      "drink": 4195,
      "direkt": 4196,
      "Bahnhof": 4197,
      "reached": 4198,
      "couple": 4199,
      "manufact": 4200,
      "fortunately": 4201,
      "Ev": 4202,
      "Oder": 4203,
      "Wahr": 4204,
      "jud": 4205,
      "ov": 4206,
      "ws": 4207,
      "Instead": 4208,
      "Anfang": 4209,
      "izes": 4210,
      "gebild": 4211,
      "students": 4212,
      "Markt": 4213,
      "Priv": 4214,
      "industry": 4215,
      "More": 4216,
      "Wann": 4217,
      "cla": 4218,
      "cold": 4219,
      "hip": 4220,
      "psych": 4221,
      "slow": 4222,
      "wes": 4223,
      "ieb": 4224,
      "teile": 4225,
      "liches": 4226,
      "agre": 4227,
      "gesprochen": 4228,
      "eteil": 4229,
      "konnten": 4230,
      "Furthermore": 4231,
      "emetery": 4232,
      "Bor": 4233,
      "Gast": 4234,
      "cel": 4235,
      "uni": 4236,
      "iesen": 4237,
      "soci": 4238,
      "getragen": 4239,
      "sterreich": 4240,
      "symb": 4241,
      "Maybe": 4242,
      "Ano": 4243,
      "Bus": 4244,
      "Federal": 4245,
      "bul": 4246,
      "rent": 4247,
      "rum": 4248,
      "aught": 4249,
      "assist": 4250,
      "ehrt": 4251,
      "garden": 4252,
      "damals": 4253,
      "wenige": 4254,
      "Besuch": 4255,
      "direction": 4256,
      "ception": 4257,
      "Bundesliga": 4258,
      "magaz": 4259,
      "Mrs": 4260,
      "protection": 4261,
      "effect": 4262,
      "Michael": 4263,
      "discuss": 4264,
      "outside": 4265,
      "Mill": 4266,
      "Ok": 4267,
      "Tal": 4268,
      "date": 4269,
      "neh": 4270,
      "iegel": 4271,
      "isierung": 4272,
      "tom": 4273,
      "ication": 4274,
      "usst": 4275,
      "burn": 4276,
      "Nacht": 4277,
      "teilung": 4278,
      "Vienna": 4279,
      "Bir": 4280,
      "High": 4281,
      "keiner": 4282,
      "oil": 4283,
      "wed": 4284,
      "aters": 4285,
      "atory": 4286,
      "ites": 4287,
      "verlie": 4288,
      "idel": 4289,
      "sowohl": 4290,
      "ibility": 4291,
      "Rei": 4292,
      "leads": 4293,
      "Italien": 4294,
      "eyes": 4295,
      "Which": 4296,
      "danach": 4297,
      "critic": 4298,
      "primarily": 4299,
      "buch": 4300,
      "cities": 4301,
      "thousand": 4302,
      "altern": 4303,
      "recent": 4304,
      "einigen": 4305,
      "sem": 4306,
      "Indu": 4307,
      "hot": 4308,
      "izin": 4309,
      "attention": 4310,
      "Herz": 4311,
      "visit": 4312,
      "Look": 4313,
      "ckey": 4314,
      "Frei": 4315,
      "Sam": 4316,
      "eat": 4317,
      "ften": 4318,
      "ffen": 4319,
      "glo": 4320,
      "mind": 4321,
      "ico": 4322,
      "serious": 4323,
      "accept": 4324,
      "type": 4325,
      "Max": 4326,
      "bestimmt": 4327,
      "zeugen": 4328,
      "Fenster": 4329,
      "Ludwig": 4330,
      "mine": 4331,
      "integr": 4332,
      "atives": 4333,
      "recomm": 4334,
      "neg": 4335,
      "folger": 4336,
      "Immer": 4337,
      "carried": 4338,
      "pressure": 4339,
      "wendung": 4340,
      "dienst": 4341,
      "Lehrer": 4342,
      "instr": 4343,
      "ched": 4344,
      "thus": 4345,
      "antwort": 4346,
      "flug": 4347,
      "Wirk": 4348,
      "council": 4349,
      "southern": 4350,
      "Pres": 4351,
      "Sc": 4352,
      "Ton": 4353,
      "nel": 4354,
      "doctor": 4355,
      "prue": 4356,
      "trains": 4357,
      "plat": 4358,
      "applic": 4359,
      "focus": 4360,
      "altet": 4361,
      "vari": 4362,
      "stitution": 4363,
      "Salz": 4364,
      "tribut": 4365,
      "above": 4366,
      "Another": 4367,
      "Jan": 4368,
      "kennen": 4369,
      "yellow": 4370,
      "verein": 4371,
      "schreiben": 4372,
      "laend": 4373,
      "aft": 4374,
      "subst": 4375,
      "hervor": 4376,
      "aehe": 4377,
      "geschrieben": 4378,
      "Jahres": 4379,
      "Minister": 4380,
      "ptsaechlich": 4381,
      "Otto": 4382,
      "Pil": 4383,
      "letzt": 4384,
      "inhab": 4385,
      "ichtet": 4386,
      "ausend": 4387,
      "Stud": 4388,
      "gesamt": 4389,
      "acqu": 4390,
      "Arten": 4391,
      "prevent": 4392,
      "Woche": 4393,
      "Grand": 4394,
      "consists": 4395,
      "France": 4396,
      "Staat": 4397,
      "nahe": 4398,
      "faehrt": 4399,
      "Schauspieler": 4400,
      "ymnasium": 4401,
      "Ball": 4402,
      "Nik": 4403,
      "kra": 4404,
      "zersto": 4405,
      "erreich": 4406,
      "inne": 4407,
      "aufge": 4408,
      "sens": 4409,
      "Bezir": 4410,
      "plants": 4411,
      "Never": 4412,
      "Besides": 4413,
      "Everyone": 4414,
      "zweiten": 4415,
      "determin": 4416,
      "divided": 4417,
      "symbol": 4418,
      "Eing": 4419,
      "Han": 4420,
      "wide": 4421,
      "ential": 4422,
      "Schiff": 4423,
      "phil": 4424,
      "daran": 4425,
      "relation": 4426,
      "zaehl": 4427,
      "leader": 4428,
      "Fussball": 4429,
      "Song": 4430,
      "Would": 4431,
      "civil": 4432,
      "girl": 4433,
      "tut": 4434,
      "rea": 4435,
      "noerd": 4436,
      "load": 4437,
      "warded": 4438,
      "Ander": 4439,
      "Bevoelker": 4440,
      "anyway": 4441,
      "Post": 4442,
      "Motor": 4443,
      "ox": 4444,
      "yn": 4445,
      "condu": 4446,
      "rupt": 4447,
      "demand": 4448,
      "pping": 4449,
      "Loes": 4450,
      "atholic": 4451,
      "Allerdings": 4452,
      "Meine": 4453,
      "Rem": 4454,
      "oes": 4455,
      "pers": 4456,
      "wine": 4457,
      "chron": 4458,
      "anks": 4459,
      "report": 4460,
      "lei": 4461,
      "defen": 4462,
      "abge": 4463,
      "Statt": 4464,
      "Stunden": 4465,
      "Einen": 4466,
      "Einzel": 4467,
      "jedes": 4468,
      "atures": 4469,
      "Prinz": 4470,
      "Have": 4471,
      "Addition": 4472,
      "Austria": 4473,
      "Sometimes": 4474,
      "nu": 4475,
      "pite": 4476,
      "women": 4477,
      "hear": 4478,
      "roof": 4479,
      "bew": 4480,
      "bestehen": 4481,
      "denen": 4482,
      "ehow": 4483,
      "ienen": 4484,
      "location": 4485,
      "consist": 4486,
      "niemand": 4487,
      "attended": 4488,
      "higher": 4489,
      "Hy": 4490,
      "dru": 4491,
      "yr": 4492,
      "Stutt": 4493,
      "prison": 4494,
      "true": 4495,
      "aecht": 4496,
      "months": 4497,
      "gewesen": 4498,
      "brown": 4499,
      "birth": 4500,
      "Irgend": 4501,
      "Muenchen": 4502,
      "ape": 4503,
      "eign": 4504,
      "federal": 4505,
      "zess": 4506,
      "heat": 4507,
      "schwe": 4508,
      "uert": 4509,
      "Ern": 4510,
      "notice": 4511,
      "beide": 4512,
      "Recht": 4513,
      "brit": 4514,
      "dress": 4515,
      "finished": 4516,
      "lesen": 4517,
      "zweite": 4518,
      "School": 4519,
      "Leipzig": 4520,
      "Baden": 4521,
      "City": 4522,
      "Del": 4523,
      "Kol": 4524,
      "Qual": 4525,
      "Samm": 4526,
      "cases": 4527,
      "lor": 4528,
      "arf": 4529,
      "aries": 4530,
      "heart": 4531,
      "bekommen": 4532,
      "laess": 4533,
      "Stil": 4534,
      "Stelle": 4535,
      "moder": 4536,
      "Erd": 4537,
      "perfe": 4538,
      "traegt": 4539,
      "across": 4540,
      "Wegen": 4541,
      "distrib": 4542,
      "Graf": 4543,
      "frueher": 4544,
      "Syn": 4545,
      "neighbor": 4546,
      "bott": 4547,
      "bietet": 4548,
      "mas": 4549,
      "site": 4550,
      "tschafts": 4551,
      "tot": 4552,
      "istischen": 4553,
      "older": 4554,
      "seits": 4555,
      "tended": 4556,
      "lake": 4557,
      "ellig": 4558,
      "hood": 4559,
      "woelf": 4560,
      "check": 4561,
      "idea": 4562,
      "ganzen": 4563,
      "geschichte": 4564,
      "looking": 4565,
      "aelte": 4566,
      "deutlich": 4567,
      "gehend": 4568,
      "Kilometer": 4569,
      "Eigen": 4570,
      "Pfer": 4571,
      "fut": 4572,
      "erinn": 4573,
      "theless": 4574,
      "Their": 4575,
      "liament": 4576,
      "Projekt": 4577,
      "prepar": 4578,
      "decided": 4579,
      "multiple": 4580,
      "citiz": 4581,
      "Blueten": 4582,
      "performance": 4583,
      "kilomet": 4584,
      "monastery": 4585,
      "aper": 4586,
      "fehl": 4587,
      "kan": 4588,
      "wider": 4589,
      "staet": 4590,
      "asion": 4591,
      "bewer": 4592,
      "oul": 4593,
      "youth": 4594,
      "aenge": 4595,
      "teilweise": 4596,
      "einzeln": 4597,
      "economic": 4598,
      "TV": 4599,
      "mig": 4600,
      "adays": 4601,
      "iess": 4602,
      "Schla": 4603,
      "move": 4604,
      "tail": 4605,
      "Amts": 4606,
      "simple": 4607,
      "completed": 4608,
      "switch": 4609,
      "sentences": 4610,
      "directly": 4611,
      "houses": 4612,
      "Thomas": 4613,
      "Saint": 4614,
      "kmal": 4615,
      "league": 4616,
      "gezogen": 4617,
      "rodu": 4618,
      "entran": 4619,
      "Anton": 4620,
      "pred": 4621,
      "Gebur": 4622,
      "fuehrung": 4623,
      "correspon": 4624,
      "nieder": 4625,
      "ski": 4626,
      "Strecke": 4627,
      "Entwicklung": 4628,
      "Fel": 4629,
      "Hor": 4630,
      "Kuenstler": 4631,
      "domin": 4632,
      "arently": 4633,
      "attem": 4634,
      "entstanden": 4635,
      "ctors": 4636,
      "arbeiter": 4637,
      "bekannte": 4638,
      "taking": 4639,
      "kirche": 4640,
      "bruch": 4641,
      "happened": 4642,
      "preserved": 4643,
      "Gut": 4644,
      "Tiere": 4645,
      "sweise": 4646,
      "ining": 4647,
      "ination": 4648,
      "stage": 4649,
      "department": 4650,
      "ima": 4651,
      "weisen": 4652,
      "Innen": 4653,
      "anti": 4654,
      "Alles": 4655,
      "Album": 4656,
      "gesellschaft": 4657,
      "engl": 4658,
      "fred": 4659,
      "contact": 4660,
      "beschaeft": 4661,
      "setzung": 4662,
      "eye": 4663,
      "Bae": 4664,
      "Fred": 4665,
      "Kraft": 4666,
      "Sym": 4667,
      "awarded": 4668,
      "ciety": 4669,
      "hom": 4670,
      "nice": 4671,
      "ration": 4672,
      "tree": 4673,
      "energy": 4674,
      "ond": 4675,
      "edt": 4676,
      "leider": 4677,
      "umb": 4678,
      "Stat": 4679,
      "places": 4680,
      "blind": 4681,
      "Whats": 4682,
      "central": 4683,
      "opened": 4684,
      "amerikan": 4685,
      "occup": 4686,
      "released": 4687,
      "Dach": 4688,
      "King": 4689,
      "teid": 4690,
      "schlag": 4691,
      "weather": 4692,
      "lad": 4693,
      "Stell": 4694,
      "mechan": 4695,
      "facil": 4696,
      "aeuss": 4697,
      "vorher": 4698,
      "griff": 4699,
      "reek": 4700,
      "stitute": 4701,
      "sequently": 4702,
      "Joseph": 4703,
      "Literatur": 4704,
      "kilometers": 4705,
      "Bach": 4706,
      "Tu": 4707,
      "bag": 4708,
      "sons": 4709,
      "schlagen": 4710,
      "hoech": 4711,
      "ills": 4712,
      "streng": 4713,
      "insbesondere": 4714,
      "Ausbildung": 4715,
      "newsp": 4716,
      "graf": 4717,
      "praegt": 4718,
      "capt": 4719,
      "Spieler": 4720,
      "aktiv": 4721,
      "connected": 4722,
      "blood": 4723,
      "lernen": 4724,
      "significant": 4725,
      "hauptsaechlich": 4726,
      "Archite": 4727,
      "university": 4728,
      "rules": 4729,
      "planned": 4730,
      "riage": 4731,
      "ino": 4732,
      "stueck": 4733,
      "gek": 4734,
      "entscheiden": 4735,
      "laeng": 4736,
      "emm": 4737,
      "hae": 4738,
      "ope": 4739,
      "sozial": 4740,
      "ibli": 4741,
      "faeh": 4742,
      "code": 4743,
      "Republic": 4744,
      "Essen": 4745,
      "finan": 4746,
      "jedem": 4747,
      "folgte": 4748,
      "Kriegs": 4749,
      "bedeutet": 4750,
      "Dom": 4751,
      "Gas": 4752,
      "Ide": 4753,
      "bare": 4754,
      "gold": 4755,
      "sinn": 4756,
      "decl": 4757,
      "iffer": 4758,
      "points": 4759,
      "steil": 4760,
      "steigen": 4761,
      "Real": 4762,
      "mehreren": 4763,
      "standard": 4764,
      "kleiner": 4765,
      "guy": 4766,
      "motor": 4767,
      "belonged": 4768,
      "beginnt": 4769,
      "settlement": 4770,
      "Heimat": 4771,
      "jeweils": 4772,
      "scientific": 4773,
      "Druck": 4774,
      "Mont": 4775,
      "Op": 4776,
      "agen": 4777,
      "adem": 4778,
      "hers": 4779,
      "ikt": 4780,
      "listen": 4781,
      "table": 4782,
      "lem": 4783,
      "ros": 4784,
      "schliessen": 4785,
      "raen": 4786,
      "ennung": 4787,
      "iken": 4788,
      "bridge": 4789,
      "Blut": 4790,
      "Norden": 4791,
      "folgten": 4792,
      "Freib": 4793,
      "duerfen": 4794,
      "Middle": 4795,
      "Lass": 4796,
      "Saetze": 4797,
      "Wol": 4798,
      "zz": 4799,
      "refle": 4800,
      "entfern": 4801,
      "uegen": 4802,
      "Arbeits": 4803,
      "science": 4804,
      "Maria": 4805,
      "ipped": 4806,
      "setzte": 4807,
      "verbind": 4808,
      "experience": 4809,
      "changes": 4810,
      "zeuge": 4811,
      "Jeder": 4812,
      "Vier": 4813,
      "ziert": 4814,
      "uebr": 4815,
      "State": 4816,
      "travel": 4817,
      "results": 4818,
      "groess": 4819,
      "osition": 4820,
      "Flor": 4821,
      "saw": 4822,
      "unkte": 4823,
      "Schueler": 4824,
      "Weitere": 4825,
      "administration": 4826,
      "contract": 4827,
      "muesste": 4828,
      "Kant": 4829,
      "Mad": 4830,
      "Ros": 4831,
      "base": 4832,
      "cat": 4833,
      "cultural": 4834,
      "ffe": 4835,
      "ply": 4836,
      "inken": 4837,
      "instead": 4838,
      "ored": 4839,
      "deck": 4840,
      "istische": 4841,
      "advert": 4842,
      "warm": 4843,
      "prom": 4844,
      "gesagt": 4845,
      "Abend": 4846,
      "Baum": 4847,
      "countries": 4848,
      "teams": 4849,
      "study": 4850,
      "sprache": 4851,
      "Vogel": 4852,
      "described": 4853,
      "involved": 4854,
      "Hae": 4855,
      "bloss": 4856,
      "ifor": 4857,
      "oth": 4858,
      "enburg": 4859,
      "neuer": 4860,
      "coat": 4861,
      "ipl": 4862,
      "offiz": 4863,
      "Teile": 4864,
      "Blick": 4865,
      "Besonder": 4866,
      "Meer": 4867,
      "ledge": 4868,
      "oeffnet": 4869,
      "Grab": 4870,
      "western": 4871,
      "Deshalb": 4872,
      "included": 4873,
      "vergessen": 4874,
      "Sof": 4875,
      "fro": 4876,
      "edge": 4877,
      "irt": 4878,
      "conc": 4879,
      "movie": 4880,
      "End": 4881,
      "shoot": 4882,
      "einzige": 4883,
      "languages": 4884,
      "Autor": 4885,
      "Haben": 4886,
      "Cour": 4887,
      "Naehe": 4888,
      "hes": 4889,
      "kont": 4890,
      "aschen": 4891,
      "urer": 4892,
      "ops": 4893,
      "computer": 4894,
      "excl": 4895,
      "okrat": 4896,
      "musical": 4897,
      "aendert": 4898,
      "passed": 4899,
      "Gruppen": 4900,
      "technology": 4901,
      "problems": 4902,
      "College": 4903,
      "future": 4904,
      "Over": 4905,
      "gute": 4906,
      "ny": 4907,
      "une": 4908,
      "schieden": 4909,
      "achten": 4910,
      "genug": 4911,
      "habt": 4912,
      "Regierung": 4913,
      "weiterhin": 4914,
      "stream": 4915,
      "starts": 4916,
      "Fragen": 4917,
      "Fernseh": 4918,
      "schuld": 4919,
      "happy": 4920,
      "flaeche": 4921,
      "Bi": 4922,
      "Fisch": 4923,
      "fif": 4924,
      "ogen": 4925,
      "pick": 4926,
      "anken": 4927,
      "ably": 4928,
      "poor": 4929,
      "asten": 4930,
      "aenden": 4931,
      "aendern": 4932,
      "broad": 4933,
      "northern": 4934,
      "erkennen": 4935,
      "shaped": 4936,
      "ergie": 4937,
      "Problem": 4938,
      "situation": 4939,
      "Polizei": 4940,
      "River": 4941,
      "ware": 4942,
      "winter": 4943,
      "def": 4944,
      "Start": 4945,
      "commer": 4946,
      "expect": 4947,
      "akes": 4948,
      "gelassen": 4949,
      "mention": 4950,
      "answer": 4951,
      "voellig": 4952,
      "zieh": 4953,
      "orning": 4954,
      "verbunden": 4955,
      "Praes": 4956,
      "Glas": 4957,
      "Milit": 4958,
      "Kindern": 4959,
      "gesamte": 4960,
      "Moeglichkeit": 4961,
      "herself": 4962,
      "Gibt": 4963,
      "Jack": 4964,
      "pian": 4965,
      "vierte": 4966,
      "ingu": 4967,
      "ausschliesslich": 4968,
      "exc": 4969,
      "exe": 4970,
      "bringt": 4971,
      "introdu": 4972,
      "afterwards": 4973,
      "Without": 4974,
      "Common": 4975,
      "Mannschaft": 4976,
      "Mitglieder": 4977,
      "Kaiser": 4978,
      "historical": 4979,
      "easily": 4980,
      "literature": 4981,
      "Provinz": 4982,
      "ibliothe": 4983,
      "iforn": 4984,
      "Bab": 4985,
      "Our": 4986,
      "bom": 4987,
      "passt": 4988,
      "raus": 4989,
      "vic": 4990,
      "erung": 4991,
      "enzen": 4992,
      "inv": 4993,
      "army": 4994,
      "geist": 4995,
      "beer": 4996,
      "sex": 4997,
      "exam": 4998,
      "lieber": 4999,
      "cream": 5000,
      "klass": 5001,
      "publik": 5002,
      "trees": 5003,
      "paper": 5004,
      "value": 5005,
      "distance": 5006,
      "haengt": 5007,
      "contains": 5008,
      "detail": 5009,
      "appointed": 5010,
      "sprechend": 5011,
      "Stuttg": 5012,
      "Dres": 5013,
      "Lok": 5014,
      "Lets": 5015,
      "Tages": 5016,
      "aelt": 5017,
      "cru": 5018,
      "erfolgt": 5019,
      "istisch": 5020,
      "iced": 5021,
      "add": 5022,
      "spell": 5023,
      "driver": 5024,
      "Gesellschaft": 5025,
      "Robert": 5026,
      "Kommun": 5027,
      "Funktion": 5028,
      "Ba": 5029,
      "Bank": 5030,
      "Kran": 5031,
      "Nutz": 5032,
      "Sau": 5033,
      "lungs": 5034,
      "ns": 5035,
      "asche": 5036,
      "touch": 5037,
      "bestand": 5038,
      "ueg": 5039,
      "berger": 5040,
      "annten": 5041,
      "print": 5042,
      "iens": 5043,
      "United": 5044,
      "vorhand": 5045,
      "trade": 5046,
      "sely": 5047,
      "kannt": 5048,
      "standing": 5049,
      "teilen": 5050,
      "zeichnen": 5051,
      "Euro": 5052,
      "flows": 5053,
      "Bla": 5054,
      "Bav": 5055,
      "Catholic": 5056,
      "God": 5057,
      "Kauf": 5058,
      "Pan": 5059,
      "aed": 5060,
      "hit": 5061,
      "late": 5062,
      "loud": 5063,
      "wuen": 5064,
      "yl": 5065,
      "zwoelf": 5066,
      "ande": 5067,
      "derung": 5068,
      "imens": 5069,
      "rag": 5070,
      "ehre": 5071,
      "zudem": 5072,
      "Ersten": 5073,
      "Sied": 5074,
      "performed": 5075,
      "brand": 5076,
      "anderes": 5077,
      "Gericht": 5078,
      "musst": 5079,
      "twice": 5080,
      "Frankreich": 5081,
      "Voice": 5082,
      "blaetter": 5083,
      "Dafuer": 5084,
      "Mos": 5085,
      "Wag": 5086,
      "Wetter": 5087,
      "guest": 5088,
      "kathol": 5089,
      "tain": 5090,
      "errichtet": 5091,
      "ickt": 5092,
      "schie": 5093,
      "race": 5094,
      "shop": 5095,
      "clock": 5096,
      "laufen": 5097,
      "Radio": 5098,
      "besitzt": 5099,
      "stammte": 5100,
      "Armee": 5101,
      "Stuttgart": 5102,
      "Bauch": 5103,
      "Hung": 5104,
      "Kampf": 5105,
      "Oper": 5106,
      "ante": 5107,
      "onment": 5108,
      "asen": 5109,
      "vertreten": 5110,
      "spread": 5111,
      "Stueck": 5112,
      "const": 5113,
      "Ergeb": 5114,
      "Origin": 5115,
      "remember": 5116,
      "marriage": 5117,
      "Italian": 5118,
      "employe": 5119,
      "Indian": 5120,
      "usaetzlich": 5121,
      "grenzt": 5122,
      "entrance": 5123,
      "Bett": 5124,
      "Jur": 5125,
      "Ke": 5126,
      "Nob": 5127,
      "Tro": 5128,
      "Tier": 5129,
      "intens": 5130,
      "stro": 5131,
      "isieren": 5132,
      "elve": 5133,
      "beck": 5134,
      "veroeffent": 5135,
      "Star": 5136,
      "blau": 5137,
      "League": 5138,
      "getting": 5139,
      "grave": 5140,
      "twelve": 5141,
      "Westen": 5142,
      "writer": 5143,
      "province": 5144,
      "woman": 5145,
      "Glau": 5146,
      "Macht": 5147,
      "libr": 5148,
      "morning": 5149,
      "phen": 5150,
      "onym": 5151,
      "iete": 5152,
      "verkauf": 5153,
      "iffe": 5154,
      "moeg": 5155,
      "este": 5156,
      "ikel": 5157,
      "Geraet": 5158,
      "links": 5159,
      "ehnt": 5160,
      "Sueden": 5161,
      "wegung": 5162,
      "simply": 5163,
      "piece": 5164,
      "majority": 5165,
      "failed": 5166,
      "Cup": 5167,
      "Kenn": 5168,
      "Mach": 5169,
      "Nein": 5170,
      "tar": 5171,
      "tur": 5172,
      "geber": 5173,
      "verhin": 5174,
      "entstand": 5175,
      "force": 5176,
      "ikum": 5177,
      "cles": 5178,
      "finanz": 5179,
      "schools": 5180,
      "Familien": 5181,
      "rolle": 5182,
      "speaking": 5183,
      "Frueh": 5184,
      "sofort": 5185,
      "gebildet": 5186,
      "Gymnasium": 5187,
      "kinder": 5188,
      "vice": 5189,
      "arten": 5190,
      "returned": 5191,
      "ires": 5192,
      "sea": 5193,
      "Stimme": 5194,
      "wirkt": 5195,
      "coach": 5196,
      "perman": 5197,
      "uebernahm": 5198,
      "pected": 5199,
      "getr": 5200,
      "attet": 5201,
      "igned": 5202,
      "actor": 5203,
      "events": 5204,
      "Friedhof": 5205,
      "Cast": 5206,
      "Ehr": 5207,
      "lier": 5208,
      "sah": 5209,
      "uel": 5210,
      "leb": 5211,
      "benoet": 5212,
      "angs": 5213,
      "Geor": 5214,
      "unterstu": 5215,
      "osoph": 5216,
      "Church": 5217,
      "markt": 5218,
      "prakt": 5219,
      "asked": 5220,
      "Sprach": 5221,
      "Russian": 5222,
      "Hilfe": 5223,
      "advant": 5224,
      "whether": 5225,
      "gewaehlt": 5226,
      "ehemaligen": 5227,
      "reasons": 5228,
      "Temper": 5229,
      "Geschaefts": 5230,
      "Privat": 5231,
      "concern": 5232,
      "Pf": 5233,
      "Tim": 5234,
      "bell": 5235,
      "nungen": 5236,
      "ston": 5237,
      "derzeit": 5238,
      "verstehen": 5239,
      "section": 5240,
      "novel": 5241,
      "weile": 5242,
      "allel": 5243,
      "ophy": 5244,
      "agegen": 5245,
      "Mitte": 5246,
      "surface": 5247,
      "gruen": 5248,
      "technical": 5249,
      "America": 5250,
      "Great": 5251,
      "Personen": 5252,
      "waerts": 5253,
      "destroyed": 5254,
      "iplom": 5255,
      "Liste": 5256,
      "Mund": 5257,
      "Rein": 5258,
      "Satz": 5259,
      "Zust": 5260,
      "fs": 5261,
      "ibe": 5262,
      "oer": 5263,
      "sav": 5264,
      "sburg": 5265,
      "ystem": 5266,
      "heil": 5267,
      "Init": 5268,
      "werke": 5269,
      "soen": 5270,
      "iertel": 5271,
      "gebung": 5272,
      "surpr": 5273,
      "Darauf": 5274,
      "fficient": 5275,
      "morgen": 5276,
      "supported": 5277,
      "Sonne": 5278,
      "regelmaessig": 5279,
      "Apr": 5280,
      "Bonn": 5281,
      "Van": 5282,
      "masch": 5283,
      "tick": 5284,
      "uck": 5285,
      "ona": 5286,
      "thats": 5287,
      "inside": 5288,
      "bedingt": 5289,
      "Among": 5290,
      "Klasse": 5291,
      "richtung": 5292,
      "schnitt": 5293,
      "designed": 5294,
      "naechste": 5295,
      "Verwaltungs": 5296,
      "Zwischen": 5297,
      "Additionally": 5298,
      "Could": 5299,
      "Ear": 5300,
      "Histor": 5301,
      "Rund": 5302,
      "kno": 5303,
      "kultur": 5304,
      "lat": 5305,
      "roman": 5306,
      "oldest": 5307,
      "schriften": 5308,
      "ables": 5309,
      "lay": 5310,
      "management": 5311,
      "ifik": 5312,
      "Schutz": 5313,
      "ehrung": 5314,
      "Ang": 5315,
      "sug": 5316,
      "hinzu": 5317,
      "zeiten": 5318,
      "network": 5319,
      "content": 5320,
      "products": 5321,
      "gruppe": 5322,
      "collection": 5323,
      "fuegt": 5324,
      "movement": 5325,
      "vironment": 5326,
      "according": 5327,
      "abhaengig": 5328,
      "Tele": 5329,
      "craft": 5330,
      "ners": 5331,
      "says": 5332,
      "erer": 5333,
      "theast": 5334,
      "iglich": 5335,
      "Sche": 5336,
      "interess": 5337,
      "Gesicht": 5338,
      "Maed": 5339,
      "plement": 5340,
      "difference": 5341,
      "rechts": 5342,
      "innerhalb": 5343,
      "Dreh": 5344,
      "schlecht": 5345,
      "pieces": 5346,
      "Centr": 5347,
      "Letz": 5348,
      "journal": 5349,
      "lif": 5350,
      "mouth": 5351,
      "rar": 5352,
      "rate": 5353,
      "wahl": 5354,
      "esch": 5355,
      "lehr": 5356,
      "deal": 5357,
      "ental": 5358,
      "tend": 5359,
      "weight": 5360,
      "iful": 5361,
      "Vertre": 5362,
      "quant": 5363,
      "koerper": 5364,
      "brechen": 5365,
      "helfen": 5366,
      "double": 5367,
      "Eisenbahn": 5368,
      "Grenze": 5369,
      "Studien": 5370,
      "Freiburg": 5371,
      "Hund": 5372,
      "Hart": 5373,
      "Punkt": 5374,
      "nin": 5375,
      "quer": 5376,
      "unced": 5377,
      "befand": 5378,
      "versuch": 5379,
      "ability": 5380,
      "loesen": 5381,
      "gesetz": 5382,
      "earth": 5383,
      "Sozial": 5384,
      "hingegen": 5385,
      "taste": 5386,
      "fuehrer": 5387,
      "Through": 5388,
      "ologne": 5389,
      "struct": 5390,
      "voc": 5391,
      "guten": 5392,
      "Seitdem": 5393,
      "systems": 5394,
      "decision": 5395,
      "Italy": 5396,
      "enthaelt": 5397,
      "friends": 5398,
      "Zentrum": 5399,
      "Feld": 5400,
      "Nav": 5401,
      "lights": 5402,
      "ering": 5403,
      "erster": 5404,
      "onze": 5405,
      "hest": 5406,
      "territ": 5407,
      "ischof": 5408,
      "deshalb": 5409,
      "proced": 5410,
      "ipe": 5411,
      "ueberwiegend": 5412,
      "shot": 5413,
      "temberg": 5414,
      "hardly": 5415,
      "Switzer": 5416,
      "songs": 5417,
      "quarter": 5418,
      "ausserdem": 5419,
      "Portug": 5420,
      "television": 5421,
      "gespielt": 5422,
      "Central": 5423,
      "Buecher": 5424,
      "Cologne": 5425,
      "Rat": 5426,
      "Vom": 5427,
      "ki": 5428,
      "mis": 5429,
      "nation": 5430,
      "oben": 5431,
      "zone": 5432,
      "ente": 5433,
      "deep": 5434,
      "uech": 5435,
      "ulpt": 5436,
      "gelegen": 5437,
      "Aufgabe": 5438,
      "zweif": 5439,
      "Koeln": 5440,
      "Rock": 5441,
      "holt": 5442,
      "animal": 5443,
      "increas": 5444,
      "vehicle": 5445,
      "susp": 5446,
      "Namens": 5447,
      "Nevertheless": 5448,
      "Bevoelkerung": 5449,
      "Jr": 5450,
      "Runde": 5451,
      "pal": 5452,
      "tast": 5453,
      "ising": 5454,
      "editor": 5455,
      "imp": 5456,
      "wash": 5457,
      "veget": 5458,
      "hope": 5459,
      "managed": 5460,
      "keits": 5461,
      "shar": 5462,
      "riebe": 5463,
      "offers": 5464,
      "vention": 5465,
      "Exper": 5466,
      "specific": 5467,
      "daraufhin": 5468,
      "achieved": 5469,
      "principle": 5470,
      "Switzerland": 5471,
      "Dor": 5472,
      "Hot": 5473,
      "Liga": 5474,
      "aver": 5475,
      "fehlt": 5476,
      "hell": 5477,
      "stet": 5478,
      "heard": 5479,
      "gepraegt": 5480,
      "schiff": 5481,
      "Stift": 5482,
      "Bezeichnung": 5483,
      "making": 5484,
      "geloest": 5485,
      "resist": 5486,
      "Weil": 5487,
      "news": 5488,
      "Associ": 5489,
      "testant": 5490,
      "Deutsche": 5491,
      "complete": 5492,
      "diente": 5493,
      "questions": 5494,
      "Austral": 5495,
      "entwickelt": 5496,
      "Pflanzen": 5497,
      "Professor": 5498,
      "Court": 5499,
      "Ga": 5500,
      "Kamer": 5501,
      "Rud": 5502,
      "Tex": 5503,
      "Test": 5504,
      "cemetery": 5505,
      "sum": 5506,
      "zwar": 5507,
      "eral": 5508,
      "erweise": 5509,
      "defe": 5510,
      "beein": 5511,
      "uses": 5512,
      "indic": 5513,
      "youre": 5514,
      "compla": 5515,
      "artist": 5516,
      "artic": 5517,
      "Erde": 5518,
      "iko": 5519,
      "Mitt": 5520,
      "buy": 5521,
      "struktur": 5522,
      "atsaechlich": 5523,
      "verloren": 5524,
      "leitet": 5525,
      "offered": 5526,
      "Garten": 5527,
      "relatively": 5528,
      "temperature": 5529,
      "document": 5530,
      "offiziel": 5531,
      "veroeffentlicht": 5532,
      "Ass": 5533,
      "Hum": 5534,
      "Sind": 5535,
      "Wert": 5536,
      "mst": 5537,
      "rights": 5538,
      "task": 5539,
      "enge": 5540,
      "injur": 5541,
      "bekommt": 5542,
      "Information": 5543,
      "hafen": 5544,
      "Schle": 5545,
      "zeigen": 5546,
      "step": 5547,
      "sele": 5548,
      "gelten": 5549,
      "knowledge": 5550,
      "Chor": 5551,
      "autiful": 5552,
      "Landwirtschaft": 5553,
      "fields": 5554,
      "writing": 5555,
      "meistens": 5556,
      "Beginn": 5557,
      "weeks": 5558,
      "leitung": 5559,
      "esterday": 5560,
      "Firma": 5561,
      "Ernst": 5562,
      "suggest": 5563,
      "Loe": 5564,
      "Lied": 5565,
      "fon": 5566,
      "gift": 5567,
      "ras": 5568,
      "video": 5569,
      "chnet": 5570,
      "iron": 5571,
      "Thema": 5572,
      "ierungen": 5573,
      "ulated": 5574,
      "resh": 5575,
      "driving": 5576,
      "Weiss": 5577,
      "transfer": 5578,
      "profession": 5579,
      "quality": 5580,
      "Johannes": 5581,
      "highest": 5582,
      "costs": 5583,
      "Reihe": 5584,
      "Mex": 5585,
      "Netz": 5586,
      "Sub": 5587,
      "bak": 5588,
      "cies": 5589,
      "fit": 5590,
      "galt": 5591,
      "ios": 5592,
      "ocr": 5593,
      "erreicht": 5594,
      "environment": 5595,
      "aner": 5596,
      "gehalten": 5597,
      "warten": 5598,
      "combin": 5599,
      "promo": 5600,
      "lieben": 5601,
      "Energie": 5602,
      "strict": 5603,
      "altung": 5604,
      "idents": 5605,
      "ehnen": 5606,
      "Manche": 5607,
      "Manchmal": 5608,
      "gleichzeitig": 5609,
      "Besitz": 5610,
      "Luther": 5611,
      "Nothing": 5612,
      "Despite": 5613,
      "clearly": 5614,
      "Gegensatz": 5615,
      "leading": 5616,
      "initi": 5617,
      "offee": 5618,
      "David": 5619,
      "vorhanden": 5620,
      "Cur": 5621,
      "Moder": 5622,
      "Tun": 5623,
      "dein": 5624,
      "jen": 5625,
      "kal": 5626,
      "sive": 5627,
      "onom": 5628,
      "unknown": 5629,
      "umin": 5630,
      "Stamm": 5631,
      "opin": 5632,
      "compo": 5633,
      "ears": 5634,
      "Nachfolger": 5635,
      "president": 5636,
      "carry": 5637,
      "films": 5638,
      "running": 5639,
      "meaning": 5640,
      "enthalten": 5641,
      "silver": 5642,
      "Probleme": 5643,
      "komplett": 5644,
      "influence": 5645,
      "urspruenglich": 5646,
      "Verbindung": 5647,
      "Dresden": 5648,
      "Temperatur": 5649,
      "Come": 5650,
      "Det": 5651,
      "Distr": 5652,
      "Dinge": 5653,
      "Hanno": 5654,
      "Kam": 5655,
      "Last": 5656,
      "eper": 5657,
      "gau": 5658,
      "valley": 5659,
      "isation": 5660,
      "removed": 5661,
      "Altern": 5662,
      "finde": 5663,
      "avoid": 5664,
      "mehrfach": 5665,
      "parish": 5666,
      "colors": 5667,
      "langsam": 5668,
      "Nov": 5669,
      "Charakter": 5670,
      "limited": 5671,
      "practice": 5672,
      "oppel": 5673,
      "extremely": 5674,
      "claim": 5675,
      "Ehren": 5676,
      "Osten": 5677,
      "Voll": 5678,
      "ses": 5679,
      "unbe": 5680,
      "verwalt": 5681,
      "manchmal": 5682,
      "auchen": 5683,
      "grown": 5684,
      "ishing": 5685,
      "doesn": 5686,
      "solution": 5687,
      "broken": 5688,
      "strecke": 5689,
      "Betrieb": 5690,
      "Good": 5691,
      "horse": 5692,
      "Typ": 5693,
      "agriculture": 5694,
      "April": 5695,
      "Bud": 5696,
      "Ven": 5697,
      "Val": 5698,
      "beteil": 5699,
      "fat": 5700,
      "pun": 5701,
      "pel": 5702,
      "ror": 5703,
      "yal": 5704,
      "reign": 5705,
      "hem": 5706,
      "deg": 5707,
      "verste": 5708,
      "verbreit": 5709,
      "entsprechen": 5710,
      "erner": 5711,
      "tried": 5712,
      "Gew": 5713,
      "Champion": 5714,
      "Brun": 5715,
      "staerk": 5716,
      "gemeinde": 5717,
      "Schluss": 5718,
      "joined": 5719,
      "professor": 5720,
      "sentence": 5721,
      "ategor": 5722,
      "Arab": 5723,
      "Bal": 5724,
      "Hir": 5725,
      "jump": 5726,
      "enor": 5727,
      "consequ": 5728,
      "iences": 5729,
      "feed": 5730,
      "serve": 5731,
      "ritz": 5732,
      "phones": 5733,
      "match": 5734,
      "treat": 5735,
      "districts": 5736,
      "generally": 5737,
      "thirty": 5738,
      "require": 5739,
      "female": 5740,
      "Militaer": 5741,
      "bol": 5742,
      "fix": 5743,
      "gain": 5744,
      "las": 5745,
      "oss": 5746,
      "sides": 5747,
      "ini": 5748,
      "thedr": 5749,
      "weak": 5750,
      "empt": 5751,
      "sues": 5752,
      "partner": 5753,
      "Klaus": 5754,
      "additional": 5755,
      "straight": 5756,
      "choir": 5757,
      "personal": 5758,
      "Party": 5759,
      "quarters": 5760,
      "amount": 5761,
      "Fehler": 5762,
      "Haf": 5763,
      "hart": 5764,
      "horn": 5765,
      "lets": 5766,
      "mlich": 5767,
      "sister": 5768,
      "geordnet": 5769,
      "verd": 5770,
      "wear": 5771,
      "lap": 5772,
      "spro": 5773,
      "ausgest": 5774,
      "ida": 5775,
      "appe": 5776,
      "itting": 5777,
      "visible": 5778,
      "Computer": 5779,
      "missing": 5780,
      "gemeinsam": 5781,
      "Entscheid": 5782,
      "Niemand": 5783,
      "Swiss": 5784,
      "block": 5785,
      "iminal": 5786,
      "oeffentlichen": 5787,
      "competition": 5788,
      "source": 5789,
      "fasste": 5790,
      "Studium": 5791,
      "attempt": 5792,
      "Fass": 5793,
      "Hard": 5794,
      "Kaffe": 5795,
      "Toe": 5796,
      "might": 5797,
      "nar": 5798,
      "tained": 5799,
      "wal": 5800,
      "anc": 5801,
      "stammen": 5802,
      "geworden": 5803,
      "verwenden": 5804,
      "weap": 5805,
      "Ann": 5806,
      "flat": 5807,
      "below": 5808,
      "teils": 5809,
      "staat": 5810,
      "praesent": 5811,
      "Super": 5812,
      "zahlreichen": 5813,
      "trained": 5814,
      "basic": 5815,
      "seitig": 5816,
      "industr": 5817,
      "Club": 5818,
      "wieso": 5819,
      "heutigen": 5820,
      "Glo": 5821,
      "Gib": 5822,
      "Greek": 5823,
      "Kro": 5824,
      "Ra": 5825,
      "Sach": 5826,
      "Stern": 5827,
      "Tisch": 5828,
      "Wes": 5829,
      "bein": 5830,
      "bele": 5831,
      "bread": 5832,
      "thre": 5833,
      "atom": 5834,
      "implement": 5835,
      "egel": 5836,
      "Until": 5837,
      "flight": 5838,
      "stellungen": 5839,
      "elebr": 5840,
      "create": 5841,
      "Sever": 5842,
      "background": 5843,
      "Kompon": 5844,
      "Darf": 5845,
      "Gemeinden": 5846,
      "zaehlen": 5847,
      "Folgen": 5848,
      "measure": 5849,
      "memor": 5850,
      "square": 5851,
      "Maschinen": 5852,
      "Indust": 5853,
      "Bist": 5854,
      "Taet": 5855,
      "Wett": 5856,
      "bieten": 5857,
      "dish": 5858,
      "gern": 5859,
      "hurt": 5860,
      "trotz": 5861,
      "udes": 5862,
      "ichter": 5863,
      "lect": 5864,
      "sec": 5865,
      "spo": 5866,
      "miteinander": 5867,
      "poet": 5868,
      "Einwohner": 5869,
      "rants": 5870,
      "lerweile": 5871,
      "Steuer": 5872,
      "dreissig": 5873,
      "frage": 5874,
      "appears": 5875,
      "digital": 5876,
      "Verwaltung": 5877,
      "conditions": 5878,
      "Hannover": 5879,
      "Industrie": 5880,
      "Dro": 5881,
      "cable": 5882,
      "division": 5883,
      "dagegen": 5884,
      "fassen": 5885,
      "hle": 5886,
      "size": 5887,
      "erlau": 5888,
      "beautiful": 5889,
      "ille": 5890,
      "istik": 5891,
      "verband": 5892,
      "imag": 5893,
      "entstehen": 5894,
      "spent": 5895,
      "hour": 5896,
      "mittee": 5897,
      "suche": 5898,
      "worfen": 5899,
      "vorbei": 5900,
      "ference": 5901,
      "waste": 5902,
      "Weise": 5903,
      "Flu": 5904,
      "vielleicht": 5905,
      "zahlen": 5906,
      "schwier": 5907,
      "faellig": 5908,
      "Bier": 5909,
      "Los": 5910,
      "Sat": 5911,
      "Sicht": 5912,
      "Wur": 5913,
      "Wappen": 5914,
      "fine": 5915,
      "kne": 5916,
      "oester": 5917,
      "vin": 5918,
      "zi": 5919,
      "throw": 5920,
      "stern": 5921,
      "istry": 5922,
      "forgot": 5923,
      "ession": 5924,
      "confl": 5925,
      "Any": 5926,
      "Verfahren": 5927,
      "plate": 5928,
      "landsc": 5929,
      "elected": 5930,
      "prec": 5931,
      "Thus": 5932,
      "posit": 5933,
      "Moz": 5934,
      "bestimm": 5935,
      "Staaten": 5936,
      "fruit": 5937,
      "profit": 5938,
      "communities": 5939,
      "rooms": 5940,
      "Jewish": 5941,
      "kirchen": 5942,
      "zentrum": 5943,
      "Philipp": 5944,
      "Paar": 5945,
      "Richard": 5946,
      "temporary": 5947,
      "newspaper": 5948,
      "commercial": 5949,
      "Division": 5950,
      "Hoff": 5951,
      "Wand": 5952,
      "Were": 5953,
      "cceed": 5954,
      "celebr": 5955,
      "iar": 5956,
      "rated": 5957,
      "samm": 5958,
      "erhe": 5959,
      "erter": 5960,
      "theory": 5961,
      "replaced": 5962,
      "image": 5963,
      "cting": 5964,
      "spot": 5965,
      "aussen": 5966,
      "endorf": 5967,
      "succeed": 5968,
      "Veranstalt": 5969,
      "percent": 5970,
      "apel": 5971,
      "ihres": 5972,
      "student": 5973,
      "importance": 5974,
      "originally": 5975,
      "represented": 5976,
      "sounds": 5977,
      "Personal": 5978,
      "circ": 5979,
      "Suche": 5980,
      "Alexander": 5981,
      "erreichte": 5982,
      "Sem": 5983,
      "Turm": 5984,
      "Za": 5985,
      "bike": 5986,
      "battle": 5987,
      "ux": 5988,
      "zimmer": 5989,
      "anne": 5990,
      "stin": 5991,
      "states": 5992,
      "edom": 5993,
      "element": 5994,
      "repe": 5995,
      "tomor": 5996,
      "bear": 5997,
      "beispiel": 5998,
      "verlaeuft": 5999,
      "schloss": 6000,
      "omm": 6001,
      "ades": 6002,
      "haengen": 6003,
      "mitglie": 6004,
      "mosp": 6005,
      "egal": 6006,
      "faeng": 6007,
      "Versuch": 6008,
      "Vertrag": 6009,
      "Einfluss": 6010,
      "upon": 6011,
      "Record": 6012,
      "ccer": 6013,
      "braun": 6014,
      "cape": 6015,
      "meters": 6016,
      "spring": 6017,
      "programm": 6018,
      "Glueck": 6019,
      "expand": 6020,
      "Milch": 6021,
      "emergency": 6022,
      "definit": 6023,
      "vehicles": 6024,
      "security": 6025,
      "Association": 6026,
      "opinion": 6027,
      "tomorrow": 6028,
      "-,": 6029,
      "Daher": 6030,
      "Moe": 6031,
      "cult": 6032,
      "fie": 6033,
      "iro": 6034,
      "kit": 6035,
      "oc": 6036,
      "slo": 6037,
      "slight": 6038,
      "union": 6039,
      "verlassen": 6040,
      "rael": 6041,
      "hosp": 6042,
      "Schliess": 6043,
      "assum": 6044,
      "coast": 6045,
      "uster": 6046,
      "male": 6047,
      "bles": 6048,
      "reiber": 6049,
      "baro": 6050,
      "Vorsitz": 6051,
      "Wirtschafts": 6052,
      "basis": 6053,
      "vollstaendig": 6054,
      "write": 6055,
      "lawyer": 6056,
      "factory": 6057,
      "mutlich": 6058,
      "entwickelte": 6059,
      "significantly": 6060,
      "neighb": 6061,
      "software": 6062,
      "fliesst": 6063,
      "Staedte": 6064,
      "inhabit": 6065,
      "rarely": 6066,
      "Gust": 6067,
      "Pfe": 6068,
      "Ruecken": 6069,
      "dach": 6070,
      "fant": 6071,
      "ores": 6072,
      "ausch": 6073,
      "enten": 6074,
      "abzu": 6075,
      "akte": 6076,
      "drauf": 6077,
      "Hermann": 6078,
      "Thereby": 6079,
      "crete": 6080,
      "posite": 6081,
      "gewiesen": 6082,
      "stret": 6083,
      "immel": 6084,
      "Wagen": 6085,
      "Trainer": 6086,
      "gemeinschaft": 6087,
      "Spezial": 6088,
      "Sprachen": 6089,
      "fertig": 6090,
      "movies": 6091,
      "effects": 6092,
      "Council": 6093,
      "wahrscheinlich": 6094,
      "glaube": 6095,
      "Latin": 6096,
      "Politik": 6097,
      "einzelnen": 6098,
      "Kranken": 6099,
      "Aca": 6100,
      "Kern": 6101,
      "Moment": 6102,
      "Sold": 6103,
      "Show": 6104,
      "Walter": 6105,
      "cin": 6106,
      "camer": 6107,
      "coffee": 6108,
      "deinen": 6109,
      "killed": 6110,
      "tha": 6111,
      "sting": 6112,
      "gem": 6113,
      "radi": 6114,
      "laden": 6115,
      "spann": 6116,
      "hose": 6117,
      "iffen": 6118,
      "Schwarz": 6119,
      "rule": 6120,
      "blick": 6121,
      "Aufgrund": 6122,
      "betra": 6123,
      "understood": 6124,
      "parliament": 6125,
      "ksam": 6126,
      "guelt": 6127,
      "owned": 6128,
      "evening": 6129,
      "Elis": 6130,
      "westlich": 6131,
      "highly": 6132,
      "wissenschaften": 6133,
      "Austrian": 6134,
      "Linie": 6135,
      "irgendwie": 6136,
      "Bremen": 6137,
      "schmeckt": 6138,
      "Academ": 6139,
      "Dra": 6140,
      "Emp": 6141,
      "Open": 6142,
      "Rand": 6143,
      "dah": 6144,
      "dance": 6145,
      "fliegen": 6146,
      "gg": 6147,
      "send": 6148,
      "tie": 6149,
      "weder": 6150,
      "infe": 6151,
      "ano": 6152,
      "onen": 6153,
      "eless": 6154,
      "audien": 6155,
      "bezir": 6156,
      "schuss": 6157,
      "omer": 6158,
      "nose": 6159,
      "fordert": 6160,
      "Inn": 6161,
      "Stau": 6162,
      "Albert": 6163,
      "Bevor": 6164,
      "schaffen": 6165,
      "gebaeude": 6166,
      "poses": 6167,
      "staer": 6168,
      "holen": 6169,
      "efte": 6170,
      "milk": 6171,
      "konstru": 6172,
      "brauchen": 6173,
      "numbers": 6174,
      "joy": 6175,
      "wechselte": 6176,
      "accident": 6177,
      "absolvierte": 6178,
      "Donau": 6179,
      "property": 6180,
      "Africa": 6181,
      "investig": 6182,
      "nehmer": 6183,
      "Act": 6184,
      "Apart": 6185,
      "Fal": 6186,
      "Jer": 6187,
      "Koch": 6188,
      "Sig": 6189,
      "Sinn": 6190,
      "buerger": 6191,
      "dete": 6192,
      "lant": 6193,
      "wesen": 6194,
      "zern": 6195,
      "isher": 6196,
      "orange": 6197,
      "ella": 6198,
      "schwar": 6199,
      "idi": 6200,
      "Heidel": 6201,
      "Under": 6202,
      "grau": 6203,
      "stuhl": 6204,
      "betrieb": 6205,
      "previous": 6206,
      "mannschaft": 6207,
      "freien": 6208,
      "Island": 6209,
      "foundation": 6210,
      "dienen": 6211,
      "kaufen": 6212,
      "includes": 6213,
      "Serie": 6214,
      "rolled": 6215,
      "absolut": 6216,
      "required": 6217,
      "activities": 6218,
      "regularly": 6219,
      "neighbors": 6220,
      "Hann": 6221,
      "Kiel": 6222,
      "Ram": 6223,
      "golden": 6224,
      "iqu": 6225,
      "ote": 6226,
      "rist": 6227,
      "vant": 6228,
      "vac": 6229,
      "wit": 6230,
      "geg": 6231,
      "gefaehr": 6232,
      "told": 6233,
      "verz": 6234,
      "hoert": 6235,
      "opae": 6236,
      "illust": 6237,
      "Unfortunately": 6238,
      "mathemat": 6239,
      "linge": 6240,
      "frist": 6241,
      "shown": 6242,
      "Koennen": 6243,
      "Regional": 6244,
      "smaller": 6245,
      "Lux": 6246,
      "bauen": 6247,
      "decis": 6248,
      "listed": 6249,
      "birds": 6250,
      "Belg": 6251,
      "Play": 6252,
      "types": 6253,
      "gerichtet": 6254,
      "football": 6255,
      "safe": 6256,
      "Relig": 6257,
      "Prinzip": 6258,
      "mentioned": 6259,
      "Nobody": 6260,
      "Fig": 6261,
      "Oft": 6262,
      "Pfar": 6263,
      "Position": 6264,
      "iate": 6265,
      "lers": 6266,
      "sort": 6267,
      "uell": 6268,
      "unte": 6269,
      "eds": 6270,
      "gewo": 6271,
      "tober": 6272,
      "ilities": 6273,
      "denken": 6274,
      "oppon": 6275,
      "idden": 6276,
      "concept": 6277,
      "Engel": 6278,
      "Social": 6279,
      "betrieben": 6280,
      "Kosten": 6281,
      "cars": 6282,
      "media": 6283,
      "smell": 6284,
      "marked": 6285,
      "Tradition": 6286,
      "cake": 6287,
      "Arbeiten": 6288,
      "window": 6289,
      "Muell": 6290,
      "koennten": 6291,
      "balance": 6292,
      "wartet": 6293,
      "...": 6294,
      "entfernt": 6295,
      "Software": 6296,
      "ibliothek": 6297,
      "inhabitants": 6298,
      "Lim": 6299,
      "Like": 6300,
      "Sign": 6301,
      "Vir": 6302,
      "kraft": 6303,
      "pull": 6304,
      "vior": 6305,
      "erreichen": 6306,
      "escape": 6307,
      "onstr": 6308,
      "aren": 6309,
      "issues": 6310,
      "ety": 6311,
      "leiter": 6312,
      "spiele": 6313,
      "acy": 6314,
      "issue": 6315,
      "darueber": 6316,
      "looked": 6317,
      "trying": 6318,
      "Lake": 6319,
      "windows": 6320,
      "crown": 6321,
      "shape": 6322,
      "painting": 6323,
      "erfolgte": 6324,
      "Bereits": 6325,
      "Schwester": 6326,
      "Welche": 6327,
      "interested": 6328,
      "aurant": 6329,
      "Chem": 6330,
      "doubt": 6331,
      "pictures": 6332,
      "behavior": 6333,
      "Maenner": 6334,
      "Mik": 6335,
      "Wall": 6336,
      "Wicht": 6337,
      "Wander": 6338,
      "blich": 6339,
      "bass": 6340,
      "batter": 6341,
      "god": 6342,
      "zip": 6343,
      "urance": 6344,
      "tourn": 6345,
      "amber": 6346,
      "verstanden": 6347,
      "undzwanzig": 6348,
      "Schlag": 6349,
      "werfen": 6350,
      "Alten": 6351,
      "gram": 6352,
      "dry": 6353,
      "founder": 6354,
      "Herren": 6355,
      "consum": 6356,
      "achtet": 6357,
      "ativen": 6358,
      "motion": 6359,
      "Produkt": 6360,
      "authorities": 6361,
      "trug": 6362,
      "memory": 6363,
      "somehow": 6364,
      "thinks": 6365,
      "suitable": 6366,
      "funktioniert": 6367,
      "Several": 6368,
      "\"-": 6369,
      "Edu": 6370,
      "Fer": 6371,
      "Il": 6372,
      "Junge": 6373,
      "Laut": 6374,
      "Pak": 6375,
      "Zun": 6376,
      "eff": 6377,
      "rig": 6378,
      "va": 6379,
      "era": 6380,
      "inal": 6381,
      "thick": 6382,
      "store": 6383,
      "stoffe": 6384,
      "isierte": 6385,
      "isnt": 6386,
      "iche": 6387,
      "reag": 6388,
      "umfasst": 6389,
      "added": 6390,
      "uecht": 6391,
      "rub": 6392,
      "expected": 6393,
      "estim": 6394,
      "ierende": 6395,
      "discovered": 6396,
      "ologischen": 6397,
      "intell": 6398,
      "grad": 6399,
      "medal": 6400,
      "needed": 6401,
      "signal": 6402,
      "qualif": 6403,
      "White": 6404,
      "grosser": 6405,
      "Karls": 6406,
      "contrast": 6407,
      "jaehrigen": 6408,
      "Technik": 6409,
      "situated": 6410,
      "Maschine": 6411,
      "picture": 6412,
      "oesterreich": 6413,
      "House": 6414,
      "Jes": 6415,
      "Zahn": 6416,
      "phal": 6417,
      "schwarz": 6418,
      "adel": 6419,
      "agog": 6420,
      "illen": 6421,
      "leichter": 6422,
      "Bauern": 6423,
      "passiert": 6424,
      "starting": 6425,
      "azz": 6426,
      "arrang": 6427,
      "depends": 6428,
      "Disk": 6429,
      "Gleichzeitig": 6430,
      "measures": 6431,
      "falsch": 6432,
      "Jedoch": 6433,
      "Cont": 6434,
      "Dass": 6435,
      "Eck": 6436,
      "Hit": 6437,
      "Pop": 6438,
      "Sco": 6439,
      "Situ": 6440,
      "Veg": 6441,
      "dise": 6442,
      "dunk": 6443,
      "gor": 6444,
      "langen": 6445,
      "latter": 6446,
      "teuer": 6447,
      "schne": 6448,
      "Themen": 6449,
      "ierungs": 6450,
      "sper": 6451,
      "hockey": 6452,
      "opposite": 6453,
      "endes": 6454,
      "ruhe": 6455,
      "Sieg": 6456,
      "aeum": 6457,
      "geraet": 6458,
      "riech": 6459,
      "geblich": 6460,
      "itzen": 6461,
      "register": 6462,
      "scr": 6463,
      "monument": 6464,
      "complex": 6465,
      "foreign": 6466,
      "product": 6467,
      "cript": 6468,
      "familie": 6469,
      "charge": 6470,
      "ault": 6471,
      "occasion": 6472,
      "magnet": 6473,
      "igesetzt": 6474,
      "klaert": 6475,
      "religious": 6476,
      "Kritik": 6477,
      "exclus": 6478,
      "library": 6479,
      "Daraufhin": 6480,
      "Acht": 6481,
      "Fuen": 6482,
      "Haende": 6483,
      "Journal": 6484,
      "Lou": 6485,
      "Rum": 6486,
      "Var": 6487,
      "Wider": 6488,
      "coll": 6489,
      "fing": 6490,
      "gaenger": 6491,
      "nommen": 6492,
      "rical": 6493,
      "wild": 6494,
      "waechst": 6495,
      "iso": 6496,
      "legs": 6497,
      "gekommen": 6498,
      "destens": 6499,
      "tea": 6500,
      "imar": 6501,
      "weist": 6502,
      "beruf": 6503,
      "composition": 6504,
      "mail": 6505,
      "interpret": 6506,
      "stuff": 6507,
      "mussten": 6508,
      "jede": 6509,
      "Gesetz": 6510,
      "Pruss": 6511,
      "damage": 6512,
      "treffen": 6513,
      "organization": 6514,
      "plane": 6515,
      "rechte": 6516,
      "Ihren": 6517,
      "Flughafen": 6518,
      "learned": 6519,
      "unterschiedlich": 6520,
      "referred": 6521,
      "Spanish": 6522,
      "relationship": 6523,
      "Cre": 6524,
      "Ner": 6525,
      "Ring": 6526,
      "Vie": 6527,
      "rund": 6528,
      "summer": 6529,
      "chain": 6530,
      "anlage": 6531,
      "lehn": 6532,
      "ueste": 6533,
      "aufgenommen": 6534,
      "theres": 6535,
      "Hey": 6536,
      "Anna": 6537,
      "Verband": 6538,
      "ples": 6539,
      "ialog": 6540,
      "gete": 6541,
      "Soehne": 6542,
      "eleven": 6543,
      "Sek": 6544,
      "corner": 6545,
      "holid": 6546,
      "services": 6547,
      "italien": 6548,
      "letter": 6549,
      "Short": 6550,
      "sprung": 6551,
      "wohnt": 6552,
      "stories": 6553,
      "fanden": 6554,
      "clubs": 6555,
      "Kuehl": 6556,
      "daughters": 6557,
      "waiting": 6558,
      "caused": 6559,
      "instrument": 6560,
      "degree": 6561,
      "Eigentlich": 6562,
      "ake": 6563,
      "bing": 6564,
      "bour": 6565,
      "core": 6566,
      "rix": 6567,
      "taught": 6568,
      "tatsaechlich": 6569,
      "vation": 6570,
      "vict": 6571,
      "gefallen": 6572,
      "tool": 6573,
      "usual": 6574,
      "abgesch": 6575,
      "Stellen": 6576,
      "Erna": 6577,
      "gelesen": 6578,
      "boden": 6579,
      "frau": 6580,
      "players": 6581,
      "Landkreis": 6582,
      "Umgebung": 6583,
      "guitar": 6584,
      "ziemlich": 6585,
      "letzter": 6586,
      "Foer": 6587,
      "ports": 6588,
      "provided": 6589,
      "expens": 6590,
      "Stock": 6591,
      "separate": 6592,
      "screen": 6593,
      "Peters": 6594,
      "Nachbarn": 6595,
      "Hoehe": 6596,
      "Maedchen": 6597,
      "Rudolf": 6598,
      "industrial": 6599,
      "Bischof": 6600,
      "Fein": 6601,
      "Kunden": 6602,
      "Szen": 6603,
      "lust": 6604,
      "push": 6605,
      "stad": 6606,
      "onto": 6607,
      "ird": 6608,
      "utage": 6609,
      "ischt": 6610,
      "lying": 6611,
      "hagen": 6612,
      "having": 6613,
      "egte": 6614,
      "hase": 6615,
      "ftig": 6616,
      "respe": 6617,
      "baren": 6618,
      "Zeitpunkt": 6619,
      "Gesamt": 6620,
      "fuehrten": 6621,
      "onna": 6622,
      "Brenn": 6623,
      "Mail": 6624,
      "gleichnam": 6625,
      "Regeln": 6626,
      "airport": 6627,
      "Weltmeister": 6628,
      "fourth": 6629,
      "increased": 6630,
      "employed": 6631,
      "happens": 6632,
      "teeth": 6633,
      "William": 6634,
      "heavy": 6635,
      "piano": 6636,
      "execut": 6637,
      "Bot": 6638,
      "Finger": 6639,
      "Gal": 6640,
      "Give": 6641,
      "Lar": 6642,
      "Old": 6643,
      "Ohren": 6644,
      "belt": 6645,
      "stir": 6646,
      "elements": 6647,
      "becomes": 6648,
      "schm": 6649,
      "utch": 6650,
      "Stich": 6651,
      "ielten": 6652,
      "ibung": 6653,
      "fuell": 6654,
      "fuehl": 6655,
      "gress": 6656,
      "ordnung": 6657,
      "acting": 6658,
      "zweimal": 6659,
      "jected": 6660,
      "iedelt": 6661,
      "portra": 6662,
      "shopping": 6663,
      "finds": 6664,
      "begru": 6665,
      "Unterschied": 6666,
      "atively": 6667,
      "successor": 6668,
      "flowers": 6669,
      "Schlu": 6670,
      "Bestand": 6671,
      "lernte": 6672,
      "representative": 6673,
      "Braun": 6674,
      "automatisch": 6675,
      "abeth": 6676,
      "magazine": 6677,
      "zerstoert": 6678,
      "staette": 6679,
      "financial": 6680,
      "Buer": 6681,
      "Dok": 6682,
      "Ker": 6683,
      "Mess": 6684,
      "aktion": 6685,
      "cement": 6686,
      "fill": 6687,
      "krank": 6688,
      "ua": 6689,
      "wander": 6690,
      "stick": 6691,
      "bek": 6692,
      "noise": 6693,
      "lager": 6694,
      "Institute": 6695,
      "Anlage": 6696,
      "pool": 6697,
      "Vergleich": 6698,
      "ueberall": 6699,
      "earlier": 6700,
      "durchgefuehrt": 6701,
      "format": 6702,
      "Aussen": 6703,
      "frame": 6704,
      "Lower": 6705,
      "aille": 6706,
      "county": 6707,
      "presented": 6708,
      "Fahrrad": 6709,
      "Artikel": 6710,
      "Carl": 6711,
      "Volk": 6712,
      "Streit": 6713,
      "wichtige": 6714,
      "evangel": 6715,
      "evidence": 6716,
      "draw": 6717,
      "Finanz": 6718,
      "blieben": 6719,
      "status": 6720,
      "protect": 6721,
      "Vereins": 6722,
      "equipped": 6723,
      "korre": 6724,
      "lautet": 6725,
      "regarded": 6726,
      "erneut": 6727,
      "broadcast": 6728,
      "permanent": 6729,
      "Bunde": 6730,
      "Mand": 6731,
      "Nation": 6732,
      "Roll": 6733,
      "Soll": 6734,
      "bast": 6735,
      "wann": 6736,
      "stic": 6737,
      "elimin": 6738,
      "isters": 6739,
      "ican": 6740,
      "sech": 6741,
      "eremon": 6742,
      "ems": 6743,
      "afr": 6744,
      "meat": 6745,
      "soccer": 6746,
      "ield": 6747,
      "express": 6748,
      "plans": 6749,
      "acken": 6750,
      "diag": 6751,
      "Web": 6752,
      "link": 6753,
      "Wird": 6754,
      "Unterstu": 6755,
      "headquarters": 6756,
      "stopped": 6757,
      "increase": 6758,
      "eastern": 6759,
      "aehnlich": 6760,
      "franzoesischen": 6761,
      "audience": 6762,
      "Ages": 6763,
      "Black": 6764,
      "Nahr": 6765,
      "aend": 6766,
      "diss": 6767,
      "fla": 6768,
      "wach": 6769,
      "anzu": 6770,
      "thet": 6771,
      "isser": 6772,
      "einiger": 6773,
      "gegru": 6774,
      "tex": 6775,
      "icke": 6776,
      "verstaend": 6777,
      "verfuegt": 6778,
      "raid": 6779,
      "hohe": 6780,
      "sogen": 6781,
      "Spre": 6782,
      "unterricht": 6783,
      "gebro": 6784,
      "spekt": 6785,
      "firm": 6786,
      "renz": 6787,
      "Royal": 6788,
      "erstmals": 6789,
      "lediglich": 6790,
      "Monate": 6791,
      "fragt": 6792,
      "stayed": 6793,
      "People": 6794,
      "meantime": 6795,
      "architect": 6796,
      "George": 6797,
      "Schliesslich": 6798,
      "Aster": 6799,
      "Fro": 6800,
      "Naz": 6801,
      "Sonnen": 6802,
      "bat": 6803,
      "bow": 6804,
      "gone": 6805,
      "lingen": 6806,
      "nes": 6807,
      "snow": 6808,
      "ora": 6809,
      "ami": 6810,
      "schalten": 6811,
      "abin": 6812,
      "noet": 6813,
      "neur": 6814,
      "Schmid": 6815,
      "examin": 6816,
      "Beit": 6817,
      "account": 6818,
      "weitgehend": 6819,
      "Mitarbeiter": 6820,
      "election": 6821,
      "scene": 6822,
      "Westphal": 6823,
      "Music": 6824,
      "organiz": 6825,
      "organized": 6826,
      "Finally": 6827,
      "militaer": 6828,
      "jueng": 6829,
      "Apparently": 6830,
      "automatically": 6831,
      "schreibt": 6832,
      "ursprueng": 6833,
      "getrennt": 6834,
      "procedure": 6835,
      "Gustav": 6836,
      "Brief": 6837,
      "Camp": 6838,
      "Golden": 6839,
      "Rome": 6840,
      "gingen": 6841,
      "leng": 6842,
      "mater": 6843,
      "thal": 6844,
      "elder": 6845,
      "leiden": 6846,
      "decor": 6847,
      "denburg": 6848,
      "Instr": 6849,
      "benutzt": 6850,
      "Anal": 6851,
      "iking": 6852,
      "maenn": 6853,
      "bling": 6854,
      "Sea": 6855,
      "bisschen": 6856,
      "medical": 6857,
      "ysis": 6858,
      "ziehung": 6859,
      "idential": 6860,
      "reality": 6861,
      "Ruhe": 6862,
      "biggest": 6863,
      "liste": 6864,
      "kaufs": 6865,
      "glauben": 6866,
      "recognized": 6867,
      "definitely": 6868,
      "Cr": 6869,
      "Las": 6870,
      "Mur": 6871,
      "Merk": 6872,
      "Pau": 6873,
      "Tanz": 6874,
      "aim": 6875,
      "cas": 6876,
      "crow": 6877,
      "culture": 6878,
      "finger": 6879,
      "nav": 6880,
      "pft": 6881,
      "uble": 6882,
      "uelle": 6883,
      "staende": 6884,
      "arg": 6885,
      "unbedingt": 6886,
      "asks": 6887,
      "bezeichnen": 6888,
      "amed": 6889,
      "note": 6890,
      "utzen": 6891,
      "States": 6892,
      "Schwar": 6893,
      "agent": 6894,
      "egentlich": 6895,
      "Augs": 6896,
      "astron": 6897,
      "shut": 6898,
      "fuhr": 6899,
      "stritten": 6900,
      "applied": 6901,
      "acted": 6902,
      "uenger": 6903,
      "undert": 6904,
      "redit": 6905,
      "gehoer": 6906,
      "Zukunft": 6907,
      "owners": 6908,
      "weiterer": 6909,
      "Groesse": 6910,
      "kadem": 6911,
      "harm": 6912,
      "Reichs": 6913,
      "jued": 6914,
      "bereitet": 6915,
      "flaechen": 6916,
      "Forschungs": 6917,
      "agricultural": 6918,
      "meeting": 6919,
      "slightly": 6920,
      "Dank": 6921,
      "Eg": 6922,
      "Geg": 6923,
      "Hes": 6924,
      "Hug": 6925,
      "Krank": 6926,
      "Rang": 6927,
      "Sae": 6928,
      "div": 6929,
      "eth": 6930,
      "jet": 6931,
      "nitz": 6932,
      "ties": 6933,
      "xis": 6934,
      "thro": 6935,
      "anlagen": 6936,
      "una": 6937,
      "beigesetzt": 6938,
      "verme": 6939,
      "rap": 6940,
      "ached": 6941,
      "uern": 6942,
      "concl": 6943,
      "bene": 6944,
      "mob": 6945,
      "Anne": 6946,
      "prop": 6947,
      "ahmen": 6948,
      "price": 6949,
      "ernt": 6950,
      "Verfueg": 6951,
      "trae": 6952,
      "Army": 6953,
      "speech": 6954,
      "Herzog": 6955,
      "Zeitung": 6956,
      "Sep": 6957,
      "itaeten": 6958,
      "pleas": 6959,
      "brow": 6960,
      "volume": 6961,
      "kehrte": 6962,
      "Minute": 6963,
      "Saar": 6964,
      "Schlacht": 6965,
      "calcul": 6966,
      "Medien": 6967,
      "wechseln": 6968,
      "release": 6969,
      "somit": 6970,
      "frequently": 6971,
      "Schwerpunkt": 6972,
      "Saxony": 6973,
      "judge": 6974,
      "alternative": 6975,
      "Andere": 6976,
      "defense": 6977,
      "bottle": 6978,
      "empty": 6979,
      "Academy": 6980,
      "expensive": 6981,
      "Jazz": 6982,
      "Leg": 6983,
      "Lage": 6984,
      "Mary": 6985,
      "Meter": 6986,
      "Rau": 6987,
      "Sant": 6988,
      "Zoll": 6989,
      "flag": 6990,
      "nord": 6991,
      "ost": 6992,
      "obl": 6993,
      "pig": 6994,
      "rier": 6995,
      "wonder": 6996,
      "invent": 6997,
      "iest": 6998,
      "edia": 6999,
      "bey": 7000,
      "ilen": 7001,
      "hohen": 7002,
      "hoeher": 7003,
      "manager": 7004,
      "Auge": 7005,
      "geru": 7006,
      "Einer": 7007,
      "geleit": 7008,
      "engines": 7009,
      "Ord": 7010,
      "Rosen": 7011,
      "utzutage": 7012,
      "saetzlich": 7013,
      "secondary": 7014,
      "constructed": 7015,
      "mittelbar": 7016,
      "receive": 7017,
      "Silber": 7018,
      "Otherwise": 7019,
      "Klavier": 7020,
      "recently": 7021,
      "determined": 7022,
      "perfect": 7023,
      "Geburt": 7024,
      "erlaubt": 7025,
      "beispielsweise": 7026,
      "Les": 7027,
      "Mn": 7028,
      "Sus": 7029,
      "ligh": 7030,
      "rasch": 7031,
      "sac": 7032,
      "alone": 7033,
      "schlae": 7034,
      "zuerst": 7035,
      "assel": 7036,
      "except": 7037,
      "faer": 7038,
      "gely": 7039,
      "bogen": 7040,
      "Arn": 7041,
      "landwirtschaft": 7042,
      "stron": 7043,
      "Israel": 7044,
      "largely": 7045,
      "trainer": 7046,
      "stars": 7047,
      "laugh": 7048,
      "elfte": 7049,
      "expert": 7050,
      "gangs": 7051,
      "sequent": 7052,
      "painter": 7053,
      "Schauspiel": 7054,
      "Partner": 7055,
      "requires": 7056,
      "thesis": 7057,
      "honorary": 7058,
      "chairman": 7059,
      "Olympic": 7060,
      "Verkehrs": 7061,
      "slowly": 7062,
      "Zunaechst": 7063,
      "Akadem": 7064,
      "Hause": 7065,
      "Jung": 7066,
      "Tab": 7067,
      "Wart": 7068,
      "bay": 7069,
      "kop": 7070,
      "pto": 7071,
      "pap": 7072,
      "tief": 7073,
      "stum": 7074,
      "alische": 7075,
      "istan": 7076,
      "eht": 7077,
      "Institut": 7078,
      "Uns": 7079,
      "Bewegung": 7080,
      "okay": 7081,
      "Prozent": 7082,
      "Prozess": 7083,
      "insurance": 7084,
      "presents": 7085,
      "Once": 7086,
      "Prue": 7087,
      "lessons": 7088,
      "wuerden": 7089,
      "Stefan": 7090,
      "showed": 7091,
      "festival": 7092,
      "itude": 7093,
      "include": 7094,
      "Fernsehen": 7095,
      "views": 7096,
      "walls": 7097,
      "Schoen": 7098,
      "affected": 7099,
      "wheel": 7100,
      "adapt": 7101,
      "branch": 7102,
      "Baby": 7103,
      "kitchen": 7104,
      "Ban": 7105,
      "Eier": 7106,
      "Kong": 7107,
      "Kolle": 7108,
      "Natuerlich": 7109,
      "Por": 7110,
      "Rail": 7111,
      "Sum": 7112,
      "award": 7113,
      "candid": 7114,
      "dimens": 7115,
      "nomin": 7116,
      "russ": 7117,
      "inten": 7118,
      "inzwischen": 7119,
      "stimm": 7120,
      "schte": 7121,
      "spons": 7122,
      "concent": 7123,
      "demonstr": 7124,
      "comment": 7125,
      "artists": 7126,
      "notwend": 7127,
      "exists": 7128,
      "trieb": 7129,
      "feature": 7130,
      "peace": 7131,
      "fuel": 7132,
      "fuehle": 7133,
      "Abschluss": 7134,
      "breed": 7135,
      "praech": 7136,
      "hydro": 7137,
      "namen": 7138,
      "skin": 7139,
      "serves": 7140,
      "supply": 7141,
      "Someone": 7142,
      "Schulen": 7143,
      "Medizin": 7144,
      "Zeug": 7145,
      "Englisch": 7146,
      "Halb": 7147,
      "announced": 7148,
      "recognize": 7149,
      "Modell": 7150,
      "smoke": 7151,
      "Version": 7152,
      "surrounded": 7153,
      "Californ": 7154,
      "erinnert": 7155,
      "citizens": 7156,
      "ocratic": 7157,
      "Cha": 7158,
      "Kore": 7159,
      "Put": 7160,
      "Sache": 7161,
      "bill": 7162,
      "dicht": 7163,
      "pfen": 7164,
      "rand": 7165,
      "roffen": 7166,
      "singer": 7167,
      "yesterday": 7168,
      "stom": 7169,
      "roles": 7170,
      "beste": 7171,
      "iling": 7172,
      "ilien": 7173,
      "versteht": 7174,
      "forces": 7175,
      "auszu": 7176,
      "conserv": 7177,
      "afraid": 7178,
      "moon": 7179,
      "therap": 7180,
      "Anschluss": 7181,
      "sugar": 7182,
      "Verhalten": 7183,
      "Verwendung": 7184,
      "Arm": 7185,
      "gren": 7186,
      "engag": 7187,
      "daily": 7188,
      "graben": 7189,
      "medium": 7190,
      "hys": 7191,
      "hyth": 7192,
      "Kommt": 7193,
      "broke": 7194,
      "cient": 7195,
      "tember": 7196,
      "legte": 7197,
      "Should": 7198,
      "fertigt": 7199,
      "Produktion": 7200,
      "Wiener": 7201,
      "favorite": 7202,
      "europae": 7203,
      "extensive": 7204,
      "application": 7205,
      "Irgendwie": 7206,
      "narrow": 7207,
      "September": 7208,
      "Bol": 7209,
      "Ox": 7210,
      "Pho": 7211,
      "Wik": 7212,
      "mont": 7213,
      "erz": 7214,
      "stal": 7215,
      "ales": 7216,
      "ordent": 7217,
      "eland": 7218,
      "elten": 7219,
      "dear": 7220,
      "rovers": 7221,
      "veroeffentlich": 7222,
      "impro": 7223,
      "loetzlich": 7224,
      "aufgrund": 7225,
      "keeper": 7226,
      "conver": 7227,
      "ruf": 7228,
      "command": 7229,
      "artific": 7230,
      "shor": 7231,
      "fuehlt": 7232,
      "Weimar": 7233,
      "insgesamt": 7234,
      "machines": 7235,
      "mindestens": 7236,
      "month": 7237,
      "fruehen": 7238,
      "Christoph": 7239,
      "storm": 7240,
      "Gueter": 7241,
      "talent": 7242,
      "Meinung": 7243,
      "Gelaende": 7244,
      "primary": 7245,
      "foerdert": 7246,
      "Zusammenhang": 7247,
      "weltweit": 7248,
      "Bayern": 7249,
      "wesentlich": 7250,
      "Loesung": 7251,
      "tastes": 7252,
      "Luxem": 7253,
      "exclusively": 7254,
      "geteilt": 7255,
      "Fritz": 7256,
      "Jag": 7257,
      "Laender": 7258,
      "Ster": 7259,
      "Sah": 7260,
      "Zusaetzlich": 7261,
      "gives": 7262,
      "krae": 7263,
      "ugen": 7264,
      "zed": 7265,
      "erhaelt": 7266,
      "erhoeh": 7267,
      "aria": 7268,
      "cklen": 7269,
      "essert": 7270,
      "ausen": 7271,
      "hole": 7272,
      "estate": 7273,
      "Verfass": 7274,
      "merken": 7275,
      "riebs": 7276,
      "nowadays": 7277,
      "halte": 7278,
      "spect": 7279,
      "Deck": 7280,
      "Three": 7281,
      "Wirtschaft": 7282,
      "funny": 7283,
      "visited": 7284,
      "cycl": 7285,
      "kurze": 7286,
      "gedacht": 7287,
      "operated": 7288,
      "paint": 7289,
      "troops": 7290,
      "wechselt": 7291,
      "sources": 7292,
      "Brandenburg": 7293,
      "Sicherheits": 7294,
      "advantage": 7295,
      "verbreitet": 7296,
      "landscape": 7297,
      "Records": 7298,
      "Ble": 7299,
      "Drei": 7300,
      "Doppel": 7301,
      "Kein": 7302,
      "Sachsen": 7303,
      "Varian": 7304,
      "itur": 7305,
      "igar": 7306,
      "aming": 7307,
      "layer": 7308,
      "emlich": 7309,
      "aufs": 7310,
      "Stru": 7311,
      "society": 7312,
      "ibl": 7313,
      "ibly": 7314,
      "cow": 7315,
      "hero": 7316,
      "persoen": 7317,
      "gelb": 7318,
      "Reise": 7319,
      "gebot": 7320,
      "Nachrichten": 7321,
      "sterben": 7322,
      "daraus": 7323,
      "Doktor": 7324,
      "Zucker": 7325,
      "borders": 7326,
      "Berliner": 7327,
      "operating": 7328,
      "towns": 7329,
      "ausgezeichnet": 7330,
      "orgung": 7331,
      "Solche": 7332,
      "characterized": 7333,
      "abrik": 7334,
      "participated": 7335,
      "activity": 7336,
      "Leistung": 7337,
      "elektr": 7338,
      "employees": 7339,
      "Initially": 7340,
      "Vertreter": 7341,
      "Hafen": 7342,
      "cklenburg": 7343,
      "!,": 7344,
      "Bein": 7345,
      "Cle": 7346,
      "Haut": 7347,
      "Keine": 7348,
      "Lad": 7349,
      "Tel": 7350,
      "Waffen": 7351,
      "kill": 7352,
      "wich": 7353,
      "witz": 7354,
      "zon": 7355,
      "enem": 7356,
      "inno": 7357,
      "online": 7358,
      "entspricht": 7359,
      "raised": 7360,
      "forget": 7361,
      "cean": 7362,
      "Stunde": 7363,
      "eggs": 7364,
      "covers": 7365,
      "mente": 7366,
      "Verteid": 7367,
      "sculpt": 7368,
      "preis": 7369,
      "prefer": 7370,
      "Thanks": 7371,
      "Mathemat": 7372,
      "Geschle": 7373,
      "larger": 7374,
      "schuetzen": 7375,
      "Dennoch": 7376,
      "opening": 7377,
      "approxim": 7378,
      "Mittelalter": 7379,
      "gerechnet": 7380,
      "including": 7381,
      "Japanese": 7382,
      "Angeles": 7383,
      "Wagner": 7384,
      "Aachen": 7385,
      "Halle": 7386,
      "ahead": 7387,
      "apartment": 7388,
      "meter": 7389,
      "oten": 7390,
      "pes": 7391,
      "sitting": 7392,
      "instru": 7393,
      "thor": 7394,
      "iegen": 7395,
      "leaf": 7396,
      "anda": 7397,
      "icine": 7398,
      "entde": 7399,
      "zuvor": 7400,
      "sowieso": 7401,
      "steig": 7402,
      "merksam": 7403,
      "partially": 7404,
      "dram": 7405,
      "diverse": 7406,
      "liber": 7407,
      "ansa": 7408,
      "somewhere": 7409,
      "itaets": 7410,
      "funk": 7411,
      "functions": 7412,
      "Konzer": 7413,
      "ebenso": 7414,
      "politische": 7415,
      "Kirch": 7416,
      "ville": 7417,
      "figure": 7418,
      "occurs": 7419,
      "Musiker": 7420,
      "Everything": 7421,
      "baby": 7422,
      "shortly": 7423,
      "officer": 7424,
      "saying": 7425,
      "Nichts": 7426,
      "records": 7427,
      "bird": 7428,
      "typical": 7429,
      "Fuehr": 7430,
      "mountains": 7431,
      "bedeutend": 7432,
      "suffered": 7433,
      "Besucher": 7434,
      "Pfarr": 7435,
      "Verfuegung": 7436,
      "Corn": 7437,
      "Emil": 7438,
      "Effe": 7439,
      "Fund": 7440,
      "Goe": 7441,
      "Ms": 7442,
      "Tat": 7443,
      "Wen": 7444,
      "Wehr": 7445,
      "Werner": 7446,
      "Zul": 7447,
      "fought": 7448,
      "jour": 7449,
      "ming": 7450,
      "nennt": 7451,
      "uese": 7452,
      "wein": 7453,
      "institut": 7454,
      "thr": 7455,
      "stil": 7456,
      "staff": 7457,
      "isol": 7458,
      "ato": 7459,
      "elbe": 7460,
      "eingesch": 7461,
      "urban": 7462,
      "ingungen": 7463,
      "schung": 7464,
      "seid": 7465,
      "forward": 7466,
      "spor": 7467,
      "hotel": 7468,
      "comfort": 7469,
      "expl": 7470,
      "Verhaelt": 7471,
      "Nachdem": 7472,
      "barkeit": 7473,
      "beln": 7474,
      "centur": 7475,
      "solid": 7476,
      "save": 7477,
      "didn": 7478,
      "oeffnen": 7479,
      "krieg": 7480,
      "Liebe": 7481,
      "Urspru": 7482,
      "choice": 7483,
      "Demokrat": 7484,
      "Interesse": 7485,
      "Frucht": 7486,
      "weekend": 7487,
      "herrscht": 7488,
      "oestlich": 7489,
      "karte": 7490,
      "Staedten": 7491,
      "territory": 7492,
      "beeinfl": 7493,
      "thedral": 7494,
      "gebrochen": 7495,
      "geleitet": 7496,
      "Differ": 7497,
      "Jeden": 7498,
      "Kle": 7499,
      "Num": 7500,
      "Ohr": 7501,
      "Py": 7502,
      "Que": 7503,
      "Zuer": 7504,
      "bought": 7505,
      "frie": 7506,
      "junge": 7507,
      "ky": 7508,
      "knew": 7509,
      "mic": 7510,
      "beach": 7511,
      "istics": 7512,
      "amb": 7513,
      "imper": 7514,
      "bers": 7515,
      "ulations": 7516,
      "extended": 7517,
      "fael": 7518,
      "mensch": 7519,
      "trig": 7520,
      "shell": 7521,
      "maxim": 7522,
      "koennt": 7523,
      "stress": 7524,
      "betre": 7525,
      "hinein": 7526,
      "iders": 7527,
      "viet": 7528,
      "positive": 7529,
      "solchen": 7530,
      "Franc": 7531,
      "freund": 7532,
      "Herrschaft": 7533,
      "purposes": 7534,
      "verlor": 7535,
      "patient": 7536,
      "recorded": 7537,
      "Schnitt": 7538,
      "models": 7539,
      "unterschiedliche": 7540,
      "copy": 7541,
      "Sicherheit": 7542,
      "Bilder": 7543,
      "Schriftsteller": 7544,
      "kraefte": 7545,
      "Toechter": 7546,
      "Wettbewer": 7547,
      "hospital": 7548,
      "Cze": 7549,
      "Flae": 7550,
      "Jak": 7551,
      "Sinne": 7552,
      "Zuege": 7553,
      "dadurch": 7554,
      "eck": 7555,
      "mes": 7556,
      "rare": 7557,
      "anced": 7558,
      "repair": 7559,
      "einheit": 7560,
      "imit": 7561,
      "iments": 7562,
      "cked": 7563,
      "uted": 7564,
      "nest": 7565,
      "neues": 7566,
      "Schles": 7567,
      "sufficient": 7568,
      "Although": 7569,
      "odies": 7570,
      "trie": 7571,
      "ipfel": 7572,
      "quid": 7573,
      "disappeared": 7574,
      "hlt": 7575,
      "gewinn": 7576,
      "Islam": 7577,
      "Konfl": 7578,
      "childhood": 7579,
      "Meist": 7580,
      "dream": 7581,
      "fragen": 7582,
      "appearance": 7583,
      "windigkeit": 7584,
      "Urs": 7585,
      "Quellen": 7586,
      "Schnell": 7587,
      "Rhine": 7588,
      "circle": 7589,
      "Laufe": 7590,
      "device": 7591,
      "Wissenschaft": 7592,
      "Wolfgang": 7593,
      "Elektro": 7594,
      "distribution": 7595,
      "amerikanischen": 7596,
      "facilities": 7597,
      "Letzter": 7598,
      "lehrer": 7599,
      "arranged": 7600,
      "browser": 7601,
      "oblig": 7602,
      "Gab": 7603,
      "Has": 7604,
      "Mas": 7605,
      "Out": 7606,
      "Ph": 7607,
      "Phys": 7608,
      "Rede": 7609,
      "Saenger": 7610,
      "Zimmer": 7611,
      "hus": 7612,
      "jun": 7613,
      "nehm": 7614,
      "sage": 7615,
      "tip": 7616,
      "zuege": 7617,
      "enjoy": 7618,
      "reform": 7619,
      "gegangen": 7620,
      "denke": 7621,
      "ician": 7622,
      "verbr": 7623,
      "seud": 7624,
      "abgeschlossen": 7625,
      "lov": 7626,
      "neut": 7627,
      "Invest": 7628,
      "contribut": 7629,
      "benef": 7630,
      "Erz": 7631,
      "Einkaufs": 7632,
      "academ": 7633,
      "komme": 7634,
      "Leon": 7635,
      "sym": 7636,
      "Brig": 7637,
      "colon": 7638,
      "zeichnungen": 7639,
      "Untersuch": 7640,
      "wenigen": 7641,
      "sky": 7642,
      "Haelfte": 7643,
      "Gruendung": 7644,
      "busy": 7645,
      "valid": 7646,
      "einzel": 7647,
      "Fahrt": 7648,
      "Law": 7649,
      "mayor": 7650,
      "traumat": 7651,
      "campa": 7652,
      "Publikum": 7653,
      "erklaert": 7654,
      "chestra": 7655,
      "Offiz": 7656,
      "Evangel": 7657,
      "uebrig": 7658,
      "Situation": 7659,
      "stomach": 7660,
      "Kas": 7661,
      "Rahmen": 7662,
      "dor": 7663,
      "dang": 7664,
      "eigent": 7665,
      "hunt": 7666,
      "hielten": 7667,
      "kuenstler": 7668,
      "oert": 7669,
      "zus": 7670,
      "stall": 7671,
      "ieber": 7672,
      "arent": 7673,
      "beob": 7674,
      "scheit": 7675,
      "schech": 7676,
      "entsteht": 7677,
      "forced": 7678,
      "ema": 7679,
      "warum": 7680,
      "opa": 7681,
      "endel": 7682,
      "oted": 7683,
      "ongue": 7684,
      "linder": 7685,
      "scen": 7686,
      "Hohen": 7687,
      "Atlant": 7688,
      "Maxim": 7689,
      "wouldnt": 7690,
      "cycle": 7691,
      "Mecklenburg": 7692,
      "metal": 7693,
      "dauert": 7694,
      "appropr": 7695,
      "Zeich": 7696,
      "sitzt": 7697,
      "package": 7698,
      "younger": 7699,
      "Philosoph": 7700,
      "scheidet": 7701,
      "error": 7702,
      "explained": 7703,
      "recommended": 7704,
      "Praesident": 7705,
      "maschine": 7706,
      "Bundestag": 7707,
      "Czech": 7708,
      "Akt": 7709,
      "Cas": 7710,
      "Live": 7711,
      "Next": 7712,
      "Wunder": 7713,
      "bess": 7714,
      "felt": 7715,
      "griech": 7716,
      "kern": 7717,
      "kampf": 7718,
      "mur": 7719,
      "ned": 7720,
      "natuer": 7721,
      "ohn": 7722,
      "pin": 7723,
      "pit": 7724,
      "tor": 7725,
      "taeu": 7726,
      "uum": 7727,
      "unch": 7728,
      "verantwort": 7729,
      "schir": 7730,
      "acher": 7731,
      "achim": 7732,
      "admit": 7733,
      "spok": 7734,
      "neck": 7735,
      "ify": 7736,
      "agree": 7737,
      "endar": 7738,
      "concrete": 7739,
      "affel": 7740,
      "wirkte": 7741,
      "moegen": 7742,
      "pole": 7743,
      "ipment": 7744,
      "Republik": 7745,
      "ishment": 7746,
      "medizin": 7747,
      "Joachim": 7748,
      "hydr": 7749,
      "Group": 7750,
      "volle": 7751,
      "Waer": 7752,
      "Graz": 7753,
      "Handels": 7754,
      "flower": 7755,
      "villa": 7756,
      "communication": 7757,
      "Fahrzeug": 7758,
      "electron": 7759,
      "statement": 7760,
      "kaempfen": 7761,
      "Trotzdem": 7762,
      "cultiv": 7763,
      "length": 7764,
      "Brot": 7765,
      "Four": 7766,
      "Face": 7767,
      "Hals": 7768,
      "Hav": 7769,
      "Trau": 7770,
      "Up": 7771,
      "Wach": 7772,
      "diale": 7773,
      "eist": 7774,
      "gained": 7775,
      "hre": 7776,
      "lord": 7777,
      "saetze": 7778,
      "zte": 7779,
      "chance": 7780,
      "unten": 7781,
      "request": 7782,
      "verboten": 7783,
      "Theor": 7784,
      "haetten": 7785,
      "endler": 7786,
      "Ange": 7787,
      "ersetzt": 7788,
      "hergestellt": 7789,
      "etzte": 7790,
      "boat": 7791,
      "residential": 7792,
      "kostet": 7793,
      "ava": 7794,
      "Aufgaben": 7795,
      "Protestant": 7796,
      "actress": 7797,
      "regions": 7798,
      "myself": 7799,
      "Hoer": 7800,
      "ologische": 7801,
      "controvers": 7802,
      "damal": 7803,
      "iums": 7804,
      "Blatt": 7805,
      "Darm": 7806,
      "dedicated": 7807,
      "Denkmal": 7808,
      "sichtlich": 7809,
      "distingu": 7810,
      "suedlich": 7811,
      "Reser": 7812,
      "growing": 7813,
      "filter": 7814,
      "brothers": 7815,
      "besitzen": 7816,
      "esentlichen": 7817,
      "stabil": 7818,
      "Schneider": 7819,
      "Schreib": 7820,
      "neighboring": 7821,
      "predomin": 7822,
      "Blaetter": 7823,
      "verhindern": 7824,
      "verwaltung": 7825,
      "consequences": 7826,
      "Kaffee": 7827,
      "Taetigkeit": 7828,
      "repeated": 7829,
      "Shortly": 7830,
      "vermeiden": 7831,
      "Big": 7832,
      "Ds": 7833,
      "Eigent": 7834,
      "Finn": 7835,
      "Kart": 7836,
      "Lange": 7837,
      "Nummer": 7838,
      "Soph": 7839,
      "Upper": 7840,
      "Zo": 7841,
      "Zy": 7842,
      "kalt": 7843,
      "kuenst": 7844,
      "tausend": 7845,
      "zusa": 7846,
      "unsch": 7847,
      "eingestellt": 7848,
      "gebe": 7849,
      "schrank": 7850,
      "entgegen": 7851,
      "umes": 7852,
      "rust": 7853,
      "wirken": 7854,
      "Erste": 7855,
      "egg": 7856,
      "vorwiegend": 7857,
      "owner": 7858,
      "ferenz": 7859,
      "izieren": 7860,
      "Spass": 7861,
      "bled": 7862,
      "groesser": 7863,
      "engers": 7864,
      "Wechsel": 7865,
      "speziel": 7866,
      "linie": 7867,
      "ension": 7868,
      "geschu": 7869,
      "previously": 7870,
      "athlet": 7871,
      "Stadtteil": 7872,
      "zeichnete": 7873,
      "helps": 7874,
      "Todes": 7875,
      "Together": 7876,
      "Metho": 7877,
      "ippe": 7878,
      "remaining": 7879,
      "experiment": 7880,
      "pattern": 7881,
      "raege": 7882,
      "Benannt": 7883,
      "Schweizer": 7884,
      "Knochen": 7885,
      "theoret": 7886,
      "Besonders": 7887,
      "Bert": 7888,
      "Mang": 7889,
      "Material": 7890,
      "Sonn": 7891,
      "Vict": 7892,
      "upp": 7893,
      "vit": 7894,
      "yard": 7895,
      "uner": 7896,
      "beat": 7897,
      "wegs": 7898,
      "alleine": 7899,
      "uehe": 7900,
      "aufzu": 7901,
      "ulate": 7902,
      "manchen": 7903,
      "agh": 7904,
      "iding": 7905,
      "ikes": 7906,
      "ernannt": 7907,
      "alsozial": 7908,
      "merkt": 7909,
      "upid": 7910,
      "izing": 7911,
      "Spiegel": 7912,
      "interior": 7913,
      "finale": 7914,
      "object": 7915,
      "bishop": 7916,
      "ammlung": 7917,
      "gewicht": 7918,
      "Mountain": 7919,
      "niedr": 7920,
      "follows": 7921,
      "kehrt": 7922,
      "wertung": 7923,
      "welcher": 7924,
      "hilft": 7925,
      "relevant": 7926,
      "Take": 7927,
      "sales": 7928,
      "umente": 7929,
      "mixed": 7930,
      "exhibition": 7931,
      "translated": 7932,
      "Offenbar": 7933,
      "girls": 7934,
      "eignet": 7935,
      "Opfer": 7936,
      "Haeuser": 7937,
      "Angst": 7938,
      "Dutch": 7939,
      "Guten": 7940,
      "Psych": 7941,
      "Temp": 7942,
      "apart": 7943,
      "ients": 7944,
      "poll": 7945,
      "zburg": 7946,
      "erscheint": 7947,
      "chester": 7948,
      "staenden": 7949,
      "eters": 7950,
      "icious": 7951,
      "advis": 7952,
      "address": 7953,
      "essig": 7954,
      "hob": 7955,
      "mobil": 7956,
      "composed": 7957,
      "wurf": 7958,
      "projects": 7959,
      "sud": 7960,
      "Beam": 7961,
      "gelaufen": 7962,
      "arks": 7963,
      "spective": 7964,
      "observ": 7965,
      "identen": 7966,
      "atzen": 7967,
      "policy": 7968,
      "erstoff": 7969,
      "gewinnen": 7970,
      "meint": 7971,
      "differently": 7972,
      "wuerd": 7973,
      "goods": 7974,
      "Bahnstrecke": 7975,
      "singing": 7976,
      "continue": 7977,
      "distin": 7978,
      "existiert": 7979,
      "limit": 7980,
      "entered": 7981,
      "economy": 7982,
      "Festival": 7983,
      "leaving": 7984,
      "Feuerwehr": 7985,
      "Berufs": 7986,
      "Fleisch": 7987,
      "Smart": 7988,
      "likely": 7989,
      "negative": 7990,
      "praktisch": 7991,
      "succeeded": 7992,
      "materials": 7993,
      "James": 7994,
      "Kabel": 7995,
      "Li": 7996,
      "Lis": 7997,
      "Lager": 7998,
      "Sachen": 7999,
      "Vis": 8000,
      "actions": 8001,
      "dur": 8002,
      "diplom": 8003,
      "evalu": 8004,
      "pure": 8005,
      "prem": 8006,
      "punkte": 8007,
      "vet": 8008,
      "yes": 8009,
      "ense": 8010,
      "stations": 8011,
      "alarm": 8012,
      "aust": 8013,
      "gemeinen": 8014,
      "denten": 8015,
      "ussen": 8016,
      "usste": 8017,
      "umstritten": 8018,
      "span": 8019,
      "Inzwischen": 8020,
      "desert": 8021,
      "lieb": 8022,
      "ssitz": 8023,
      "ssystem": 8024,
      "griffen": 8025,
      "ideas": 8026,
      "kochen": 8027,
      "jekte": 8028,
      "newly": 8029,
      "related": 8030,
      "richtungen": 8031,
      "freie": 8032,
      "Konzept": 8033,
      "vierzig": 8034,
      "streets": 8035,
      "corpor": 8036,
      "politics": 8037,
      "gruppen": 8038,
      "Herrn": 8039,
      "Often": 8040,
      "rollen": 8041,
      "Flugzeug": 8042,
      "luck": 8043,
      "Chinese": 8044,
      "Farben": 8045,
      "analysis": 8046,
      "Trans": 8047,
      "installed": 8048,
      "criticism": 8049,
      "noerdlich": 8050,
      "aelteste": 8051,
      "Heidelberg": 8052,
      "Fuenf": 8053,
      "fingers": 8054,
      "Dein": 8055,
      "Wild": 8056,
      "ai": 8057,
      "deiner": 8058,
      "ller": 8059,
      "ram": 8060,
      "ziger": 8061,
      "ancy": 8062,
      "stuer": 8063,
      "arzt": 8064,
      "orgt": 8065,
      "rejected": 8066,
      "etic": 8067,
      "depart": 8068,
      "termin": 8069,
      "tsdam": 8070,
      "comot": 8071,
      "ienced": 8072,
      "vorne": 8073,
      "geld": 8074,
      "drin": 8075,
      "liquid": 8076,
      "Soviet": 8077,
      "specially": 8078,
      "renov": 8079,
      "disk": 8080,
      "glueck": 8081,
      "gestern": 8082,
      "rows": 8083,
      "laub": 8084,
      "politischen": 8085,
      "thinking": 8086,
      "liegenden": 8087,
      "verbot": 8088,
      "licherweise": 8089,
      "chosen": 8090,
      "Weiteren": 8091,
      "roads": 8092,
      "settled": 8093,
      "Somit": 8094,
      "unterschiedlichen": 8095,
      "pflicht": 8096,
      "certainly": 8097,
      "Moreover": 8098,
      "Stattdessen": 8099,
      "prepared": 8100,
      "increasingly": 8101,
      "average": 8102,
      "November": 8103,
      "Elisabeth": 8104,
      "Karlsruhe": 8105,
      "Schmidt": 8106,
      "Struktur": 8107,
      "Jakob": 8108,
      "campaign": 8109,
      "Ep": 8110,
      "Gran": 8111,
      "Gatt": 8112,
      "Log": 8113,
      "Ren": 8114,
      "Rou": 8115,
      "Renn": 8116,
      "bath": 8117,
      "baden": 8118,
      "jungen": 8119,
      "meinem": 8120,
      "erwa": 8121,
      "enen": 8122,
      "iny": 8123,
      "stol": 8124,
      "stuecke": 8125,
      "arma": 8126,
      "edy": 8127,
      "elig": 8128,
      "derived": 8129,
      "schrau": 8130,
      "eme": 8131,
      "mangel": 8132,
      "artistic": 8133,
      "proceed": 8134,
      "Alfred": 8135,
      "Verbreit": 8136,
      "sende": 8137,
      "wake": 8138,
      "Geheim": 8139,
      "respect": 8140,
      "residents": 8141,
      "brid": 8142,
      "Argent": 8143,
      "druecken": 8144,
      "ritten": 8145,
      "geschlagen": 8146,
      "darunter": 8147,
      "polar": 8148,
      "erstre": 8149,
      "Regie": 8150,
      "plex": 8151,
      "Western": 8152,
      "bekannten": 8153,
      "subsequently": 8154,
      "voller": 8155,
      "gede": 8156,
      "Potsdam": 8157,
      "beliebt": 8158,
      "connections": 8159,
      "Zweck": 8160,
      "historic": 8161,
      "specialist": 8162,
      "internationalen": 8163,
      "spruch": 8164,
      "aneously": 8165,
      "kirch": 8166,
      "equipment": 8167,
      "universities": 8168,
      "Zahlen": 8169,
      "Basis": 8170,
      "Richter": 8171,
      "wichtigsten": 8172,
      "Jedes": 8173,
      "Wahrscheinlich": 8174,
      "Baeume": 8175,
      "groessere": 8176,
      "victim": 8177,
      "Informationen": 8178,
      "promoted": 8179,
      "ausgestattet": 8180,
      "Entscheidung": 8181,
      "dunkel": 8182,
      "respective": 8183,
      "California": 8184,
      "Facebook": 8185,
      "Aktiv": 8186,
      "Bres": 8187,
      "Kron": 8188,
      "Long": 8189,
      "hm": 8190,
      "kids": 8191,
      "phe": 8192,
      "sth": 8193,
      "tuer": 8194,
      "ermoeg": 8195,
      "aled": 8196,
      "ela": 8197,
      "aux": 8198,
      "urz": 8199,
      "etball": 8200,
      "verbrachte": 8201,
      "ads": 8202,
      "adjust": 8203,
      "iese": 8204,
      "wasnt": 8205,
      "warning": 8206,
      "Schall": 8207,
      "Schild": 8208,
      "proof": 8209,
      "exchange": 8210,
      "herunter": 8211,
      "steuer": 8212,
      "Bewohner": 8213,
      "partly": 8214,
      "Sound": 8215,
      "osophy": 8216,
      "acts": 8217,
      "hinten": 8218,
      "Thank": 8219,
      "useful": 8220,
      "begins": 8221,
      "Umwelt": 8222,
      "Mean": 8223,
      "lotte": 8224,
      "beschrieben": 8225,
      "tunnel": 8226,
      "motiv": 8227,
      "Mueller": 8228,
      "freiwill": 8229,
      "mitteln": 8230,
      "settle": 8231,
      "growth": 8232,
      "Faellen": 8233,
      "Bernhard": 8234,
      "Sonst": 8235,
      "devices": 8236,
      "flying": 8237,
      "planning": 8238,
      "pulled": 8239,
      "visitors": 8240,
      "Dokument": 8241,
      "veroeffentlichte": 8242,
      "husband": 8243,
      "Gitar": 8244,
      "Hell": 8245,
      "Kath": 8246,
      "Pir": 8247,
      "gla": 8248,
      "hur": 8249,
      "kuen": 8250,
      "label": 8251,
      "vater": 8252,
      "chapel": 8253,
      "anschliessend": 8254,
      "stupid": 8255,
      "arrest": 8256,
      "geograph": 8257,
      "behoer": 8258,
      "ington": 8259,
      "sector": 8260,
      "ckte": 8261,
      "spitze": 8262,
      "zuletzt": 8263,
      "Still": 8264,
      "agne": 8265,
      "assess": 8266,
      "Anzahl": 8267,
      "coal": 8268,
      "iency": 8269,
      "tress": 8270,
      "trinken": 8271,
      "Spann": 8272,
      "flash": 8273,
      "Arzt": 8274,
      "dium": 8275,
      "studio": 8276,
      "Aufbau": 8277,
      "parallel": 8278,
      "Klassen": 8279,
      "complicated": 8280,
      "Grafen": 8281,
      "Ortes": 8282,
      "amerika": 8283,
      "Prag": 8284,
      "joint": 8285,
      "raeum": 8286,
      "Justus": 8287,
      "talking": 8288,
      "Insgesamt": 8289,
      "methods": 8290,
      "Truppen": 8291,
      "seriously": 8292,
      "Salzburg": 8293,
      "laendischen": 8294,
      "Bavaria": 8295,
      "Siedlung": 8296,
      "verkauft": 8297,
      "Stiftung": 8298,
      "composer": 8299,
      "Satell": 8300,
      "assumed": 8301,
      "opponent": 8302,
      "Francis": 8303,
      "?,": 8304,
      "Deine": 8305,
      "Ereign": 8306,
      "Ris": 8307,
      "Sonder": 8308,
      "buecher": 8309,
      "catch": 8310,
      "dates": 8311,
      "gie": 8312,
      "gun": 8313,
      "kenn": 8314,
      "rang": 8315,
      "tet": 8316,
      "ero": 8317,
      "erziel": 8318,
      "inse": 8319,
      "christ": 8320,
      "stimmen": 8321,
      "remo": 8322,
      "auern": 8323,
      "beut": 8324,
      "irs": 8325,
      "emmer": 8326,
      "locomot": 8327,
      "Station": 8328,
      "convent": 8329,
      "desc": 8330,
      "prohib": 8331,
      "exhau": 8332,
      "angle": 8333,
      "Vergangen": 8334,
      "Veroeffentlich": 8335,
      "Spiele": 8336,
      "bright": 8337,
      "acid": 8338,
      "Leider": 8339,
      "geblieben": 8340,
      "Neum": 8341,
      "apprent": 8342,
      "reading": 8343,
      "Bruecke": 8344,
      "Komm": 8345,
      "chnung": 8346,
      "Konkur": 8347,
      "Normal": 8348,
      "Strass": 8349,
      "turns": 8350,
      "tests": 8351,
      "Europae": 8352,
      "paid": 8353,
      "Christmas": 8354,
      "Found": 8355,
      "Holly": 8356,
      "classic": 8357,
      "Brust": 8358,
      "harmon": 8359,
      "mbH": 8360,
      "teaching": 8361,
      "Bildung": 8362,
      "successfully": 8363,
      "India": 8364,
      "Unternehmens": 8365,
      "Gedanken": 8366,
      "Josef": 8367,
      "regarding": 8368,
      "million": 8369,
      "gesamten": 8370,
      "fundament": 8371,
      "explain": 8372,
      "Ergebnis": 8373,
      "benoetigt": 8374,
      "Hotel": 8375,
      "District": 8376,
      "enorm": 8377,
      "circum": 8378,
      "Unsere": 8379,
      "sudden": 8380,
      "Aktion": 8381,
      "Dir": 8382,
      "Each": 8383,
      "Jon": 8384,
      "Kru": 8385,
      "Lind": 8386,
      "Sou": 8387,
      "baut": 8388,
      "iable": 8389,
      "sell": 8390,
      "sag": 8391,
      "tongue": 8392,
      "zlich": 8393,
      "zert": 8394,
      "unit": 8395,
      "gezeigt": 8396,
      "bekam": 8397,
      "ilfe": 8398,
      "tei": 8399,
      "oles": 8400,
      "schlies": 8401,
      "tenance": 8402,
      "noble": 8403,
      "nobody": 8404,
      "adow": 8405,
      "spend": 8406,
      "nee": 8407,
      "zustaendig": 8408,
      "opport": 8409,
      "benen": 8410,
      "mole": 8411,
      "prob": 8412,
      "pron": 8413,
      "faelle": 8414,
      "tram": 8415,
      "gering": 8416,
      "ugel": 8417,
      "interpre": 8418,
      "dritte": 8419,
      "kommun": 8420,
      "Neust": 8421,
      "betracht": 8422,
      "phon": 8423,
      "pharma": 8424,
      "klasse": 8425,
      "minute": 8426,
      "Sebast": 8427,
      "matches": 8428,
      "Geschw": 8429,
      "Strand": 8430,
      "brake": 8431,
      "musician": 8432,
      "technik": 8433,
      "authors": 8434,
      "easier": 8435,
      "characters": 8436,
      "trust": 8437,
      "grows": 8438,
      "modell": 8439,
      "pretty": 8440,
      "surrounding": 8441,
      "Hintergrund": 8442,
      "Bezirk": 8443,
      "Bezirks": 8444,
      "advertis": 8445,
      "Castle": 8446,
      "Soldaten": 8447,
      "bezirk": 8448,
      "Diskuss": 8449,
      "Schluessel": 8450,
      "gegruendet": 8451,
      "Hugo": 8452,
      "einzelne": 8453,
      "opportun": 8454,
      "Bart": 8455,
      "Cam": 8456,
      "GmbH": 8457,
      "Haeu": 8458,
      "Rauch": 8459,
      "Sur": 8460,
      "Tauch": 8461,
      "Those": 8462,
      "caught": 8463,
      "nic": 8464,
      "nissen": 8465,
      "phab": 8466,
      "sick": 8467,
      "ti": 8468,
      "ttemberg": 8469,
      "chief": 8470,
      "anwalt": 8471,
      "reve": 8472,
      "ilian": 8473,
      "verfueg": 8474,
      "seien": 8475,
      "esseld": 8476,
      "aufgestellt": 8477,
      "ultim": 8478,
      "ppt": 8479,
      "Erfolge": 8480,
      "ibilities": 8481,
      "Antw": 8482,
      "Angaben": 8483,
      "voraus": 8484,
      "uebertragen": 8485,
      "ateur": 8486,
      "geladen": 8487,
      "bound": 8488,
      "enswert": 8489,
      "Orgel": 8490,
      "Formen": 8491,
      "prev": 8492,
      "symp": 8493,
      "solo": 8494,
      "medicine": 8495,
      "Danke": 8496,
      "Adolf": 8497,
      "restaurant": 8498,
      "topic": 8499,
      "grundsaetzlich": 8500,
      "wirkungen": 8501,
      "protected": 8502,
      "massive": 8503,
      "Vereinigten": 8504,
      "industrie": 8505,
      "titles": 8506,
      "Mainz": 8507,
      "Inseln": 8508,
      "Buergermeister": 8509,
      "championship": 8510,
      "influenced": 8511,
      "unserer": 8512,
      "compared": 8513,
      "sweet": 8514,
      "customs": 8515,
      "switched": 8516,
      "introduced": 8517,
      "finanziel": 8518,
      "unterstuetzt": 8519,
      "surprised": 8520,
      "beteiligt": 8521,
      "gueltig": 8522,
      "Urspruenglich": 8523,
      "Meanwhile": 8524,
      "Vergangenheit": 8525,
      "Antwort": 8526,
      "Frem": 8527,
      "Gabr": 8528,
      "Job": 8529,
      "Laendern": 8530,
      "Slow": 8531,
      "Sud": 8532,
      "iation": 8533,
      "kin": 8534,
      "lament": 8535,
      "messen": 8536,
      "pten": 8537,
      "ride": 8538,
      "sight": 8539,
      "salt": 8540,
      "wag": 8541,
      "yed": 8542,
      "inos": 8543,
      "unmittelbar": 8544,
      "rear": 8545,
      "heissen": 8546,
      "heutzutage": 8547,
      "outer": 8548,
      "olved": 8549,
      "verwand": 8550,
      "ims": 8551,
      "formen": 8552,
      "laid": 8553,
      "Schritt": 8554,
      "oples": 8555,
      "concert": 8556,
      "contemporary": 8557,
      "Angriff": 8558,
      "steam": 8559,
      "gelernt": 8560,
      "strip": 8561,
      "applies": 8562,
      "obviously": 8563,
      "angeboten": 8564,
      "Zeiten": 8565,
      "compon": 8566,
      "everywhere": 8567,
      "fahrer": 8568,
      "Klass": 8569,
      "bahnhof": 8570,
      "figur": 8571,
      "Begru": 8572,
      "haltung": 8573,
      "Brueder": 8574,
      "historischen": 8575,
      "patron": 8576,
      "leitete": 8577,
      "humans": 8578,
      "Nowadays": 8579,
      "tourism": 8580,
      "irgendwo": 8581,
      "Autoren": 8582,
      "graphic": 8583,
      "climate": 8584,
      "Insbesondere": 8585,
      "satell": 8586,
      "Millionen": 8587,
      "recommend": 8588,
      "Pferde": 8589,
      "shooting": 8590,
      "kindergarten": 8591,
      "weapons": 8592,
      "conflict": 8593,
      "expanded": 8594,
      "battery": 8595,
      "texts": 8596,
      "comfortable": 8597,
      "Gabriel": 8598,
      "Ath": 8599,
      "Bald": 8600,
      "Ess": 8601,
      "Ritter": 8602,
      "Sund": 8603,
      "Video": 8604,
      "Yo": 8605,
      "bann": 8606,
      "dat": 8607,
      "fehlen": 8608,
      "gin": 8609,
      "gelt": 8610,
      "kro": 8611,
      "klo": 8612,
      "massen": 8613,
      "pfe": 8614,
      "tes": 8615,
      "tum": 8616,
      "uter": 8617,
      "ya": 8618,
      "ieter": 8619,
      "leis": 8620,
      "dence": 8621,
      "verhaelt": 8622,
      "umge": 8623,
      "forty": 8624,
      "lohn": 8625,
      "spac": 8626,
      "manage": 8627,
      "concer": 8628,
      "context": 8629,
      "demol": 8630,
      "Erfahr": 8631,
      "exception": 8632,
      "quart": 8633,
      "waert": 8634,
      "Geist": 8635,
      "Reformation": 8636,
      "Revolution": 8637,
      "parties": 8638,
      "myth": 8639,
      "scale": 8640,
      "ghan": 8641,
      "Box": 8642,
      "gehoerten": 8643,
      "Komment": 8644,
      "Besatz": 8645,
      "weiteres": 8646,
      "Polish": 8647,
      "Add": 8648,
      "Grad": 8649,
      "Handy": 8650,
      "severe": 8651,
      "Gebir": 8652,
      "Front": 8653,
      "allows": 8654,
      "moeglichst": 8655,
      "sicherung": 8656,
      "wenigstens": 8657,
      "strongly": 8658,
      "angesehen": 8659,
      "frequen": 8660,
      "erklaeren": 8661,
      "heutige": 8662,
      "correctly": 8663,
      "Leiter": 8664,
      "kostenlos": 8665,
      "accepted": 8666,
      "totally": 8667,
      "citizen": 8668,
      "transferred": 8669,
      "absolutely": 8670,
      "tournament": 8671,
      "Sprecher": 8672,
      "Augsburg": 8673,
      "Victor": 8674,
      ".\"": 8675,
      "Bade": 8676,
      "Hom": 8677,
      "Himmel": 8678,
      "Keller": 8679,
      "Tar": 8680,
      "Tit": 8681,
      "ao": 8682,
      "cann": 8683,
      "ceremon": 8684,
      "diction": 8685,
      "efe": 8686,
      "kol": 8687,
      "kund": 8688,
      "kus": 8689,
      "mort": 8690,
      "nitten": 8691,
      "pir": 8692,
      "sorg": 8693,
      "inform": 8694,
      "stones": 8695,
      "unfortunately": 8696,
      "eton": 8697,
      "ettern": 8698,
      "leisten": 8699,
      "geplant": 8700,
      "web": 8701,
      "ausgesprochen": 8702,
      "desired": 8703,
      "cock": 8704,
      "ikal": 8705,
      "perform": 8706,
      "trip": 8707,
      "Bekann": 8708,
      "gerissen": 8709,
      "goals": 8710,
      "workers": 8711,
      "Leucht": 8712,
      "gebiete": 8713,
      "actors": 8714,
      "display": 8715,
      "shops": 8716,
      "autonom": 8717,
      "arbeitung": 8718,
      "Regisse": 8719,
      "gegenseitig": 8720,
      "couldnt": 8721,
      "Franzoes": 8722,
      "maintenance": 8723,
      "whats": 8724,
      "Northern": 8725,
      "possibility": 8726,
      "Kindergarten": 8727,
      "destination": 8728,
      "operations": 8729,
      "Betriebs": 8730,
      "positions": 8731,
      "strae": 8732,
      "Carol": 8733,
      "mittelalter": 8734,
      "Lieber": 8735,
      "Ihm": 8736,
      "painted": 8737,
      "internationale": 8738,
      "Autobahn": 8739,
      "mittlerweile": 8740,
      "Weltkriegs": 8741,
      "Wohnung": 8742,
      "associated": 8743,
      "Tourismus": 8744,
      "Farbe": 8745,
      "Transport": 8746,
      "Filme": 8747,
      "spirit": 8748,
      "Smith": 8749,
      "survived": 8750,
      "agreement": 8751,
      "nahezu": 8752,
      "Schlaf": 8753,
      "occupied": 8754,
      "disease": 8755,
      "Award": 8756,
      "Bul": 8757,
      "Brem": 8758,
      "Eind": 8759,
      "Muss": 8760,
      "Win": 8761,
      "filled": 8762,
      "gate": 8763,
      "gonna": 8764,
      "hein": 8765,
      "raten": 8766,
      "chamber": 8767,
      "anstr": 8768,
      "units": 8769,
      "toll": 8770,
      "andal": 8771,
      "routes": 8772,
      "istin": 8773,
      "verteid": 8774,
      "allein": 8775,
      "ado": 8776,
      "ueche": 8777,
      "Ing": 8778,
      "warf": 8779,
      "aggress": 8780,
      "features": 8781,
      "blu": 8782,
      "kommst": 8783,
      "strateg": 8784,
      "Society": 8785,
      "stellten": 8786,
      "besetzt": 8787,
      "ungsmittel": 8788,
      "Vorder": 8789,
      "lowing": 8790,
      "butter": 8791,
      "aechs": 8792,
      "gewachsen": 8793,
      "aircraft": 8794,
      "Karten": 8795,
      "bauten": 8796,
      "volunt": 8797,
      "Andreas": 8798,
      "Code": 8799,
      "Daniel": 8800,
      "schneller": 8801,
      "bildete": 8802,
      "drehen": 8803,
      "classical": 8804,
      "pfel": 8805,
      "Willst": 8806,
      "Obwohl": 8807,
      "Jean": 8808,
      "Lebensjahr": 8809,
      "trouble": 8810,
      "drop": 8811,
      "Greif": 8812,
      "colored": 8813,
      "Russia": 8814,
      "analy": 8815,
      "tags": 8816,
      "keyboard": 8817,
      "separated": 8818,
      "traditional": 8819,
      "championships": 8820,
      "safety": 8821,
      "Direkt": 8822,
      "nutzen": 8823,
      "Weiterhin": 8824,
      "hoechste": 8825,
      "Original": 8826,
      "target": 8827,
      "Telefon": 8828,
      "occasionally": 8829,
      "faerbt": 8830,
      "Akademie": 8831,
      "artificial": 8832,
      "entdeckt": 8833,
      "dangerous": 8834,
      "verantwortlich": 8835,
      "aghett": 8836,
      "Breslau": 8837,
      "Funk": 8838,
      "Gou": 8839,
      "Gang": 8840,
      "Jede": 8841,
      "Nic": 8842,
      "Ray": 8843,
      "Sha": 8844,
      "eating": 8845,
      "juenger": 8846,
      "mally": 8847,
      "mete": 8848,
      "anen": 8849,
      "atis": 8850,
      "unbekannt": 8851,
      "einzu": 8852,
      "leer": 8853,
      "gefasst": 8854,
      "iles": 8855,
      "schiessen": 8856,
      "raw": 8857,
      "aben": 8858,
      "aband": 8859,
      "laender": 8860,
      "uechte": 8861,
      "berries": 8862,
      "Stahl": 8863,
      "aging": 8864,
      "ido": 8865,
      "ikation": 8866,
      "steel": 8867,
      "perspective": 8868,
      "share": 8869,
      "mack": 8870,
      "rane": 8871,
      "wave": 8872,
      "Gewicht": 8873,
      "unterscheiden": 8874,
      "brig": 8875,
      "ideal": 8876,
      "Neue": 8877,
      "linear": 8878,
      "actual": 8879,
      "Abitur": 8880,
      "Marburg": 8881,
      "grab": 8882,
      "uded": 8883,
      "bedarf": 8884,
      "Konstru": 8885,
      "smart": 8886,
      "crime": 8887,
      "orenz": 8888,
      "familiar": 8889,
      "gaenglich": 8890,
      "Haar": 8891,
      "staendige": 8892,
      "Schwier": 8893,
      "rechten": 8894,
      "Swed": 8895,
      "reuth": 8896,
      "existieren": 8897,
      "Lebensmittel": 8898,
      "Magnet": 8899,
      "moving": 8900,
      "juice": 8901,
      "container": 8902,
      "foermig": 8903,
      "license": 8904,
      "Standard": 8905,
      "crazy": 8906,
      "huge": 8907,
      "soldiers": 8908,
      "mistake": 8909,
      "Schauspielerin": 8910,
      "Kolon": 8911,
      "Idee": 8912,
      "Glauben": 8913,
      "Prussian": 8914,
      "gerufen": 8915,
      "converted": 8916,
      "appropriate": 8917,
      "Sebastian": 8918,
      "phabet": 8919,
      "Dur": 8920,
      "Ful": 8921,
      "Flag": 8922,
      "Mauer": 8923,
      "Rath": 8924,
      "Sab": 8925,
      "Vit": 8926,
      "dick": 8927,
      "dough": 8928,
      "eigh": 8929,
      "hill": 8930,
      "tasks": 8931,
      "winner": 8932,
      "waters": 8933,
      "stimmt": 8934,
      "arischen": 8935,
      "oral": 8936,
      "atoren": 8937,
      "unclear": 8938,
      "degre": 8939,
      "dennoch": 8940,
      "verliess": 8941,
      "entschieden": 8942,
      "umgeben": 8943,
      "losen": 8944,
      "afft": 8945,
      "committee": 8946,
      "mens": 8947,
      "sieb": 8948,
      "woo": 8949,
      "izierte": 8950,
      "ftige": 8951,
      "boss": 8952,
      "Gegend": 8953,
      "residence": 8954,
      "cheese": 8955,
      "otherwise": 8956,
      "Aufnahme": 8957,
      "Herkunft": 8958,
      "overall": 8959,
      "darin": 8960,
      "inkel": 8961,
      "Asia": 8962,
      "Konrad": 8963,
      "Adels": 8964,
      "counts": 8965,
      "signed": 8966,
      "Spielen": 8967,
      "todays": 8968,
      "flood": 8969,
      "kammer": 8970,
      "Fahrzeuge": 8971,
      "angenommen": 8972,
      "Ruf": 8973,
      "dauer": 8974,
      "offenbar": 8975,
      "sichtbar": 8976,
      "processing": 8977,
      "Generation": 8978,
      "haeuf": 8979,
      "albums": 8980,
      "reffen": 8981,
      "walking": 8982,
      "Forschung": 8983,
      "performances": 8984,
      "ehemalige": 8985,
      "Leistungen": 8986,
      "Fotos": 8987,
      "accessible": 8988,
      "rueckt": 8989,
      "Eingang": 8990,
      "captain": 8991,
      "katholischen": 8992,
      "trotzdem": 8993,
      "korrekt": 8994,
      "Foundation": 8995,
      "degrees": 8996,
      "Blo": 8997,
      "Balk": 8998,
      "Baro": 8999,
      "Bibliothek": 9000,
      "Cro": 9001,
      "Cho": 9002,
      "Eich": 9003,
      "Ganz": 9004,
      "Sag": 9005,
      "Wesentlichen": 9006,
      "cese": 9007,
      "labor": 9008,
      "nick": 9009,
      "pas": 9010,
      "ping": 9011,
      "zing": 9012,
      "zueg": 9013,
      "erforder": 9014,
      "enne": 9015,
      "ories": 9016,
      "verw": 9017,
      "versen": 9018,
      "entially": 9019,
      "weib": 9020,
      "wealth": 9021,
      "umfang": 9022,
      "Sturm": 9023,
      "ulen": 9024,
      "ifel": 9025,
      "ifft": 9026,
      "Schach": 9027,
      "endig": 9028,
      "convers": 9029,
      "soil": 9030,
      "dogs": 9031,
      "Anwalt": 9032,
      "existen": 9033,
      "prior": 9034,
      "cohol": 9035,
      "esty": 9036,
      "Verlag": 9037,
      "gesucht": 9038,
      "otten": 9039,
      "tracks": 9040,
      "lief": 9041,
      "platten": 9042,
      "pects": 9043,
      "Spain": 9044,
      "drueck": 9045,
      "apply": 9046,
      "Aufnahmen": 9047,
      "Orient": 9048,
      "angegeben": 9049,
      "minor": 9050,
      "dargestellt": 9051,
      "handeln": 9052,
      "icted": 9053,
      "Boot": 9054,
      "Robo": 9055,
      "Rostock": 9056,
      "Bronze": 9057,
      "Klima": 9058,
      "produz": 9059,
      "Platten": 9060,
      "chnen": 9061,
      "directed": 9062,
      "verschlu": 9063,
      "holz": 9064,
      "letters": 9065,
      "Denk": 9066,
      "generation": 9067,
      "missed": 9068,
      "hardt": 9069,
      "wollten": 9070,
      "Deswegen": 9071,
      "Febru": 9072,
      "fleisch": 9073,
      "Studenten": 9074,
      "swald": 9075,
      "mutter": 9076,
      "programs": 9077,
      "mittelt": 9078,
      "erschien": 9079,
      "Class": 9080,
      "jaehrige": 9081,
      "Chef": 9082,
      "literary": 9083,
      "chemical": 9084,
      "participate": 9085,
      "Behoer": 9086,
      "Zahlreiche": 9087,
      "branches": 9088,
      "wiesen": 9089,
      "smooth": 9090,
      "schlafen": 9091,
      "electricity": 9092,
      "heavily": 9093,
      "Leitung": 9094,
      "valuable": 9095,
      "agreed": 9096,
      "burned": 9097,
      "beschaeftigt": 9098,
      "fifth": 9099,
      "dahin": 9100,
      "stadium": 9101,
      "Day": 9102,
      "Flo": 9103,
      "Fehl": 9104,
      "Got": 9105,
      "Lord": 9106,
      "Nase": 9107,
      "Rie": 9108,
      "Satur": 9109,
      "Tast": 9110,
      "Vul": 9111,
      "fein": 9112,
      "figh": 9113,
      "iant": 9114,
      "rural": 9115,
      "sang": 9116,
      "erzaehlt": 9117,
      "isl": 9118,
      "itation": 9119,
      "edition": 9120,
      "decre": 9121,
      "seats": 9122,
      "emot": 9123,
      "iern": 9124,
      "zugleich": 9125,
      "enny": 9126,
      "Derzeit": 9127,
      "feels": 9128,
      "fuellen": 9129,
      "stuck": 9130,
      "Ausdruck": 9131,
      "altar": 9132,
      "Hersteller": 9133,
      "barely": 9134,
      "machten": 9135,
      "Kohlen": 9136,
      "producer": 9137,
      "freut": 9138,
      "helped": 9139,
      "binden": 9140,
      "ausgeber": 9141,
      "swimm": 9142,
      "Kurt": 9143,
      "parks": 9144,
      "entwickeln": 9145,
      "representatives": 9146,
      "erschienen": 9147,
      "schulen": 9148,
      "Farb": 9149,
      "bottom": 9150,
      "gypt": 9151,
      "cooking": 9152,
      "strength": 9153,
      "script": 9154,
      "examination": 9155,
      "seudonym": 9156,
      "Hollywood": 9157,
      "Ecke": 9158,
      "Fab": 9159,
      "Fert": 9160,
      "Ferd": 9161,
      "Hess": 9162,
      "Master": 9163,
      "Rett": 9164,
      "Sendung": 9165,
      "cards": 9166,
      "dut": 9167,
      "eure": 9168,
      "giving": 9169,
      "jok": 9170,
      "lamp": 9171,
      "alive": 9172,
      "toil": 9173,
      "beendete": 9174,
      "users": 9175,
      "abol": 9176,
      "wege": 9177,
      "Schm": 9178,
      "Schriften": 9179,
      "werbe": 9180,
      "assigned": 9181,
      "Angebot": 9182,
      "gesund": 9183,
      "steps": 9184,
      "ources": 9185,
      "uebernommen": 9186,
      "liefert": 9187,
      "unternehmen": 9188,
      "sert": 9189,
      "weite": 9190,
      "stellungs": 9191,
      "finish": 9192,
      "avo": 9193,
      "attached": 9194,
      "phy": 9195,
      "bud": 9196,
      "Zeitschrift": 9197,
      "Champ": 9198,
      "namens": 9199,
      "throughout": 9200,
      "Karte": 9201,
      "families": 9202,
      "aeufer": 9203,
      "ails": 9204,
      "Gruenden": 9205,
      "Hierbei": 9206,
      "Beton": 9207,
      "Maler": 9208,
      "konzentr": 9209,
      "mando": 9210,
      "bsite": 9211,
      "Holstein": 9212,
      "Goett": 9213,
      "Amerikan": 9214,
      "Street": 9215,
      "springen": 9216,
      "Universitaeten": 9217,
      "Zeichen": 9218,
      "explos": 9219,
      "Hochschule": 9220,
      "breakfast": 9221,
      "Linux": 9222,
      "teachers": 9223,
      "Strassenbahn": 9224,
      "Gottes": 9225,
      "failure": 9226,
      "reduced": 9227,
      "Massnahmen": 9228,
      "comparison": 9229,
      "documents": 9230,
      "healthy": 9231,
      "Termin": 9232,
      "Presse": 9233,
      "camera": 9234,
      "fristig": 9235,
      "ziplin": 9236,
      "holidays": 9237,
      "Braunschwe": 9238,
      "Unterstuetzung": 9239,
      "paintings": 9240,
      "micro": 9241,
      "controversial": 9242,
      "predominantly": 9243,
      "Ferdin": 9244,
      "Ama": 9245,
      "Beine": 9246,
      "Fire": 9247,
      "Hessen": 9248,
      "Litt": 9249,
      "Nimm": 9250,
      "Rollen": 9251,
      "Ufer": 9252,
      "Vort": 9253,
      "Villa": 9254,
      "ique": 9255,
      "jan": 9256,
      "kick": 9257,
      "kreuz": 9258,
      "sis": 9259,
      "erungen": 9260,
      "inher": 9261,
      "stable": 9262,
      "orial": 9263,
      "asy": 9264,
      "edern": 9265,
      "rob": 9266,
      "beeren": 9267,
      "entir": 9268,
      "cking": 9269,
      "ierter": 9270,
      "Indien": 9271,
      "auss": 9272,
      "elled": 9273,
      "expression": 9274,
      "faster": 9275,
      "peror": 9276,
      "Einfach": 9277,
      "liest": 9278,
      "issance": 9279,
      "reihe": 9280,
      "klingt": 9281,
      "portion": 9282,
      "shoes": 9283,
      "handed": 9284,
      "Marie": 9285,
      "marine": 9286,
      "Jahrzehn": 9287,
      "Landschaft": 9288,
      "iously": 9289,
      "Unterricht": 9290,
      "Supp": 9291,
      "Handel": 9292,
      "publications": 9293,
      "careful": 9294,
      "Mond": 9295,
      "einzigen": 9296,
      "Dortmund": 9297,
      "Fris": 9298,
      "approved": 9299,
      "verliert": 9300,
      "Krone": 9301,
      "Produkte": 9302,
      "authority": 9303,
      "foerm": 9304,
      "Touristen": 9305,
      "cells": 9306,
      "photos": 9307,
      "assistant": 9308,
      "acquired": 9309,
      "Nikol": 9310,
      "faehig": 9311,
      "Hunger": 9312,
      "resistance": 9313,
      "schwierig": 9314,
      "bourg": 9315,
      "Santa": 9316,
      "Philosophie": 9317,
      "entirely": 9318,
      "Agr": 9319,
      "Bon": 9320,
      "Clar": 9321,
      "Dat": 9322,
      "Find": 9323,
      "Hop": 9324,
      "Hunde": 9325,
      "Jann": 9326,
      "Past": 9327,
      "Panz": 9328,
      "Sir": 9329,
      "Thr": 9330,
      "bingen": 9331,
      "fresh": 9332,
      "kopf": 9333,
      "rik": 9334,
      "san": 9335,
      "shr": 9336,
      "sli": 9337,
      "tz": 9338,
      "erho": 9339,
      "erwachsen": 9340,
      "inspir": 9341,
      "ching": 9342,
      "ancient": 9343,
      "stain": 9344,
      "ala": 9345,
      "orte": 9346,
      "atin": 9347,
      "ichert": 9348,
      "rose": 9349,
      "ione": 9350,
      "amaz": 9351,
      "vermutlich": 9352,
      "entin": 9353,
      "emt": 9354,
      "lok": 9355,
      "Stoff": 9356,
      "mander": 9357,
      "Schok": 9358,
      "oped": 9359,
      "demann": 9360,
      "commission": 9361,
      "ibel": 9362,
      "ibchen": 9363,
      "esten": 9364,
      "ernst": 9365,
      "trick": 9366,
      "ota": 9367,
      "merk": 9368,
      "shore": 9369,
      "izen": 9370,
      "Spitze": 9371,
      "Reis": 9372,
      "brings": 9373,
      "bronze": 9374,
      "whom": 9375,
      "zumeist": 9376,
      "ehlte": 9377,
      "Vorgaenger": 9378,
      "sheim": 9379,
      "disse": 9380,
      "keiten": 9381,
      "Werbung": 9382,
      "praes": 9383,
      "praeg": 9384,
      "productions": 9385,
      "produziert": 9386,
      "Blau": 9387,
      "echten": 9388,
      "guter": 9389,
      "Geschaeft": 9390,
      "ienten": 9391,
      "brach": 9392,
      "Genau": 9393,
      "desto": 9394,
      "deutscher": 9395,
      "organis": 9396,
      "variety": 9397,
      "setzungen": 9398,
      "experienced": 9399,
      "explo": 9400,
      "municipalities": 9401,
      "tourist": 9402,
      "Zusammenarbeit": 9403,
      "responsibility": 9404,
      "holds": 9405,
      "Kontakt": 9406,
      "Wiederauf": 9407,
      "Schnee": 9408,
      "message": 9409,
      "loesung": 9410,
      "Sammlung": 9411,
      "spelling": 9412,
      "constant": 9413,
      "Actually": 9414,
      "witness": 9415,
      "Louis": 9416,
      "gleichnamigen": 9417,
      "Instrument": 9418,
      "beutel": 9419,
      "concerts": 9420,
      "Adam": 9421,
      "Games": 9422,
      "Kop": 9423,
      "Kennt": 9424,
      "Kassel": 9425,
      "Mem": 9426,
      "Messer": 9427,
      "Sin": 9428,
      "Sper": 9429,
      "Top": 9430,
[...]
