{
  "version": "1.0",
  "truncation": null,
  "padding": null,
  "added_tokens": [
    {
      "id": 0,
      "content": "[UNK]",
      "single_word": false,
      "lstrip": false,
      "rstrip": false,
      "normalized": false,
      "special": true
    },
    {
      "id": 1,
      "content": "[CLS]",
      "single_word": false,
      "lstrip": false,
      "rstrip": false,
      "normalized": false,
      "special": true
    },
    {
      "id": 2,
      "content": "[SEP]",
      "single_word": false,
      "lstrip": false,
      "rstrip": false,
      "normalized": false,
      "special": true
    },
    {
      "id": 3,
      "content": "[PAD]",
      "single_word": false,
      "lstrip": false,
      "rstrip": false,
      "normalized": false,
      "special": true
    },
    {
      "id": 4,
      "content": "[MASK]",
      "single_word": false,
      "lstrip": false,
      "rstrip": false,
      "normalized": false,
      "special": true
    }
  ],
  "normalizer": null,
  "pre_tokenizer": {
    "type": "Whitespace"
  },
  "post_processor": null,
  "decoder": null,
  "model": {
    "type": "BPE",
    "dropout": null,
    "unk_token": "[UNK]",
    "continuing_subword_prefix": null,
    "end_of_word_suffix": null,
    "fuse_unk": false,
    "vocab": {
      "[UNK]": 0,
      "[CLS]": 1,
      "[SEP]": 2,
      "[PAD]": 3,
      "[MASK]": 4,
      "!": 5,
      "\"": 6,
      "#": 7,
      "$": 8,
      "%": 9,
      "&": 10,
      "'": 11,
      "(": 12,
      ")": 13,
      "*": 14,
      "+": 15,
      ",": 16,
      "-": 17,
      ".": 18,
      "/": 19,
      "0": 20,
      "1": 21,
      "2": 22,
      "3": 23,
      "4": 24,
      "5": 25,
      "6": 26,
      "7": 27,
      "8": 28,
      "9": 29,
      ":": 30,
      ";": 31,
      "<": 32,
      "=": 33,
      ">": 34,
      "?": 35,
      "@": 36,
      "A": 37,
      "B": 38,
      "C": 39,
      "D": 40,
      "E": 41,
      "F": 42,
      "G": 43,
      "H": 44,
      "I": 45,
      "J": 46,
      "K": 47,
      "L": 48,
      "M": 49,
      "N": 50,
      "O": 51,
      "P": 52,
      "Q": 53,
      "R": 54,
      "S": 55,
      "T": 56,
      "U": 57,
      "V": 58,
      "W": 59,
      "X": 60,
      "Y": 61,
      "Z": 62,
      "[": 63,
      "]": 64,
      "_": 65,
      "`": 66,
      "a": 67,
      "b": 68,
      "c": 69,
      "d": 70,
      "e": 71,
      "f": 72,
      "g": 73,
      "h": 74,
      "i": 75,
      "j": 76,
      "k": 77,
      "l": 78,
      "m": 79,
      "n": 80,
      "o": 81,
      "p": 82,
      "q": 83,
      "r": 84,
      "s": 85,
      "t": 86,
      "u": 87,
      "v": 88,
      "w": 89,
      "x": 90,
      "y": 91,
      "z": 92,
      "~": 93,
      "«": 94,
      "°": 95,
      "´": 96,
      "µ": 97,
      "»": 98,
      "Á": 99,
      "Â": 100,
      "Ä": 101,
      "Æ": 102,
      "Ç": 103,
      "É": 104,
      "Í": 105,
      "Î": 106,
      "Ó": 107,
      "Ô": 108,
      "Ö": 109,
      "Ø": 110,
      "Ú": 111,
      "Ü": 112,
      "Þ": 113,
      "ß": 114,
      "à": 115,
      "á": 116,
      "â": 117,
      "ã": 118,
      "ä": 119,
      "å": 120,
      "æ": 121,
      "ç": 122,
      "è": 123,
      "é": 124,
      "ê": 125,
      "ë": 126,
      "í": 127,
      "î": 128,
      "ï": 129,
      "ð": 130,
      "ñ": 131,
      "ò": 132,
      "ó": 133,
      "ô": 134,
      "õ": 135,
      "ö": 136,
      "ø": 137,
      "ù": 138,
      "ú": 139,
      "û": 140,
      "ü": 141,
      "ý": 142,
      "ā": 143,
      "ă": 144,
      "ą": 145,
      "ć": 146,
      "Č": 147,
      "č": 148,
      "ď": 149,
      "Đ": 150,
      "đ": 151,
      "ė": 152,
      "ę": 153,
      "ě": 154,
      "ğ": 155,
      "Ħ": 156,
      "Ī": 157,
      "ī": 158,
      "İ": 159,
      "ı": 160,
      "Ł": 161,
      "ł": 162,
      "ń": 163,
      "ņ": 164,
      "ň": 165,
      "Ō": 166,
      "ō": 167,
      "ő": 168,
      "Œ": 169,
      "Ř": 170,
      "ř": 171,
      "Ś": 172,
      "ś": 173,
      "Ş": 174,
      "ş": 175,
      "Š": 176,
      "š": 177,
      "ť": 178,
      "ū": 179,
      "ů": 180,
      "ź": 181,
      "Ż": 182,
      "ż": 183,
      "Ž": 184,
      "ž": 185,
      "Ə": 186,
      "ǔ": 187,
      "ș": 188,
      "Ț": 189,
      "ț": 190,
      "ə": 191,
      "ʻ": 192,
      "ʿ": 193,
      "О": 194,
      "א": 195,
      "ב": 196,
      "נ": 197,
      "ע": 198,
      "ש": 199,
      "་": 200,
      "ན": 201,
      "Ḫ": 202,
      "ṣ": 203,
      "ắ": 204,
      "ế": 205,
      "ồ": 206,
      "​": 207,
      "‎": 208,
      "–": 209,
      "—": 210,
      "‘": 211,
      "’": 212,
      "‚": 213,
      "“": 214,
      "”": 215,
      "„": 216,
      "…": 217,
      "″": 218,
      "‹": 219,
      "›": 220,
      "⁠": 221,
      "−": 222,
      "≡": 223,
      "⟨": 224,
      "⟩": 225,
      "カ": 226,
      "临": 227,
      "孙": 228,
      "尣": 229,
      "無": 230,
      "道": 231,
      "Ｗ": 232,
      "er": 233,
      "en": 234,
      "in": 235,
      "ch": 236,
      "th": 237,
      "an": 238,
      "st": 239,
      "on": 240,
      "ie": 241,
      "re": 242,
      "al": 243,
      "the": 244,
      "is": 245,
      "at": 246,
      "it": 247,
      "un": 248,
      "es": 249,
      "or": 250,
      "ar": 251,
      "as": 252,
      "ich": 253,
      "ed": 254,
      "el": 255,
      "ein": 256,
      "der": 257,
      "au": 258,
      "ur": 259,
      "le": 260,
      "he": 261,
      "te": 262,
      "of": 263,
      "de": 264,
      "ge": 265,
      "be": 266,
      "to": 267,
      "and": 268,
      "il": 269,
      "ro": 270,
      "ing": 271,
      "ig": 272,
      "ion": 273,
      "ist": 274,
      "den": 275,
      "am": 276,
      "ter": 277,
      "se": 278,
      "ou": 279,
      "ol": 280,
      "die": 281,
      "ic": 282,
      "ver": 283,
      "sch": 284,
      "im": 285,
      "und": 286,
      "om": 287,
      "ir": 288,
      "The": 289,
      "ent": 290,
      "ung": 291,
      "ten": 292,
      "ra": 293,
      "us": 294,
      "hr": 295,
      "ab": 296,
      "we": 297,
      "no": 298,
      "ach": 299,
      "ly": 300,
      "ere": 301,
      "um": 302,
      "ne": 303,
      "ad": 304,
      "gen": 305,
      "ck": 306,
      "ut": 307,
      "was": 308,
      "icht": 309,
      "ve": 310,
      "lo": 311,
      "eine": 312,
      "ier": 313,
      "for": 314,
      "ct": 315,
      "ber": 316,
      "are": 317,
      "et": 318,
      "sp": 319,
      "so": 320,
      "lich": 321,
      "Die": 322,
      "isch": 323,
      "la": 324,
      "ation": 325,
      "zu": 326,
      "In": 327,
      "me": 328,
      "auf": 329,
      "ann": 330,
      "all": 331,
      "das": 332,
      "ce": 333,
      "ke": 334,
      "aus": 335,
      "St": 336,
      "op": 337,
      "ith": 338,
      "war": 339,
      "man": 340,
      "ul": 341,
      "ür": 342,
      "ind": 343,
      "if": 344,
      "hat": 345,
      "ay": 346,
      "Sch": 347,
      "sich": 348,
      "mit": 349,
      "ag": 350,
      "ell": 351,
      "mo": 352,
      "nicht": 353,
      "id": 354,
      "von": 355,
      "ste": 356,
      "wer": 357,
      "ha": 358,
      "con": 359,
      "ben": 360,
      "sen": 361,
      "ze": 362,
      "ts": 363,
      "des": 364,
      "with": 365,
      "dem": 366,
      "his": 367,
      "als": 368,
      "you": 369,
      "pp": 370,
      "af": 371,
      "ht": 372,
      "iv": 373,
      "ho": 374,
      "wir": 375,
      "ill": 376,
      "He": 377,
      "com": 378,
      "Er": 379,
      "do": 380,
      "art": 381,
      "ther": 382,
      "uch": 383,
      "her": 384,
      "tr": 385,
      "ser": 386,
      "iel": 387,
      "ib": 388,
      "that": 389,
      "hen": 390,
      "An": 391,
      "wur": 392,
      "em": 393,
      "not": 394,
      "pro": 395,
      "ain": 396,
      "ort": 397,
      "lie": 398,
      "hn": 399,
      "kt": 400,
      "men": 401,
      "one": 402,
      "ant": 403,
      "co": 404,
      "Be": 405,
      "res": 406,
      "auch": 407,
      "ex": 408,
      "ess": 409,
      "ger": 410,
      "po": 411,
      "du": 412,
      "per": 413,
      "ges": 414,
      "ik": 415,
      "rom": 416,
      "ien": 417,
      "uf": 418,
      "Der": 419,
      "sie": 420,
      "ld": 421,
      "Ver": 422,
      "Sie": 423,
      "qu": 424,
      "can": 425,
      "hl": 426,
      "fe": 427,
      "Al": 428,
      "mer": 429,
      "ast": 430,
      "ive": 431,
      "od": 432,
      "einen": 433,
      "än": 434,
      "sel": 435,
      "wor": 436,
      "ust": 437,
      "gr": 438,
      "Un": 439,
      "end": 440,
      "sind": 441,
      "wie": 442,
      "wurde": 443,
      "für": 444,
      "ang": 445,
      "from": 446,
      "Re": 447,
      "sh": 448,
      "ischen": 449,
      "ally": 450,
      "fo": 451,
      "ug": 452,
      "also": 453,
      "ot": 454,
      "Ein": 455,
      "by": 456,
      "It": 457,
      "this": 458,
      "out": 459,
      "ity": 460,
      "ern": 461,
      "ip": 462,
      "Das": 463,
      "ame": 464,
      "have": 465,
      "here": 466,
      "rie": 467,
      "ate": 468,
      "wo": 469,
      "einer": 470,
      "oll": 471,
      "su": 472,
      "vor": 473,
      "up": 474,
      "tra": 475,
      "über": 476,
      "ak": 477,
      "Sp": 478,
      "urch": 479,
      "enn": 480,
      "ould": 481,
      "wird": 482,
      "bei": 483,
      "fer": 484,
      "gel": 485,
      "We": 486,
      "has": 487,
      "tz": 488,
      "werden": 489,
      "wn": 490,
      "ass": 491,
      "ün": 492,
      "ies": 493,
      "ru": 494,
      "Ge": 495,
      "ahr": 496,
      "igen": 497,
      "kann": 498,
      "ör": 499,
      "pr": 500,
      "ome": 501,
      "ated": 502,
      "ap": 503,
      "br": 504,
      "our": 505,
      "pla": 506,
      "ine": 507,
      "chen": 508,
      "iz": 509,
      "ial": 510,
      "nach": 511,
      "ong": 512,
      "ment": 513,
      "ater": 514,
      "ok": 515,
      "ac": 516,
      "noch": 517,
      "tim": 518,
      "bo": 519,
      "bl": 520,
      "sten": 521,
      "mal": 522,
      "uss": 523,
      "Le": 524,
      "ungen": 525,
      "dr": 526,
      "schaf": 527,
      "ick": 528,
      "ia": 529,
      "were": 530,
      "ight": 531,
      "ian": 532,
      "ite": 533,
      "ma": 534,
      "way": 535,
      "ear": 536,
      "fin": 537,
      "unter": 538,
      "ous": 539,
      "ran": 540,
      "go": 541,
      "iert": 542,
      "che": 543,
      "pl": 544,
      "gt": 545,
      "hal": 546,
      "very": 547,
      "age": 548,
      "ure": 549,
      "ers": 550,
      "ction": 551,
      "fen": 552,
      "ish": 553,
      "there": 554,
      "ard": 555,
      "pe": 556,
      "ön": 557,
      "ss": 558,
      "ition": 559,
      "pt": 560,
      "fol": 561,
      "Ar": 562,
      "og": 563,
      "ige": 564,
      "ire": 565,
      "its": 566,
      "ät": 567,
      "ute": 568,
      "fl": 569,
      "einem": 570,
      "Es": 571,
      "ide": 572,
      "ice": 573,
      "ische": 574,
      "vers": 575,
      "ander": 576,
      "part": 577,
      "ack": 578,
      "ft": 579,
      "iter": 580,
      "land": 581,
      "inter": 582,
      "bes": 583,
      "da": 584,
      "work": 585,
      "ark": 586,
      "Se": 587,
      "kom": 588,
      "li": 589,
      "bur": 590,
      "nen": 591,
      "will": 592,
      "elt": 593,
      "ah": 594,
      "zt": 595,
      "Ne": 596,
      "Mit": 597,
      "act": 598,
      "Ho": 599,
      "ück": 600,
      "En": 601,
      "time": 602,
      "ud": 603,
      "cl": 604,
      "ll": 605,
      "geb": 606,
      "stell": 607,
      "any": 608,
      "now": 609,
      "app": 610,
      "ord": 611,
      "fü": 612,
      "det": 613,
      "other": 614,
      "able": 615,
      "So": 616,
      "comp": 617,
      "This": 618,
      "gro": 619,
      "durch": 620,
      "thing": 621,
      "ue": 622,
      "nur": 623,
      "wei": 624,
      "gan": 625,
      "Nach": 626,
      "rei": 627,
      "Ze": 628,
      "wh": 629,
      "zum": 630,
      "ihr": 631,
      "spe": 632,
      "ise": 633,
      "ild": 634,
      "off": 635,
      "ster": 636,
      "zur": 637,
      "low": 638,
      "av": 639,
      "stand": 640,
      "ans": 641,
      "form": 642,
      "är": 643,
      "Ger": 644,
      "ele": 645,
      "ungs": 646,
      "hab": 647,
      "Auf": 648,
      "kl": 649,
      "fr": 650,
      "ult": 651,
      "ely": 652,
      "mehr": 653,
      "schaft": 654,
      "pre": 655,
      "ical": 656,
      "ven": 657,
      "hin": 658,
      "ree": 659,
      "rit": 660,
      "Im": 661,
      "cht": 662,
      "ner": 663,
      "Pro": 664,
      "iten": 665,
      "os": 666,
      "ph": 667,
      "oder": 668,
      "och": 669,
      "att": 670,
      "old": 671,
      "ary": 672,
      "ins": 673,
      "zen": 674,
      "ih": 675,
      "There": 676,
      "mt": 677,
      "only": 678,
      "Her": 679,
      "ibt": 680,
      "fir": 681,
      "under": 682,
      "mus": 683,
      "more": 684,
      "Or": 685,
      "Aus": 686,
      "adt": 687,
      "cre": 688,
      "str": 689,
      "reich": 690,
      "ase": 691,
      "had": 692,
      "some": 693,
      "mach": 694,
      "Vor": 695,
      "Te": 696,
      "You": 697,
      "Gr": 698,
      "sein": 699,
      "your": 700,
      "aber": 701,
      "son": 702,
      "tet": 703,
      "day": 704,
      "two": 705,
      "lin": 706,
      "ange": 707,
      "year": 708,
      "bar": 709,
      "Was": 710,
      "get": 711,
      "let": 712,
      "De": 713,
      "igh": 714,
      "iden": 715,
      "ty": 716,
      "ob": 717,
      "min": 718,
      "dass": 719,
      "ign": 720,
      "Ber": 721,
      "je": 722,
      "alle": 723,
      "soll": 724,
      "reg": 725,
      "jed": 726,
      "first": 727,
      "him": 728,
      "ken": 729,
      "ff": 730,
      "read": 731,
      "lichen": 732,
      "Ges": 733,
      "Ich": 734,
      "ings": 735,
      "gesch": 736,
      "Zeit": 737,
      "red": 738,
      "amp": 739,
      "She": 740,
      "Fr": 741,
      "they": 742,
      "haben": 743,
      "teil": 744,
      "like": 745,
      "she": 746,
      "leich": 747,
      "burg": 748,
      "my": 749,
      "ler": 750,
      "bel": 751,
      "ieren": 752,
      "ied": 753,
      "over": 754,
      "net": 755,
      "liche": 756,
      "pres": 757,
      "cc": 758,
      "alt": 759,
      "but": 760,
      "hör": 761,
      "fore": 762,
      "est": 763,
      "mon": 764,
      "again": 765,
      "ble": 766,
      "dis": 767,
      "ens": 768,
      "bu": 769,
      "atz": 770,
      "ßen": 771,
      "most": 772,
      "ces": 773,
      "ta": 774,
      "führ": 775,
      "play": 776,
      "ational": 777,
      "ds": 778,
      "bet": 779,
      "par": 780,
      "wieder": 781,
      "been": 782,
      "hand": 783,
      "kön": 784,
      "main": 785,
      "gl": 786,
      "For": 787,
      "schen": 788,
      "fa": 789,
      "into": 790,
      "kon": 791,
      "diese": 792,
      "sy": 793,
      "Fl": 794,
      "Br": 795,
      "port": 796,
      "ations": 797,
      "Ch": 798,
      "Wie": 799,
      "Th": 800,
      "les": 801,
      "itz": 802,
      "immer": 803,
      "ry": 804,
      "German": 805,
      "Do": 806,
      "fall": 807,
      "mat": 808,
      "ict": 809,
      "assen": 810,
      "ors": 811,
      "ahl": 812,
      "zeit": 813,
      "dar": 814,
      "bis": 815,
      "sc": 816,
      "olog": 817,
      "wä": 818,
      "ks": 819,
      "how": 820,
      "Ab": 821,
      "used": 822,
      "ance": 823,
      "ath": 824,
      "schon": 825,
      "los": 826,
      "etzt": 827,
      "about": 828,
      "int": 829,
      "new": 830,
      "ivers": 831,
      "Af": 832,
      "ert": 833,
      "wurden": 834,
      "unt": 835,
      "amil": 836,
      "use": 837,
      "Mar": 838,
      "gibt": 839,
      "\".": 840,
      "still": 841,
      "ubl": 842,
      "Au": 843,
      "ory": 844,
      "wen": 845,
      "Pr": 846,
      "tel": 847,
      "ister": 848,
      "lä": 849,
      "iss": 850,
      "ierte": 851,
      "ile": 852,
      "Da": 853,
      "gra": 854,
      "loc": 855,
      "sche": 856,
      "does": 857,
      "cont": 858,
      "Unter": 859,
      "roug": 860,
      "after": 861,
      "mir": 862,
      "serv": 863,
      "äl": 864,
      "zwei": 865,
      "their": 866,
      "then": 867,
      "ahn": 868,
      "arbe": 869,
      "What": 870,
      "ider": 871,
      "ions": 872,
      "muss": 873,
      "uring": 874,
      "istr": 875,
      "mar": 876,
      "io": 877,
      "After": 878,
      "bec": 879,
      "ow": 880,
      "gh": 881,
      "aut": 882,
      "ms": 883,
      "inn": 884,
      "äch": 885,
      "tern": 886,
      "bre": 887,
      "don": 888,
      "ents": 889,
      "seine": 890,
      "well": 891,
      "self": 892,
      "bst": 893,
      "dif": 894,
      "ium": 895,
      "dition": 896,
      "vie": 897,
      "vel": 898,
      "Me": 899,
      "üs": 900,
      "At": 901,
      "pol": 902,
      "should": 903,
      "just": 904,
      "iger": 905,
      "urn": 906,
      "spiel": 907,
      "Land": 908,
      "stru": 909,
      "tre": 910,
      "gar": 911,
      "ingen": 912,
      "pos": 913,
      "who": 914,
      "mun": 915,
      "sol": 916,
      "viel": 917,
      "every": 918,
      "Wer": 919,
      "ause": 920,
      "Kon": 921,
      "ious": 922,
      "ople": 923,
      "ced": 924,
      "seiner": 925,
      "itt": 926,
      "Wo": 927,
      "Man": 928,
      "Ro": 929,
      "amm": 930,
      "col": 931,
      "ub": 932,
      "would": 933,
      "Bo": 934,
      "ßer": 935,
      "hel": 936,
      "gleich": 937,
      "wever": 938,
      "zw": 939,
      "gend": 940,
      "Wir": 941,
      "dieser": 942,
      "uns": 943,
      "back": 944,
      "ful": 945,
      "ink": 946,
      "publ": 947,
      "bt": 948,
      "rough": 949,
      "On": 950,
      "dern": 951,
      "ible": 952,
      "med": 953,
      "ix": 954,
      "His": 955,
      "Jahr": 956,
      "gew": 957,
      "which": 958,
      "ße": 959,
      "dam": 960,
      "lang": 961,
      "ons": 962,
      "keit": 963,
      "mp": 964,
      "mber": 965,
      "As": 966,
      "igt": 967,
      "bed": 968,
      "hier": 969,
      "tw": 970,
      "That": 971,
      "Stadt": 972,
      "erst": 973,
      "ters": 974,
      "gest": 975,
      "spr": 976,
      "aten": 977,
      "They": 978,
      "cons": 979,
      "ways": 980,
      "car": 981,
      "zeich": 982,
      "But": 983,
      "Pl": 984,
      "ähr": 985,
      "people": 986,
      "atur": 987,
      "ient": 988,
      "steht": 989,
      "Jo": 990,
      "äter": 991,
      "Kl": 992,
      "air": 993,
      "weiter": 994,
      "ließ": 995,
      "isten": 996,
      "Zu": 997,
      "ready": 998,
      "did": 999,
      "elle": 1000,
      "fach": 1001,
      "fahr": 1002,
      "bere": 1003,
      "anz": 1004,
      "Bl": 1005,
      "want": 1006,
      "mann": 1007,
      "such": 1008,
      "wa": 1009,
      "produ": 1010,
      "beg": 1011,
      "place": 1012,
      "ool": 1013,
      "gehör": 1014,
      "dies": 1015,
      "sa": 1016,
      "glich": 1017,
      "Am": 1018,
      "aupt": 1019,
      "cted": 1020,
      "ank": 1021,
      "gegen": 1022,
      "nah": 1023,
      "ep": 1024,
      "gre": 1025,
      "same": 1026,
      "können": 1027,
      "fre": 1028,
      "them": 1029,
      "ular": 1030,
      "mein": 1031,
      "could": 1032,
      "ade": 1033,
      "know": 1034,
      "ale": 1035,
      "tt": 1036,
      "Diese": 1037,
      "cial": 1038,
      "Fran": 1039,
      "Mo": 1040,
      "Bes": 1041,
      "Univers": 1042,
      "Auch": 1043,
      "cle": 1044,
      "weit": 1045,
      "bit": 1046,
      "name": 1047,
      "nam": 1048,
      "hy": 1049,
      "call": 1050,
      "drei": 1051,
      "ple": 1052,
      "ative": 1053,
      "Kom": 1054,
      "War": 1055,
      "eln": 1056,
      "bro": 1057,
      "berg": 1058,
      "nte": 1059,
      "halten": 1060,
      "entr": 1061,
      "liegt": 1062,
      "differ": 1063,
      "fun": 1064,
      "already": 1065,
      "Ma": 1066,
      "hatte": 1067,
      "kommen": 1068,
      "than": 1069,
      "through": 1070,
      "Um": 1071,
      "arch": 1072,
      "aum": 1073,
      "neh": 1074,
      "Is": 1075,
      "ihn": 1076,
      "setz": 1077,
      "issen": 1078,
      "many": 1079,
      "heute": 1080,
      "ific": 1081,
      "Eur": 1082,
      "waren": 1083,
      "three": 1084,
      "Kar": 1085,
      "city": 1086,
      "änd": 1087,
      "ammen": 1088,
      "wenn": 1089,
      "ktion": 1090,
      "ates": 1091,
      "ried": 1092,
      "els": 1093,
      "stu": 1094,
      "bor": 1095,
      "best": 1096,
      "Par": 1097,
      "hne": 1098,
      "ilm": 1099,
      "years": 1100,
      "ilt": 1101,
      "rel": 1102,
      "cr": 1103,
      "mö": 1104,
      "nor": 1105,
      "own": 1106,
      "versch": 1107,
      "what": 1108,
      "dire": 1109,
      "ities": 1110,
      "cken": 1111,
      "ual": 1112,
      "ihre": 1113,
      "ved": 1114,
      "keine": 1115,
      "always": 1116,
      "ald": 1117,
      "cur": 1118,
      "cess": 1119,
      "sm": 1120,
      "Nor": 1121,
      "vier": 1122,
      "ret": 1123,
      "eng": 1124,
      "ife": 1125,
      "stehen": 1126,
      "vis": 1127,
      "ship": 1128,
      "jedoch": 1129,
      "If": 1130,
      "ese": 1131,
      "need": 1132,
      "ift": 1133,
      "inder": 1134,
      "sehr": 1135,
      "entlich": 1136,
      "chn": 1137,
      "ont": 1138,
      "right": 1139,
      "vent": 1140,
      "lage": 1141,
      "sk": 1142,
      "ives": 1143,
      "long": 1144,
      "Fre": 1145,
      "To": 1146,
      "chte": 1147,
      "Gesch": 1148,
      "ci": 1149,
      "Eine": 1150,
      "uer": 1151,
      "folg": 1152,
      "ently": 1153,
      "Gem": 1154,
      "findet": 1155,
      "vom": 1156,
      "heit": 1157,
      "nie": 1158,
      "Bei": 1159,
      "ja": 1160,
      "cy": 1161,
      "rich": 1162,
      "eld": 1163,
      "far": 1164,
      "deut": 1165,
      "ppen": 1166,
      "num": 1167,
      "found": 1168,
      "No": 1169,
      "oren": 1170,
      "weise": 1171,
      "mich": 1172,
      "geben": 1173,
      "Reg": 1174,
      "How": 1175,
      "cour": 1176,
      "Welt": 1177,
      "cor": 1178,
      "letz": 1179,
      "sur": 1180,
      "ihm": 1181,
      "acht": 1182,
      "Für": 1183,
      "hol": 1184,
      "dann": 1185,
      "famil": 1186,
      "too": 1187,
      "ough": 1188,
      "Über": 1189,
      "onder": 1190,
      "school": 1191,
      "äu": 1192,
      "ics": 1193,
      "zie": 1194,
      "look": 1195,
      "kno": 1196,
      "led": 1197,
      "made": 1198,
      "doch": 1199,
      "ded": 1200,
      "ys": 1201,
      "ital": 1202,
      "pen": 1203,
      "orf": 1204,
      "bau": 1205,
      "iff": 1206,
      "ischer": 1207,
      "mark": 1208,
      "iver": 1209,
      "see": 1210,
      "utz": 1211,
      "usammen": 1212,
      "amen": 1213,
      "However": 1214,
      "na": 1215,
      "lar": 1216,
      "national": 1217,
      "vol": 1218,
      "stellt": 1219,
      "cap": 1220,
      "With": 1221,
      "xt": 1222,
      "Als": 1223,
      "Tr": 1224,
      "gs": 1225,
      "iet": 1226,
      "build": 1227,
      "ually": 1228,
      "And": 1229,
      "uten": 1230,
      "ants": 1231,
      "ional": 1232,
      "cher": 1233,
      "etwas": 1234,
      "last": 1235,
      "kommt": 1236,
      "öff": 1237,
      "sollte": 1238,
      "located": 1239,
      "four": 1240,
      "Europ": 1241,
      "ince": 1242,
      "distr": 1243,
      "einfach": 1244,
      "even": 1245,
      "eines": 1246,
      "Berlin": 1247,
      "Deut": 1248,
      "geht": 1249,
      "take": 1250,
      "eral": 1251,
      "supp": 1252,
      "Haupt": 1253,
      "ität": 1254,
      "bin": 1255,
      "Wenn": 1256,
      "later": 1257,
      "All": 1258,
      "stre": 1259,
      "Men": 1260,
      "Teil": 1261,
      "El": 1262,
      "member": 1263,
      "water": 1264,
      "less": 1265,
      "alk": 1266,
      "became": 1267,
      "when": 1268,
      "zahl": 1269,
      "ically": 1270,
      "area": 1271,
      "cond": 1272,
      "poss": 1273,
      "bekann": 1274,
      "put": 1275,
      "Co": 1276,
      "hist": 1277,
      "unde": 1278,
      "ident": 1279,
      "Ad": 1280,
      "eing": 1281,
      "Dar": 1282,
      "star": 1283,
      "Du": 1284,
      "ence": 1285,
      "sto": 1286,
      "reis": 1287,
      "nis": 1288,
      "Mus": 1289,
      "come": 1290,
      "follow": 1291,
      "head": 1292,
      "train": 1293,
      "imm": 1294,
      "Pol": 1295,
      "stem": 1296,
      "Bau": 1297,
      "stra": 1298,
      "stadt": 1299,
      "Dan": 1300,
      "cts": 1301,
      "bas": 1302,
      "lau": 1303,
      "Dies": 1304,
      "ished": 1305,
      "kur": 1306,
      "gehen": 1307,
      "fur": 1308,
      "ats": 1309,
      "gab": 1310,
      "habe": 1311,
      "ctor": 1312,
      "row": 1313,
      "import": 1314,
      "bra": 1315,
      "emp": 1316,
      "Hand": 1317,
      "später": 1318,
      "When": 1319,
      "zwe": 1320,
      "ress": 1321,
      "ron": 1322,
      "rad": 1323,
      "ized": 1324,
      "ize": 1325,
      "west": 1326,
      "nehmen": 1327,
      "Com": 1328,
      "known": 1329,
      "eben": 1330,
      "annt": 1331,
      "Leben": 1332,
      "ived": 1333,
      "Fe": 1334,
      "char": 1335,
      "clo": 1336,
      "igkeit": 1337,
      "ierung": 1338,
      "sub": 1339,
      "schn": 1340,
      "cke": 1341,
      "kr": 1342,
      "ists": 1343,
      "selbst": 1344,
      "ail": 1345,
      "lot": 1346,
      "cord": 1347,
      "seinen": 1348,
      "ween": 1349,
      "called": 1350,
      "”.": 1351,
      "veral": 1352,
      "Bet": 1353,
      "lassen": 1354,
      "ünf": 1355,
      "gut": 1356,
      "got": 1357,
      "wür": 1358,
      "test": 1359,
      "Gemein": 1360,
      "igin": 1361,
      "heim": 1362,
      "coun": 1363,
      "halb": 1364,
      "ren": 1365,
      "zwischen": 1366,
      "Chr": 1367,
      "these": 1368,
      "ator": 1369,
      "kehr": 1370,
      "öl": 1371,
      "ody": 1372,
      "pass": 1373,
      "enter": 1374,
      "band": 1375,
      "different": 1376,
      "Seine": 1377,
      "üd": 1378,
      "zurück": 1379,
      "bus": 1380,
      "line": 1381,
      "ily": 1382,
      "Stra": 1383,
      "between": 1384,
      "kenn": 1385,
      "Min": 1386,
      "Wor": 1387,
      "stud": 1388,
      "az": 1389,
      "aller": 1390,
      "sho": 1391,
      "during": 1392,
      "voll": 1393,
      "del": 1394,
      "make": 1395,
      "high": 1396,
      "good": 1397,
      "ged": 1398,
      "Geb": 1399,
      "Ste": 1400,
      "ason": 1401,
      "often": 1402,
      "ccess": 1403,
      "sehen": 1404,
      "wards": 1405,
      "aster": 1406,
      "Gen": 1407,
      "Jah": 1408,
      "Frau": 1409,
      "present": 1410,
      "nichts": 1411,
      "Den": 1412,
      "ieden": 1413,
      "gu": 1414,
      "ativ": 1415,
      "asse": 1416,
      "hlt": 1417,
      "care": 1418,
      "lag": 1419,
      "uft": 1420,
      "Kinder": 1421,
      "glie": 1422,
      "sit": 1423,
      "Pe": 1424,
      "unden": 1425,
      "tak": 1426,
      "macht": 1427,
      "leg": 1428,
      "velop": 1429,
      "Hier": 1430,
      "ule": 1431,
      "Und": 1432,
      "start": 1433,
      "organ": 1434,
      "etz": 1435,
      "success": 1436,
      "ball": 1437,
      "flo": 1438,
      "Ex": 1439,
      "val": 1440,
      "town": 1441,
      "ures": 1442,
      "sign": 1443,
      "ucht": 1444,
      "diesem": 1445,
      "Gro": 1446,
      "pa": 1447,
      "ichte": 1448,
      "viele": 1449,
      "tro": 1450,
      "Sy": 1451,
      "ution": 1452,
      "polit": 1453,
      "Mon": 1454,
      "Spiel": 1455,
      "outh": 1456,
      "mot": 1457,
      "konnte": 1458,
      "fä": 1459,
      "today": 1460,
      "weg": 1461,
      "Can": 1462,
      "ält": 1463,
      "ves": 1464,
      "public": 1465,
      "open": 1466,
      "down": 1467,
      "ited": 1468,
      "ature": 1469,
      "much": 1470,
      "Kir": 1471,
      "Ober": 1472,
      "lung": 1473,
      "consider": 1474,
      "ages": 1475,
      "sim": 1476,
      "Tod": 1477,
      "ately": 1478,
      "ipp": 1479,
      "miss": 1480,
      "fra": 1481,
      "dest": 1482,
      "Ort": 1483,
      "müs": 1484,
      "Arbe": 1485,
      "eigen": 1486,
      "side": 1487,
      "itet": 1488,
      "Gra": 1489,
      "vil": 1490,
      "anderen": 1491,
      "develop": 1492,
      "oper": 1493,
      "aro": 1494,
      "think": 1495,
      "beim": 1496,
      "icip": 1497,
      "addition": 1498,
      "ausge": 1499,
      "Wasser": 1500,
      "führt": 1501,
      "Lo": 1502,
      "where": 1503,
      "undes": 1504,
      "bil": 1505,
      "hof": 1506,
      "ko": 1507,
      "ga": 1508,
      "mor": 1509,
      "dren": 1510,
      "kte": 1511,
      "fünf": 1512,
      "commun": 1513,
      "bahn": 1514,
      "dir": 1515,
      "fiel": 1516,
      "inger": 1517,
      "Sa": 1518,
      "died": 1519,
      "ric": 1520,
      "ildren": 1521,
      "without": 1522,
      "West": 1523,
      "show": 1524,
      "hard": 1525,
      "several": 1526,
      "ouse": 1527,
      "zer": 1528,
      "ckt": 1529,
      "family": 1530,
      "falls": 1531,
      "kam": 1532,
      "sport": 1533,
      "var": 1534,
      "wohl": 1535,
      "prof": 1536,
      "hre": 1537,
      "Christ": 1538,
      "kein": 1539,
      "lack": 1540,
      "schl": 1541,
      "schließ": 1542,
      "team": 1543,
      "remain": 1544,
      "ctions": 1545,
      "pop": 1546,
      "grö": 1547,
      "äd": 1548,
      "gemein": 1549,
      "try": 1550,
      "ustr": 1551,
      "jetzt": 1552,
      "ütz": 1553,
      "finden": 1554,
      "trans": 1555,
      "being": 1556,
      "seinem": 1557,
      "besch": 1558,
      "important": 1559,
      "mil": 1560,
      "iere": 1561,
      "upp": 1562,
      "Inter": 1563,
      "dec": 1564,
      "olle": 1565,
      "hren": 1566,
      "Aber": 1567,
      "Some": 1568,
      "ism": 1569,
      "Sein": 1570,
      "krie": 1571,
      "weil": 1572,
      "zehn": 1573,
      "richt": 1574,
      "stit": 1575,
      "alten": 1576,
      "find": 1577,
      "vo": 1578,
      "Tra": 1579,
      "ared": 1580,
      "law": 1581,
      "Ko": 1582,
      "ef": 1583,
      "sst": 1584,
      "children": 1585,
      "second": 1586,
      "hlen": 1587,
      "Von": 1588,
      "ielt": 1589,
      "Ha": 1590,
      "Durch": 1591,
      "One": 1592,
      "position": 1593,
      "pun": 1594,
      "aul": 1595,
      "dien": 1596,
      "ps": 1597,
      "einz": 1598,
      "woll": 1599,
      "ets": 1600,
      "took": 1601,
      "music": 1602,
      "ellen": 1603,
      "ständ": 1604,
      "real": 1605,
      "Mal": 1606,
      "ersten": 1607,
      "left": 1608,
      "ides": 1609,
      "rest": 1610,
      "gele": 1611,
      "iß": 1612,
      "liegen": 1613,
      "ßerdem": 1614,
      "ating": 1615,
      "works": 1616,
      "ton": 1617,
      "fort": 1618,
      "Fahr": 1619,
      "plan": 1620,
      "hän": 1621,
      "dent": 1622,
      "cept": 1623,
      "district": 1624,
      "statt": 1625,
      "Des": 1626,
      "ganz": 1627,
      "mittel": 1628,
      "hö": 1629,
      "haus": 1630,
      "cker": 1631,
      "world": 1632,
      "uen": 1633,
      "pra": 1634,
      "ask": 1635,
      "fahren": 1636,
      "befindet": 1637,
      "stein": 1638,
      "group": 1639,
      "isen": 1640,
      "possible": 1641,
      "bekannt": 1642,
      "Bundes": 1643,
      "top": 1644,
      "origin": 1645,
      "University": 1646,
      "ght": 1647,
      "amt": 1648,
      "angen": 1649,
      "constru": 1650,
      "light": 1651,
      "opp": 1652,
      "dich": 1653,
      "Famil": 1654,
      "ina": 1655,
      "complet": 1656,
      "Po": 1657,
      "besonder": 1658,
      "zusammen": 1659,
      "alles": 1660,
      "ihrer": 1661,
      "asch": 1662,
      "bitte": 1663,
      "must": 1664,
      "before": 1665,
      "life": 1666,
      "ker": 1667,
      "against": 1668,
      "ös": 1669,
      "bert": 1670,
      "lagen": 1671,
      "five": 1672,
      "mand": 1673,
      "lies": 1674,
      "small": 1675,
      "because": 1676,
      "pf": 1677,
      "worked": 1678,
      "Grund": 1679,
      "Don": 1680,
      "spre": 1681,
      "ted": 1682,
      "turn": 1683,
      "really": 1684,
      "Herr": 1685,
      "bach": 1686,
      "techn": 1687,
      "gy": 1688,
      "won": 1689,
      "machen": 1690,
      "Art": 1691,
      "times": 1692,
      "mä": 1693,
      "book": 1694,
      "Schw": 1695,
      "brauch": 1696,
      "schein": 1697,
      "andere": 1698,
      "press": 1699,
      "meist": 1700,
      "Kön": 1701,
      "round": 1702,
      "Hol": 1703,
      "building": 1704,
      "Schl": 1705,
      "During": 1706,
      "point": 1707,
      "Dam": 1708,
      "ace": 1709,
      "ument": 1710,
      "schaften": 1711,
      "wissen": 1712,
      "resp": 1713,
      "tem": 1714,
      "something": 1715,
      "Jahre": 1716,
      "station": 1717,
      "atten": 1718,
      "oft": 1719,
      "dabei": 1720,
      "church": 1721,
      "immt": 1722,
      "Rom": 1723,
      "ison": 1724,
      "Kr": 1725,
      "ätz": 1726,
      "ivid": 1727,
      "ott": 1728,
      "lässt": 1729,
      "met": 1730,
      "company": 1731,
      "aden": 1732,
      "fest": 1733,
      "Bur": 1734,
      "Car": 1735,
      "Deutsch": 1736,
      "Lu": 1737,
      "set": 1738,
      "auer": 1739,
      "ays": 1740,
      "dort": 1741,
      "ohne": 1742,
      "cannot": 1743,
      "class": 1744,
      "around": 1745,
      "\",": 1746,
      "occ": 1747,
      "ject": 1748,
      "gehört": 1749,
      "bs": 1750,
      "ines": 1751,
      "Mann": 1752,
      "üh": 1753,
      "few": 1754,
      "olf": 1755,
      "ime": 1756,
      "each": 1757,
      "Lie": 1758,
      "litt": 1759,
      "zä": 1760,
      "These": 1761,
      "Ur": 1762,
      "zo": 1763,
      "Musik": 1764,
      "blo": 1765,
      "list": 1766,
      "urs": 1767,
      "Gemeinde": 1768,
      "ially": 1769,
      "My": 1770,
      "akt": 1771,
      "mag": 1772,
      "sent": 1773,
      "ments": 1774,
      "Dabei": 1775,
      "big": 1776,
      "body": 1777,
      "ior": 1778,
      "World": 1779,
      "erste": 1780,
      "iele": 1781,
      "Fol": 1782,
      "both": 1783,
      "Zwe": 1784,
      "zial": 1785,
      "hä": 1786,
      "amer": 1787,
      "formation": 1788,
      "verschieden": 1789,
      "ony": 1790,
      "Nie": 1791,
      "number": 1792,
      "fas": 1793,
      "Every": 1794,
      "tschaft": 1795,
      "prä": 1796,
      "stellen": 1797,
      "weiß": 1798,
      "eig": 1799,
      "inner": 1800,
      "offen": 1801,
      "cover": 1802,
      "recht": 1803,
      "schw": 1804,
      "ruck": 1805,
      "Europe": 1806,
      "Schul": 1807,
      "Germany": 1808,
      "film": 1809,
      "next": 1810,
      "schr": 1811,
      "cho": 1812,
      "fäll": 1813,
      "lon": 1814,
      "dert": 1815,
      "soci": 1816,
      "system": 1817,
      "Menschen": 1818,
      "cast": 1819,
      "dre": 1820,
      "nung": 1821,
      "leicht": 1822,
      "Fo": 1823,
      "reu": 1824,
      "beiden": 1825,
      "going": 1826,
      "cent": 1827,
      "sw": 1828,
      "orn": 1829,
      "bab": 1830,
      "aufen": 1831,
      "free": 1832,
      "ultur": 1833,
      "Con": 1834,
      "wel": 1835,
      "New": 1836,
      "Amer": 1837,
      "werk": 1838,
      "grün": 1839,
      "Bahn": 1840,
      "mak": 1841,
      "gether": 1842,
      "Dort": 1843,
      "dings": 1844,
      "ders": 1845,
      "belie": 1846,
      "iving": 1847,
      "fle": 1848,
      "Gegen": 1849,
      "belong": 1850,
      "Sh": 1851,
      "conne": 1852,
      "ging": 1853,
      "ike": 1854,
      "Ent": 1855,
      "walt": 1856,
      "lease": 1857,
      "gestellt": 1858,
      "Mitglie": 1859,
      "bereits": 1860,
      "enz": 1861,
      "never": 1862,
      "bild": 1863,
      "alter": 1864,
      "Film": 1865,
      "wind": 1866,
      "father": 1867,
      "ones": 1868,
      "ede": 1869,
      "leben": 1870,
      "trä": 1871,
      "clear": 1872,
      "nun": 1873,
      "igung": 1874,
      "spra": 1875,
      "ächst": 1876,
      "ake": 1877,
      "course": 1878,
      "damit": 1879,
      "größ": 1880,
      "seit": 1881,
      "Ju": 1882,
      "hil": 1883,
      "sing": 1884,
      "room": 1885,
      "trie": 1886,
      "power": 1887,
      "away": 1888,
      "grund": 1889,
      "cro": 1890,
      "rece": 1891,
      "licher": 1892,
      "Bar": 1893,
      "fte": 1894,
      "run": 1895,
      "tho": 1896,
      "another": 1897,
      "verb": 1898,
      "que": 1899,
      "Vol": 1900,
      "iges": 1901,
      "Mr": 1902,
      "satz": 1903,
      "Spe": 1904,
      "ology": 1905,
      "“.": 1906,
      "Außerdem": 1907,
      "Kur": 1908,
      "state": 1909,
      "lead": 1910,
      "exp": 1911,
      "Why": 1912,
      "contin": 1913,
      "alen": 1914,
      "short": 1915,
      "exper": 1916,
      "gn": 1917,
      "Stre": 1918,
      "person": 1919,
      "spec": 1920,
      "zeichnet": 1921,
      "Will": 1922,
      "jo": 1923,
      "Jahren": 1924,
      "search": 1925,
      "omet": 1926,
      "sowie": 1927,
      "played": 1928,
      "Qu": 1929,
      "wr": 1930,
      "ground": 1931,
      "himself": 1932,
      "langu": 1933,
      "considered": 1934,
      "gilt": 1935,
      "ihren": 1936,
      "ius": 1937,
      "ired": 1938,
      "Today": 1939,
      "Ihr": 1940,
      "cal": 1941,
      "schied": 1942,
      "Go": 1943,
      "came": 1944,
      "sha": 1945,
      "case": 1946,
      "län": 1947,
      "Sw": 1948,
      "verwen": 1949,
      "raft": 1950,
      "zun": 1951,
      "halt": 1952,
      "cause": 1953,
      "ane": 1954,
      "wert": 1955,
      "post": 1956,
      "gener": 1957,
      "Ham": 1958,
      "Med": 1959,
      "dan": 1960,
      "lange": 1961,
      "ünst": 1962,
      "little": 1963,
      "feld": 1964,
      "Ende": 1965,
      "useum": 1966,
      "Krie": 1967,
      "ev": 1968,
      "gang": 1969,
      "inde": 1970,
      "ash": 1971,
      "curr": 1972,
      "org": 1973,
      "Sta": 1974,
      "house": 1975,
      "comes": 1976,
      "gram": 1977,
      "colle": 1978,
      "chsel": 1979,
      "prov": 1980,
      "sure": 1981,
      "Mittel": 1982,
      "appro": 1983,
      "built": 1984,
      "dorf": 1985,
      "hält": 1986,
      "wicht": 1987,
      "wick": 1988,
      "iga": 1989,
      "ett": 1990,
      "neue": 1991,
      "allem": 1992,
      "bum": 1993,
      "üt": 1994,
      "ingt": 1995,
      "Sal": 1996,
      "allen": 1997,
      "National": 1998,
      "har": 1999,
      "uck": 2000,
      "offic": 2001,
      "reiche": 2002,
      "dete": 2003,
      "wee": 2004,
      "ament": 2005,
      "Gl": 2006,
      "fast": 2007,
      "uß": 2008,
      "ommen": 2009,
      "sicher": 2010,
      "ye": 2011,
      "ßig": 2012,
      "auth": 2013,
      "bede": 2014,
      "einander": 2015,
      "Damit": 2016,
      "Who": 2017,
      "achsen": 2018,
      "ches": 2019,
      "doesn": 2020,
      "utter": 2021,
      "wohn": 2022,
      "dle": 2023,
      "order": 2024,
      "Fra": 2025,
      "Ser": 2026,
      "müssen": 2027,
      "sicht": 2028,
      "histor": 2029,
      "esen": 2030,
      "itete": 2031,
      "Dieser": 2032,
      "essen": 2033,
      "heir": 2034,
      "fil": 2035,
      "quest": 2036,
      "Kann": 2037,
      "result": 2038,
      "Frank": 2039,
      "Neben": 2040,
      "ness": 2041,
      "darauf": 2042,
      "village": 2043,
      "Gru": 2044,
      "unk": 2045,
      "front": 2046,
      "Dann": 2047,
      "Ital": 2048,
      "Spra": 2049,
      "rank": 2050,
      "center": 2051,
      "six": 2052,
      "sequ": 2053,
      "qual": 2054,
      "wäre": 2055,
      "profess": 2056,
      "gerade": 2057,
      "möglich": 2058,
      "dau": 2059,
      "dist": 2060,
      "beh": 2061,
      "Of": 2062,
      "Son": 2063,
      "ning": 2064,
      "allow": 2065,
      "iness": 2066,
      "Haus": 2067,
      "eas": 2068,
      "mid": 2069,
      "pur": 2070,
      "lea": 2071,
      "tens": 2072,
      "fert": 2073,
      "ücken": 2074,
      "construction": 2075,
      "iven": 2076,
      "elect": 2077,
      "würde": 2078,
      "eder": 2079,
      "imes": 2080,
      "Sohn": 2081,
      "Fin": 2082,
      "loss": 2083,
      "Groß": 2084,
      "Frie": 2085,
      "yo": 2086,
      "together": 2087,
      "Alle": 2088,
      "beginn": 2089,
      "fand": 2090,
      "hig": 2091,
      "incl": 2092,
      "inz": 2093,
      "orts": 2094,
      "nahm": 2095,
      "Not": 2096,
      "Ob": 2097,
      "euch": 2098,
      "pat": 2099,
      "pain": 2100,
      "road": 2101,
      "ird": 2102,
      "home": 2103,
      "äum": 2104,
      "Wil": 2105,
      "agt": 2106,
      "speak": 2107,
      "Only": 2108,
      "chs": 2109,
      "capital": 2110,
      "blie": 2111,
      "yer": 2112,
      "Pers": 2113,
      "served": 2114,
      "Deutschland": 2115,
      "itte": 2116,
      "omin": 2117,
      "reichen": 2118,
      "Ihre": 2119,
      "offer": 2120,
      "zeug": 2121,
      "tran": 2122,
      "Engl": 2123,
      "Fern": 2124,
      "ierten": 2125,
      "special": 2126,
      "isp": 2127,
      "fallen": 2128,
      "ped": 2129,
      "verl": 2130,
      "ände": 2131,
      "hinter": 2132,
      "arr": 2133,
      "term": 2134,
      "Str": 2135,
      "ement": 2136,
      "Platz": 2137,
      "hnen": 2138,
      "gesetzt": 2139,
      "besser": 2140,
      "schnell": 2141,
      "Hel": 2142,
      "ility": 2143,
      "say": 2144,
      "folgen": 2145,
      "ights": 2146,
      "stat": 2147,
      "ata": 2148,
      "ought": 2149,
      "genau": 2150,
      "ues": 2151,
      "opf": 2152,
      "exist": 2153,
      "ulation": 2154,
      "Je": 2155,
      "mb": 2156,
      "unge": 2157,
      "international": 2158,
      "hum": 2159,
      "tal": 2160,
      "ica": 2161,
      "Vater": 2162,
      "writ": 2163,
      "zig": 2164,
      "Are": 2165,
      "fact": 2166,
      "lossen": 2167,
      "chan": 2168,
      "atür": 2169,
      "ctive": 2170,
      "priv": 2171,
      "view": 2172,
      "bad": 2173,
      "ling": 2174,
      "omen": 2175,
      "rol": 2176,
      "meister": 2177,
      "board": 2178,
      "process": 2179,
      "Now": 2180,
      "however": 2181,
      "wirk": 2182,
      "klär": 2183,
      "Auto": 2184,
      "Namen": 2185,
      "hunder": 2186,
      "iod": 2187,
      "sam": 2188,
      "frei": 2189,
      "may": 2190,
      "ismus": 2191,
      "thern": 2192,
      "ätig": 2193,
      "better": 2194,
      "Flug": 2195,
      "Please": 2196,
      "lim": 2197,
      "named": 2198,
      "Ben": 2199,
      "Bre": 2200,
      "Mün": 2201,
      "park": 2202,
      "former": 2203,
      "rot": 2204,
      "Heute": 2205,
      "married": 2206,
      "Ele": 2207,
      "Where": 2208,
      "len": 2209,
      "ward": 2210,
      "Then": 2211,
      "region": 2212,
      "punkt": 2213,
      "Nord": 2214,
      "stop": 2215,
      "studied": 2216,
      "Bere": 2217,
      "erfolg": 2218,
      "ision": 2219,
      "Nicht": 2220,
      "wirtschaft": 2221,
      "mehrere": 2222,
      "partic": 2223,
      "Ist": 2224,
      "dieses": 2225,
      "dra": 2226,
      "record": 2227,
      "auto": 2228,
      "prote": 2229,
      "hielt": 2230,
      "Joh": 2231,
      "griff": 2232,
      "quick": 2233,
      "fire": 2234,
      "Familie": 2235,
      "mel": 2236,
      "went": 2237,
      "tragen": 2238,
      "isk": 2239,
      "change": 2240,
      "Schwe": 2241,
      "please": 2242,
      "Mil": 2243,
      "Lebens": 2244,
      "Austr": 2245,
      "standen": 2246,
      "cut": 2247,
      "hoch": 2248,
      "rail": 2249,
      "mean": 2250,
      "Mein": 2251,
      "ting": 2252,
      "ika": 2253,
      "Weltkrie": 2254,
      "Arbeit": 2255,
      "lern": 2256,
      "admin": 2257,
      "Fir": 2258,
      "roll": 2259,
      "ames": 2260,
      "ices": 2261,
      "keiten": 2262,
      "ätte": 2263,
      "why": 2264,
      "dro": 2265,
      "abel": 2266,
      "Char": 2267,
      "almost": 2268,
      "gebiet": 2269,
      "Mor": 2270,
      "agen": 2271,
      "Stud": 2272,
      "ürger": 2273,
      "dazu": 2274,
      "completely": 2275,
      "dig": 2276,
      "init": 2277,
      "wechsel": 2278,
      "others": 2279,
      "chts": 2280,
      "Produ": 2281,
      "tain": 2282,
      "everything": 2283,
      "ever": 2284,
      "May": 2285,
      "fic": 2286,
      "arn": 2287,
      "denn": 2288,
      "zug": 2289,
      "gese": 2290,
      "break": 2291,
      "Wh": 2292,
      "ars": 2293,
      "abl": 2294,
      "incre": 2295,
      "studierte": 2296,
      "ca": 2297,
      "äft": 2298,
      "Schr": 2299,
      "bal": 2300,
      "fang": 2301,
      "kauf": 2302,
      "sty": 2303,
      "ased": 2304,
      "Hoch": 2305,
      "mainly": 2306,
      "Gre": 2307,
      "Just": 2308,
      "Vo": 2309,
      "ief": 2310,
      "einmal": 2311,
      "weitere": 2312,
      "further": 2313,
      "trag": 2314,
      "large": 2315,
      "atet": 2316,
      "means": 2317,
      "kurz": 2318,
      "innen": 2319,
      "conc": 2320,
      "mut": 2321,
      "wegen": 2322,
      "cture": 2323,
      "untain": 2324,
      "icipal": 2325,
      "lebt": 2326,
      "ience": 2327,
      "Lin": 2328,
      "wend": 2329,
      "anim": 2330,
      "lex": 2331,
      "proble": 2332,
      "club": 2333,
      "things": 2334,
      "Bel": 2335,
      "Sk": 2336,
      "keinen": 2337,
      "yed": 2338,
      "enough": 2339,
      "office": 2340,
      "milit": 2341,
      "Band": 2342,
      "itel": 2343,
      "entral": 2344,
      "Johann": 2345,
      "Viel": 2346,
      "tun": 2347,
      "usually": 2348,
      "fähr": 2349,
      "entwick": 2350,
      "afür": 2351,
      "meisten": 2352,
      "design": 2353,
      "once": 2354,
      "schule": 2355,
      "until": 2356,
      "Verein": 2357,
      "frü": 2358,
      "inc": 2359,
      "diesen": 2360,
      "due": 2361,
      "iker": 2362,
      "appear": 2363,
      "Even": 2364,
      "erous": 2365,
      "atter": 2366,
      "ils": 2367,
      "community": 2368,
      "Tro": 2369,
      "öst": 2370,
      "enth": 2371,
      "vern": 2372,
      "Universität": 2373,
      "ined": 2374,
      "ither": 2375,
      "ffic": 2376,
      "longer": 2377,
      "einige": 2378,
      "ulture": 2379,
      "ometimes": 2380,
      "gesehen": 2381,
      "inen": 2382,
      "lives": 2383,
      "ersch": 2384,
      "ization": 2385,
      "stellung": 2386,
      "help": 2387,
      "field": 2388,
      "Währ": 2389,
      "bank": 2390,
      "particular": 2391,
      "Let": 2392,
      "ende": 2393,
      "ikan": 2394,
      "acc": 2395,
      "author": 2396,
      "From": 2397,
      "atch": 2398,
      "sett": 2399,
      "Danach": 2400,
      "Tag": 2401,
      "sts": 2402,
      "uter": 2403,
      "represent": 2404,
      "scht": 2405,
      "Wohn": 2406,
      "Mag": 2407,
      "stor": 2408,
      "formed": 2409,
      "ißt": 2410,
      "Rad": 2411,
      "chten": 2412,
      "among": 2413,
      "Mü": 2414,
      "song": 2415,
      "ktur": 2416,
      "half": 2417,
      "uc": 2418,
      "ppe": 2419,
      "ampion": 2420,
      "sound": 2421,
      "ationen": 2422,
      "ided": 2423,
      "oney": 2424,
      "platz": 2425,
      "itch": 2426,
      "ague": 2427,
      "period": 2428,
      "frien": 2429,
      "Bü": 2430,
      "meine": 2431,
      "charac": 2432,
      "kir": 2433,
      "ences": 2434,
      "associ": 2435,
      "utzt": 2436,
      "emand": 2437,
      "örper": 2438,
      "municipal": 2439,
      "history": 2440,
      "Oh": 2441,
      "ilome": 2442,
      "Hal": 2443,
      "Wel": 2444,
      "öt": 2445,
      "moved": 2446,
      "gebaut": 2447,
      "support": 2448,
      "Mö": 2449,
      "Sol": 2450,
      "live": 2451,
      "stark": 2452,
      "besteht": 2453,
      "Because": 2454,
      "service": 2455,
      "kä": 2456,
      "eller": 2457,
      "sieht": 2458,
      "König": 2459,
      "night": 2460,
      "vious": 2461,
      "ases": 2462,
      "tour": 2463,
      "equ": 2464,
      "give": 2465,
      "itung": 2466,
      "teach": 2467,
      "zogen": 2468,
      "Person": 2469,
      "administr": 2470,
      "Schau": 2471,
      "ätze": 2472,
      "arbeitete": 2473,
      "Landes": 2474,
      "Here": 2475,
      "geführt": 2476,
      "anything": 2477,
      "following": 2478,
      "started": 2479,
      "Hö": 2480,
      "wants": 2481,
      "reach": 2482,
      "ull": 2483,
      "stead": 2484,
      "athol": 2485,
      "Während": 2486,
      "ican": 2487,
      "keep": 2488,
      "ries": 2489,
      "effe": 2490,
      "Ka": 2491,
      "Res": 2492,
      "wand": 2493,
      "cks": 2494,
      "rieb": 2495,
      "heiratet": 2496,
      "though": 2497,
      "dep": 2498,
      "typ": 2499,
      "Roman": 2500,
      "bably": 2501,
      "Ir": 2502,
      "ench": 2503,
      "oment": 2504,
      "davon": 2505,
      "wenig": 2506,
      "local": 2507,
      "aup": 2508,
      "season": 2509,
      "üssel": 2510,
      "nahmen": 2511,
      "language": 2512,
      "Kun": 2513,
      "fel": 2514,
      "Reich": 2515,
      "Karl": 2516,
      "zunächst": 2517,
      "Ru": 2518,
      "Süd": 2519,
      "näch": 2520,
      "pack": 2521,
      "sl": 2522,
      "Schn": 2523,
      "üb": 2524,
      "chter": 2525,
      "ified": 2526,
      "zeu": 2527,
      "Mot": 2528,
      "ding": 2529,
      "tag": 2530,
      "yet": 2531,
      "child": 2532,
      "contra": 2533,
      "ians": 2534,
      "Bild": 2535,
      "while": 2536,
      "währ": 2537,
      "App": 2538,
      "Tur": 2539,
      "black": 2540,
      "ude": 2541,
      "utes": 2542,
      "uchs": 2543,
      "ktor": 2544,
      "plant": 2545,
      "Grün": 2546,
      "fac": 2547,
      "aged": 2548,
      "Coun": 2549,
      "schle": 2550,
      "achen": 2551,
      "didn": 2552,
      "blieb": 2553,
      "Natur": 2554,
      "gere": 2555,
      "wall": 2556,
      "etwa": 2557,
      "vest": 2558,
      "great": 2559,
      "bie": 2560,
      "conom": 2561,
      "received": 2562,
      "hor": 2563,
      "pon": 2564,
      "ispiel": 2565,
      "wahr": 2566,
      "arily": 2567,
      "aur": 2568,
      "iste": 2569,
      "ufig": 2570,
      "anged": 2571,
      "grow": 2572,
      "atürlich": 2573,
      "för": 2574,
      "mals": 2575,
      "ennt": 2576,
      "north": 2577,
      "Cl": 2578,
      "Fuß": 2579,
      "Per": 2580,
      "ban": 2581,
      "verheiratet": 2582,
      "appe": 2583,
      "Har": 2584,
      "icher": 2585,
      "irgend": 2586,
      "ively": 2587,
      "ext": 2588,
      "contain": 2589,
      "born": 2590,
      "Hauptstadt": 2591,
      "ücke": 2592,
      "death": 2593,
      "return": 2594,
      "äude": 2595,
      "Zur": 2596,
      "wär": 2597,
      "text": 2598,
      "istic": 2599,
      "Berg": 2600,
      "Mitglied": 2601,
      "Buch": 2602,
      "Since": 2603,
      "win": 2604,
      "interest": 2605,
      "behind": 2606,
      "Luft": 2607,
      "cir": 2608,
      "fern": 2609,
      "sil": 2610,
      "Rh": 2611,
      "sal": 2612,
      "ziehen": 2613,
      "quickly": 2614,
      "Tor": 2615,
      "schwer": 2616,
      "move": 2617,
      "young": 2618,
      "La": 2619,
      "Mer": 2620,
      "Park": 2621,
      "wig": 2622,
      "quar": 2623,
      "business": 2624,
      "Tre": 2625,
      "ederal": 2626,
      "else": 2627,
      "party": 2628,
      "successful": 2629,
      "sprechen": 2630,
      "Ged": 2631,
      "Kü": 2632,
      "Part": 2633,
      "lost": 2634,
      "mother": 2635,
      "ample": 2636,
      "cially": 2637,
      "become": 2638,
      "ival": 2639,
      "Ant": 2640,
      "schafts": 2641,
      "emplo": 2642,
      "allerdings": 2643,
      "past": 2644,
      "individ": 2645,
      "könnte": 2646,
      "hund": 2647,
      "inst": 2648,
      "soon": 2649,
      "möchte": 2650,
      "di": 2651,
      "isiert": 2652,
      "gän": 2653,
      "jor": 2654,
      "ump": 2655,
      "affe": 2656,
      "worden": 2657,
      "Lehr": 2658,
      "infl": 2659,
      "role": 2660,
      "nahme": 2661,
      "Russ": 2662,
      "kn": 2663,
      "sour": 2664,
      "lay": 2665,
      "prim": 2666,
      "whole": 2667,
      "based": 2668,
      "verwendet": 2669,
      "jähr": 2670,
      "erhalten": 2671,
      "reco": 2672,
      "setzt": 2673,
      "followed": 2674,
      "Dre": 2675,
      "schön": 2676,
      "ends": 2677,
      "food": 2678,
      "eigentlich": 2679,
      "covered": 2680,
      "absol": 2681,
      "ebenfalls": 2682,
      "research": 2683,
      "happen": 2684,
      "probably": 2685,
      "gramm": 2686,
      "jeder": 2687,
      "transport": 2688,
      "Zusammen": 2689,
      "gie": 2690,
      "tit": 2691,
      "word": 2692,
      "aves": 2693,
      "fällt": 2694,
      "pie": 2695,
      "tätig": 2696,
      "schul": 2697,
      "Hamburg": 2698,
      "Brit": 2699,
      "fan": 2700,
      "seem": 2701,
      "trib": 2702,
      "führen": 2703,
      "Che": 2704,
      "Mich": 2705,
      "Ind": 2706,
      "Regel": 2707,
      "respons": 2708,
      "daugh": 2709,
      "jemand": 2710,
      "Seit": 2711,
      "darf": 2712,
      "career": 2713,
      "legen": 2714,
      "scher": 2715,
      "zeigt": 2716,
      "continu": 2717,
      "mn": 2718,
      "south": 2719,
      "requ": 2720,
      "itä": 2721,
      "arm": 2722,
      "sechs": 2723,
      "Jetzt": 2724,
      "Phil": 2725,
      "zog": 2726,
      "anno": 2727,
      "Chin": 2728,
      "Hil": 2729,
      "Sü": 2730,
      "elte": 2731,
      "dessen": 2732,
      "herr": 2733,
      "ologie": 2734,
      "rat": 2735,
      "ziel": 2736,
      "erhielt": 2737,
      "Does": 2738,
      "zeitig": 2739,
      "Kirche": 2740,
      "week": 2741,
      "hung": 2742,
      "lic": 2743,
      "eren": 2744,
      "heißt": 2745,
      "ionen": 2746,
      "Kopf": 2747,
      "Mutter": 2748,
      "eg": 2749,
      "ichen": 2750,
      "Geschichte": 2751,
      "öffent": 2752,
      "eight": 2753,
      "iple": 2754,
      "Später": 2755,
      "spieler": 2756,
      "Ja": 2757,
      "vi": 2758,
      "Weg": 2759,
      "ständig": 2760,
      "makes": 2761,
      "econom": 2762,
      "natur": 2763,
      "Also": 2764,
      "yourself": 2765,
      "days": 2766,
      "cert": 2767,
      "zentr": 2768,
      "defin": 2769,
      "adv": 2770,
      "descr": 2771,
      "ogra": 2772,
      "signific": 2773,
      "cil": 2774,
      "educ": 2775,
      "drich": 2776,
      "kennen": 2777,
      "Dem": 2778,
      "Sel": 2779,
      "Tour": 2780,
      "liter": 2781,
      "suf": 2782,
      "teen": 2783,
      "gets": 2784,
      "rote": 2785,
      "ope": 2786,
      "hler": 2787,
      "änder": 2788,
      "Prof": 2789,
      "schließlich": 2790,
      "Wür": 2791,
      "bte": 2792,
      "talk": 2793,
      "ams": 2794,
      "abr": 2795,
      "isches": 2796,
      "wood": 2797,
      "Arch": 2798,
      "hundred": 2799,
      "Bern": 2800,
      "dou": 2801,
      "mod": 2802,
      "hast": 2803,
      "therefore": 2804,
      "French": 2805,
      "castle": 2806,
      "bezeichnet": 2807,
      "nothing": 2808,
      "working": 2809,
      "große": 2810,
      "glau": 2811,
      "bi": 2812,
      "sprün": 2813,
      "said": 2814,
      "deutschen": 2815,
      "bir": 2816,
      "since": 2817,
      "ache": 2818,
      "Friedrich": 2819,
      "San": 2820,
      "vert": 2821,
      "example": 2822,
      "furt": 2823,
      "Aug": 2824,
      "iben": 2825,
      "reiben": 2826,
      "Paris": 2827,
      "Such": 2828,
      "whe": 2829,
      "auen": 2830,
      "idge": 2831,
      "uchte": 2832,
      "ipt": 2833,
      "handelt": 2834,
      "begann": 2835,
      "numerous": 2836,
      "Nur": 2837,
      "Paul": 2838,
      "crit": 2839,
      "east": 2840,
      "inge": 2841,
      "seven": 2842,
      "Peter": 2843,
      "Main": 2844,
      "eh": 2845,
      "nten": 2846,
      "reason": 2847,
      "alth": 2848,
      "Eng": 2849,
      "Dieses": 2850,
      "hundert": 2851,
      "face": 2852,
      "pho": 2853,
      "itter": 2854,
      "happ": 2855,
      "emer": 2856,
      "early": 2857,
      "ächlich": 2858,
      "market": 2859,
      "schließend": 2860,
      "err": 2861,
      "level": 2862,
      "various": 2863,
      "remained": 2864,
      "hib": 2865,
      "ampf": 2866,
      "English": 2867,
      "Gleich": 2868,
      "aterial": 2869,
      "groß": 2870,
      "Proble": 2871,
      "funden": 2872,
      "North": 2873,
      "pract": 2874,
      "Wald": 2875,
      "anal": 2876,
      "Stand": 2877,
      "direct": 2878,
      "species": 2879,
      "Bis": 2880,
      "kind": 2881,
      "nal": 2882,
      "seen": 2883,
      "genommen": 2884,
      "lands": 2885,
      "Su": 2886,
      "Som": 2887,
      "fal": 2888,
      "stay": 2889,
      "refer": 2890,
      "Fil": 2891,
      "sou": 2892,
      "tete": 2893,
      "mostly": 2894,
      "country": 2895,
      "character": 2896,
      "Ak": 2897,
      "Zug": 2898,
      "stie": 2899,
      "stag": 2900,
      "learn": 2901,
      "key": 2902,
      "ellschaft": 2903,
      "Form": 2904,
      "spielte": 2905,
      "Zum": 2906,
      "money": 2907,
      "album": 2908,
      "ummer": 2909,
      "neuen": 2910,
      "strong": 2911,
      "Kind": 2912,
      "Kap": 2913,
      "Richt": 2914,
      "uation": 2915,
      "unterschied": 2916,
      "musste": 2917,
      "cra": 2918,
      "cell": 2919,
      "selves": 2920,
      "rieben": 2921,
      "Fall": 2922,
      "ey": 2923,
      "espe": 2924,
      "active": 2925,
      "Fest": 2926,
      "kel": 2927,
      "rea": 2928,
      "program": 2929,
      "antly": 2930,
      "spricht": 2931,
      "Burg": 2932,
      "Aut": 2933,
      "Mark": 2934,
      "ving": 2935,
      "separ": 2936,
      "neun": 2937,
      "Prä": 2938,
      "treten": 2939,
      "zahlreiche": 2940,
      "Sil": 2941,
      "itor": 2942,
      "See": 2943,
      "takes": 2944,
      "Bra": 2945,
      "Bürger": 2946,
      "welt": 2947,
      "rele": 2948,
      "gren": 2949,
      "white": 2950,
      "Other": 2951,
      "kun": 2952,
      "arten": 2953,
      "least": 2954,
      "near": 2955,
      "necess": 2956,
      "teilt": 2957,
      "fig": 2958,
      "hold": 2959,
      "ichten": 2960,
      "uren": 2961,
      "verkehr": 2962,
      "jekt": 2963,
      "meas": 2964,
      "Unternehmen": 2965,
      "close": 2966,
      "hon": 2967,
      "passen": 2968,
      "mountain": 2969,
      "relativ": 2970,
      "recogn": 2971,
      "haupt": 2972,
      "meinen": 2973,
      "ana": 2974,
      "neben": 2975,
      "klar": 2976,
      "brother": 2977,
      "cross": 2978,
      "Many": 2979,
      "ktr": 2980,
      "heraus": 2981,
      "ennen": 2982,
      "apan": 2983,
      "mission": 2984,
      "wollte": 2985,
      "vir": 2986,
      "reicht": 2987,
      "erei": 2988,
      "adurch": 2989,
      "ager": 2990,
      "eigenen": 2991,
      "ather": 2992,
      "ener": 2993,
      "Werk": 2994,
      "zir": 2995,
      "ähn": 2996,
      "itten": 2997,
      "major": 2998,
      "iner": 2999,
      "anzen": 3000,
      "imin": 3001,
      "entire": 3002,
      "Techn": 3003,
      "allowed": 3004,
      "Name": 3005,
      "cer": 3006,
      "anst": 3007,
      "mitt": 3008,
      "avail": 3009,
      "disc": 3010,
      "Jugend": 3011,
      "Sto": 3012,
      "Insel": 3013,
      "meter": 3014,
      "wirklich": 3015,
      "Doch": 3016,
      "utung": 3017,
      "areas": 3018,
      "ließen": 3019,
      "sterreich": 3020,
      "geschlossen": 3021,
      "diffic": 3022,
      "medi": 3023,
      "ihrem": 3024,
      "gabe": 3025,
      "besondere": 3026,
      "ultural": 3027,
      "military": 3028,
      "difficult": 3029,
      "Bede": 3030,
      "Gel": 3031,
      "Kreis": 3032,
      "count": 3033,
      "selben": 3034,
      "führte": 3035,
      "schluss": 3036,
      "Dorf": 3037,
      "Hab": 3038,
      "igte": 3039,
      "ama": 3040,
      "schre": 3041,
      "arbeitet": 3042,
      "developed": 3043,
      "fasst": 3044,
      "racht": 3045,
      "ape": 3046,
      "Neu": 3047,
      "color": 3048,
      "ships": 3049,
      "automat": 3050,
      "Sitz": 3051,
      "ibr": 3052,
      "govern": 3053,
      "John": 3054,
      "members": 3055,
      "Dr": 3056,
      "Ty": 3057,
      "sor": 3058,
      "tell": 3059,
      "tradition": 3060,
      "setzen": 3061,
      "available": 3062,
      "Two": 3063,
      "hätte": 3064,
      "iat": 3065,
      "social": 3066,
      "aufge": 3067,
      "particip": 3068,
      "establ": 3069,
      "popular": 3070,
      "ised": 3071,
      "hair": 3072,
      "someone": 3073,
      "those": 3074,
      "Port": 3075,
      "king": 3076,
      "iment": 3077,
      "proper": 3078,
      "pot": 3079,
      "kannst": 3080,
      "itzer": 3081,
      "Straßen": 3082,
      "Weltkrieg": 3083,
      "Mart": 3084,
      "bot": 3085,
      "xim": 3086,
      "ork": 3087,
      "leep": 3088,
      "ush": 3089,
      "neigh": 3090,
      "Acc": 3091,
      "Fun": 3092,
      "Sen": 3093,
      "South": 3094,
      "fu": 3095,
      "game": 3096,
      "hle": 3097,
      "via": 3098,
      "ivil": 3099,
      "spielen": 3100,
      "mäßig": 3101,
      "Kunst": 3102,
      "Fü": 3103,
      "Rück": 3104,
      "itze": 3105,
      "anderem": 3106,
      "Bay": 3107,
      "cou": 3108,
      "kor": 3109,
      "sof": 3110,
      "ilar": 3111,
      "stens": 3112,
      "utet": 3113,
      "wanted": 3114,
      "Fach": 3115,
      "ths": 3116,
      "tee": 3117,
      "letzten": 3118,
      "job": 3119,
      "schie": 3120,
      "benannt": 3121,
      "gleichen": 3122,
      "Parte": 3123,
      "Jed": 3124,
      "Licht": 3125,
      "lower": 3126,
      "ops": 3127,
      "indust": 3128,
      "exact": 3129,
      "zös": 3130,
      "gemacht": 3131,
      "iers": 3132,
      "Entw": 3133,
      "cret": 3134,
      "sych": 3135,
      "everyone": 3136,
      "Most": 3137,
      "taken": 3138,
      "reuz": 3139,
      "Dien": 3140,
      "Wort": 3141,
      "einge": 3142,
      "trat": 3143,
      "Sport": 3144,
      "icks": 3145,
      "range": 3146,
      "phy": 3147,
      "Titel": 3148,
      "wehr": 3149,
      "sieben": 3150,
      "compet": 3151,
      "published": 3152,
      "gaben": 3153,
      "Hans": 3154,
      "Later": 3155,
      "Mod": 3156,
      "ax": 3157,
      "lose": 3158,
      "gesp": 3159,
      "häng": 3160,
      "Zweiten": 3161,
      "\"\"": 3162,
      "Wahl": 3163,
      "utt": 3164,
      "Weiter": 3165,
      "regional": 3166,
      "kennt": 3167,
      "..": 3168,
      "Museum": 3169,
      "zel": 3170,
      "chem": 3171,
      "activ": 3172,
      "actually": 3173,
      "seines": 3174,
      "Warum": 3175,
      "Pal": 3176,
      "zy": 3177,
      "temp": 3178,
      "Both": 3179,
      "während": 3180,
      "fish": 3181,
      "amin": 3182,
      "uff": 3183,
      "ards": 3184,
      "anders": 3185,
      "forms": 3186,
      "middle": 3187,
      "beginning": 3188,
      "scre": 3189,
      "arian": 3190,
      "offe": 3191,
      "folgt": 3192,
      "bildung": 3193,
      "bind": 3194,
      "tele": 3195,
      "betrie": 3196,
      "understand": 3197,
      "kreis": 3198,
      "stütz": 3199,
      "Lon": 3200,
      "data": 3201,
      "ehe": 3202,
      "flow": 3203,
      "ances": 3204,
      "sta": 3205,
      "series": 3206,
      "feel": 3207,
      "needs": 3208,
      "Gebiet": 3209,
      "European": 3210,
      "ünstler": 3211,
      "space": 3212,
      "vielen": 3213,
      "development": 3214,
      "Gu": 3215,
      "Rolle": 3216,
      "natürlich": 3217,
      "ena": 3218,
      "Beim": 3219,
      "held": 3220,
      "braucht": 3221,
      "Volks": 3222,
      "Geld": 3223,
      "ying": 3224,
      "univers": 3225,
      "esse": 3226,
      "anzig": 3227,
      "Eltern": 3228,
      "wissenschaft": 3229,
      "Krieg": 3230,
      "Noch": 3231,
      "ffen": 3232,
      "hic": 3233,
      "wachsen": 3234,
      "ül": 3235,
      "iser": 3236,
      "dens": 3237,
      "angel": 3238,
      "super": 3239,
      "scheiden": 3240,
      "besonders": 3241,
      "Kin": 3242,
      "Ost": 3243,
      "rul": 3244,
      "ene": 3245,
      "eins": 3246,
      "rock": 3247,
      "extre": 3248,
      "straße": 3249,
      "Folge": 3250,
      "East": 3251,
      "Fur": 3252,
      "fam": 3253,
      "gas": 3254,
      "oid": 3255,
      "conf": 3256,
      "tries": 3257,
      "expe": 3258,
      "flä": 3259,
      "Feuer": 3260,
      "individual": 3261,
      "Lauf": 3262,
      "Pass": 3263,
      "bare": 3264,
      "süd": 3265,
      "termin": 3266,
      "forman": 3267,
      "ured": 3268,
      "temper": 3269,
      "häufig": 3270,
      "gangen": 3271,
      "ktionen": 3272,
      "corre": 3273,
      "paar": 3274,
      "certain": 3275,
      "government": 3276,
      "Pfl": 3277,
      "champion": 3278,
      "ilo": 3279,
      "Theater": 3280,
      "pose": 3281,
      "production": 3282,
      "sprach": 3283,
      "London": 3284,
      "Did": 3285,
      "Ul": 3286,
      "mlich": 3287,
      "non": 3288,
      "changed": 3289,
      "schutz": 3290,
      "parents": 3291,
      "ihnen": 3292,
      "Accord": 3293,
      "Ach": 3294,
      "Mun": 3295,
      "dafür": 3296,
      "gst": 3297,
      "liga": 3298,
      "mult": 3299,
      "walk": 3300,
      "alte": 3301,
      "gehörte": 3302,
      "öffentlich": 3303,
      "Christian": 3304,
      "kämp": 3305,
      "natural": 3306,
      "According": 3307,
      "Eis": 3308,
      "Gott": 3309,
      "Pra": 3310,
      "Your": 3311,
      "lö": 3312,
      "Schule": 3313,
      "Verwalt": 3314,
      "created": 3315,
      "letzt": 3316,
      "Bedeutung": 3317,
      "stab": 3318,
      "sei": 3319,
      "ums": 3320,
      "hatten": 3321,
      "affen": 3322,
      "foot": 3323,
      "compan": 3324,
      "sondern": 3325,
      "parts": 3326,
      "Augen": 3327,
      "looks": 3328,
      "Col": 3329,
      "Zahl": 3330,
      "üge": 3331,
      "issu": 3332,
      "enty": 3333,
      "cool": 3334,
      "arbeiten": 3335,
      "Nieder": 3336,
      "Na": 3337,
      "Viele": 3338,
      "moment": 3339,
      "door": 3340,
      "Eisen": 3341,
      "kten": 3342,
      "river": 3343,
      "regel": 3344,
      "folge": 3345,
      "llen": 3346,
      "wollen": 3347,
      "respon": 3348,
      "single": 3349,
      "wort": 3350,
      "stoff": 3351,
      "along": 3352,
      "Heim": 3353,
      "plays": 3354,
      "pendent": 3355,
      "Afr": 3356,
      "bald": 3357,
      "mass": 3358,
      "rup": 3359,
      "dev": 3360,
      "meant": 3361,
      "coming": 3362,
      "grand": 3363,
      "Leute": 3364,
      "fair": 3365,
      "Jose": 3366,
      "Wilhel": 3367,
      "Sand": 3368,
      "fly": 3369,
      "chmal": 3370,
      "common": 3371,
      "similar": 3372,
      "American": 3373,
      "belongs": 3374,
      "famous": 3375,
      "Kn": 3376,
      "öm": 3377,
      "illed": 3378,
      "großen": 3379,
      "osed": 3380,
      "wohner": 3381,
      "zent": 3382,
      "‘‘": 3383,
      "itself": 3384,
      "weis": 3385,
      "vehic": 3386,
      "pers": 3387,
      "steller": 3388,
      "anymore": 3389,
      "ochter": 3390,
      "schrift": 3391,
      "especially": 3392,
      "Alex": 3393,
      "nine": 3394,
      "wrote": 3395,
      "aust": 3396,
      "besten": 3397,
      "genannt": 3398,
      "Erst": 3399,
      "ological": 3400,
      "themselves": 3401,
      "Straße": 3402,
      "abe": 3403,
      "adem": 3404,
      "druck": 3405,
      "squ": 3406,
      "seite": 3407,
      "doing": 3408,
      "Georg": 3409,
      "regard": 3410,
      "Sim": 3411,
      "Tran": 3412,
      "smo": 3413,
      "Stein": 3414,
      "ivision": 3415,
      "Klein": 3416,
      "stitut": 3417,
      "original": 3418,
      "Bas": 3419,
      "Pre": 3420,
      "Wissen": 3421,
      "ustom": 3422,
      "syn": 3423,
      "relig": 3424,
      "Hein": 3425,
      "Tochter": 3426,
      "hous": 3427,
      "kü": 3428,
      "third": 3429,
      "ichtet": 3430,
      "neu": 3431,
      "ufen": 3432,
      "ört": 3433,
      "plann": 3434,
      "Organ": 3435,
      "Afterwards": 3436,
      "training": 3437,
      "friend": 3438,
      "information": 3439,
      "ara": 3440,
      "prochen": 3441,
      "bleibt": 3442,
      "arbeit": 3443,
      "domin": 3444,
      "lement": 3445,
      "ention": 3446,
      "box": 3447,
      "phone": 3448,
      "attack": 3449,
      "regular": 3450,
      "cit": 3451,
      "dung": 3452,
      "oud": 3453,
      "nete": 3454,
      "aff": 3455,
      "gebracht": 3456,
      "fully": 3457,
      "tware": 3458,
      "Tür": 3459,
      "cop": 3460,
      "iety": 3461,
      "Beispiel": 3462,
      "ölker": 3463,
      "Hä": 3464,
      "Kat": 3465,
      "dient": 3466,
      "fangen": 3467,
      "ises": 3468,
      "immen": 3469,
      "ago": 3470,
      "Brand": 3471,
      "letzte": 3472,
      "question": 3473,
      "includ": 3474,
      "private": 3475,
      "Sicher": 3476,
      "fran": 3477,
      "ham": 3478,
      "sun": 3479,
      "rain": 3480,
      "abge": 3481,
      "länger": 3482,
      "animals": 3483,
      "photo": 3484,
      "dür": 3485,
      "tower": 3486,
      "ateg": 3487,
      "ously": 3488,
      "sollten": 3489,
      "fail": 3490,
      "engine": 3491,
      "Gebäude": 3492,
      "Further": 3493,
      "cus": 3494,
      "kaum": 3495,
      "wish": 3496,
      "depart": 3497,
      "add": 3498,
      "lock": 3499,
      "uchen": 3500,
      "quite": 3501,
      "Einige": 3502,
      "ournal": 3503,
      "daher": 3504,
      "clean": 3505,
      "normal": 3506,
      "Klo": 3507,
      "Wien": 3508,
      "nimmt": 3509,
      "ceed": 3510,
      "ended": 3511,
      "traffic": 3512,
      "Seite": 3513,
      "geboren": 3514,
      "wagen": 3515,
      "ätzlich": 3516,
      "verschiedenen": 3517,
      "folgenden": 3518,
      "Japan": 3519,
      "Red": 3520,
      "eher": 3521,
      "outs": 3522,
      "Intern": 3523,
      "Dazu": 3524,
      "Plan": 3525,
      "aupts": 3526,
      "title": 3527,
      "daughter": 3528,
      "Bed": 3529,
      "Dis": 3530,
      "Lat": 3531,
      "pet": 3532,
      "ifen": 3533,
      "worth": 3534,
      "Rechts": 3535,
      "icken": 3536,
      "sagen": 3537,
      "current": 3538,
      "human": 3539,
      "deine": 3540,
      "heiten": 3541,
      "general": 3542,
      "hnt": 3543,
      "jeweil": 3544,
      "full": 3545,
      "frequ": 3546,
      "Internet": 3547,
      "größte": 3548,
      "mbol": 3549,
      "Masch": 3550,
      "Ot": 3551,
      "Rich": 3552,
      "bele": 3553,
      "mill": 3554,
      "stam": 3555,
      "redu": 3556,
      "isse": 3557,
      "asst": 3558,
      "began": 3559,
      "Span": 3560,
      "Prov": 3561,
      "idence": 3562,
      "Zudem": 3563,
      "gehören": 3564,
      "appeared": 3565,
      "responsible": 3566,
      "Air": 3567,
      "By": 3568,
      "Bru": 3569,
      "clos": 3570,
      "gue": 3571,
      "rein": 3572,
      "user": 3573,
      "Spr": 3574,
      "goes": 3575,
      "ätter": 3576,
      "scient": 3577,
      "Wein": 3578,
      "legt": 3579,
      "iler": 3580,
      "ross": 3581,
      "modern": 3582,
      "dog": 3583,
      "project": 3584,
      "performan": 3585,
      "Alt": 3586,
      "ips": 3587,
      "scheid": 3588,
      "border": 3589,
      "court": 3590,
      "Ehe": 3591,
      "Kan": 3592,
      "oint": 3593,
      "wise": 3594,
      "Schwer": 3595,
      "bran": 3596,
      "bring": 3597,
      "sonst": 3598,
      "Mehr": 3599,
      "vision": 3600,
      "eigene": 3601,
      "Holz": 3602,
      "Ed": 3603,
      "York": 3604,
      "fts": 3605,
      "lan": 3606,
      "museum": 3607,
      "ints": 3608,
      "theater": 3609,
      "unser": 3610,
      "trau": 3611,
      "Beide": 3612,
      "control": 3613,
      "zeichnung": 3614,
      "railway": 3615,
      "kunft": 3616,
      "necessary": 3617,
      "ehemal": 3618,
      "mind": 3619,
      "pay": 3620,
      "wid": 3621,
      "thes": 3622,
      "icated": 3623,
      "achie": 3624,
      "Anschließend": 3625,
      "lied": 3626,
      "Second": 3627,
      "hinaus": 3628,
      "bleiben": 3629,
      "books": 3630,
      "leave": 3631,
      "Far": 3632,
      "hm": 3633,
      "iber": 3634,
      "lauf": 3635,
      "sold": 3636,
      "äger": 3637,
      "tritt": 3638,
      "läuft": 3639,
      "structure": 3640,
      "ification": 3641,
      "street": 3642,
      "political": 3643,
      "currently": 3644,
      "camp": 3645,
      "event": 3646,
      "jur": 3647,
      "thin": 3648,
      "thod": 3649,
      "themat": 3650,
      "seat": 3651,
      "Vers": 3652,
      "bringen": 3653,
      "phys": 3654,
      "Polit": 3655,
      "Kannst": 3656,
      "written": 3657,
      "style": 3658,
      "association": 3659,
      "bist": 3660,
      "pan": 3661,
      "yal": 3662,
      "urt": 3663,
      "genutzt": 3664,
      "Begriff": 3665,
      "version": 3666,
      "rought": 3667,
      "trägt": 3668,
      "Cor": 3669,
      "Kor": 3670,
      "Raum": 3671,
      "done": 3672,
      "rid": 3673,
      "sug": 3674,
      "ügel": 3675,
      "thought": 3676,
      "agric": 3677,
      "Fluss": 3678,
      "richten": 3679,
      "largest": 3680,
      "supposed": 3681,
      "Met": 3682,
      "Pa": 3683,
      "ael": 3684,
      "fried": 3685,
      "ober": 3686,
      "heits": 3687,
      "Schwar": 3688,
      "besit": 3689,
      "ller": 3690,
      "twenty": 3691,
      "bedeuten": 3692,
      "Publ": 3693,
      "Well": 3694,
      "lam": 3695,
      "Schon": 3696,
      "sense": 3697,
      "appen": 3698,
      "Gruppe": 3699,
      "cry": 3700,
      "sometimes": 3701,
      "tember": 3702,
      "rather": 3703,
      "moder": 3704,
      "herum": 3705,
      "gesam": 3706,
      "placed": 3707,
      "accord": 3708,
      "police": 3709,
      "green": 3710,
      "Besch": 3711,
      "MO": 3712,
      "’’": 3713,
      "ursprün": 3714,
      "abor": 3715,
      "spir": 3716,
      "ritt": 3717,
      "General": 3718,
      "cul": 3719,
      "hang": 3720,
      "wuchs": 3721,
      "iller": 3722,
      "Einsatz": 3723,
      "clim": 3724,
      "machine": 3725,
      "easy": 3726,
      "Bereich": 3727,
      "continued": 3728,
      "Cal": 3729,
      "Daten": 3730,
      "master": 3731,
      "ordin": 3732,
      "studies": 3733,
      "Entwick": 3734,
      "Bitte": 3735,
      "Ihnen": 3736,
      "Körper": 3737,
      "wife": 3738,
      "leaves": 3739,
      "Städ": 3740,
      "agement": 3741,
      "Blü": 3742,
      "grew": 3743,
      "shows": 3744,
      "verschiedene": 3745,
      "Tom": 3746,
      "Wal": 3747,
      "Ziel": 3748,
      "lived": 3749,
      "pict": 3750,
      "urm": 3751,
      "opt": 3752,
      "within": 3753,
      "wiegend": 3754,
      "burger": 3755,
      "forest": 3756,
      "zwanzig": 3757,
      "stock": 3758,
      "subject": 3759,
      "First": 3760,
      "dlich": 3761,
      "orary": 3762,
      "immedi": 3763,
      "umen": 3764,
      "pret": 3765,
      "viously": 3766,
      "Bad": 3767,
      "Kre": 3768,
      "Wind": 3769,
      "Zw": 3770,
      "spo": 3771,
      "drive": 3772,
      "final": 3773,
      "Wochen": 3774,
      "problem": 3775,
      "Lau": 3776,
      "Nä": 3777,
      "mix": 3778,
      "swe": 3779,
      "tegr": 3780,
      "Meister": 3781,
      "surround": 3782,
      "window": 3783,
      "Wolf": 3784,
      "dio": 3785,
      "stone": 3786,
      "schwar": 3787,
      "abhäng": 3788,
      "model": 3789,
      "zept": 3790,
      "glass": 3791,
      "syste": 3792,
      "Män": 3793,
      "licht": 3794,
      "sus": 3795,
      "saf": 3796,
      "reas": 3797,
      "dead": 3798,
      "schau": 3799,
      "using": 3800,
      "oph": 3801,
      "iften": 3802,
      "cook": 3803,
      "Freund": 3804,
      "turned": 3805,
      "bü": 3806,
      "cing": 3807,
      "gent": 3808,
      "illa": 3809,
      "selten": 3810,
      "ideo": 3811,
      "gewann": 3812,
      "population": 3813,
      "fortun": 3814,
      "Hinter": 3815,
      "Lü": 3816,
      "Ohne": 3817,
      "Tal": 3818,
      "wes": 3819,
      "Stu": 3820,
      "ids": 3821,
      "stellte": 3822,
      "kleine": 3823,
      "machte": 3824,
      "spielt": 3825,
      "remains": 3826,
      "describ": 3827,
      "Hof": 3828,
      "RE": 3829,
      "Vien": 3830,
      "ose": 3831,
      "olden": 3832,
      "meet": 3833,
      "Comp": 3834,
      "Miss": 3835,
      "custom": 3836,
      "pul": 3837,
      "stär": 3838,
      "gefunden": 3839,
      "Stad": 3840,
      "Erfolg": 3841,
      "appoint": 3842,
      "matter": 3843,
      "garten": 3844,
      "nisse": 3845,
      "früher": 3846,
      "Hat": 3847,
      "VE": 3848,
      "Winter": 3849,
      "gte": 3850,
      "wal": 3851,
      "onn": 3852,
      "route": 3853,
      "ney": 3854,
      "love": 3855,
      "ette": 3856,
      "gessen": 3857,
      "akter": 3858,
      "Wieder": 3859,
      "Willi": 3860,
      "nächsten": 3861,
      "MOVE": 3862,
      "Aben": 3863,
      "Bö": 3864,
      "Liter": 3865,
      "bung": 3866,
      "brought": 3867,
      "fung": 3868,
      "hall": 3869,
      "por": 3870,
      "ria": 3871,
      "sburg": 3872,
      "sagt": 3873,
      "yn": 3874,
      "aint": 3875,
      "Before": 3876,
      "ollen": 3877,
      "jeden": 3878,
      "einzel": 3879,
      "install": 3880,
      "REMOVE": 3881,
      "Em": 3882,
      "kmal": 3883,
      "ley": 3884,
      "beha": 3885,
      "graph": 3886,
      "posed": 3887,
      "wrong": 3888,
      "Rel": 3889,
      "TO": 3890,
      "Zwei": 3891,
      "anten": 3892,
      "anze": 3893,
      "stets": 3894,
      "ators": 3895,
      "schme": 3896,
      "ults": 3897,
      "avy": 3898,
      "Beruf": 3899,
      "legal": 3900,
      "Frankfurt": 3901,
      "Schweiz": 3902,
      "Jul": 3903,
      "Pat": 3904,
      "Pun": 3905,
      "nel": 3906,
      "riere": 3907,
      "sat": 3908,
      "island": 3909,
      "amo": 3910,
      "sem": 3911,
      "imal": 3912,
      "wasser": 3913,
      "Aller": 3914,
      "Leist": 3915,
      "produced": 3916,
      "zählt": 3917,
      "erfolgreich": 3918,
      "Tem": 3919,
      "glo": 3920,
      "thir": 3921,
      "lymp": 3922,
      "gesprochen": 3923,
      "versucht": 3924,
      "Orts": 3925,
      "minister": 3926,
      "player": 3927,
      "solche": 3928,
      "archite": 3929,
      "zieht": 3930,
      "buildings": 3931,
      "sitzen": 3932,
      "Selbst": 3933,
      "stieg": 3934,
      "Dadurch": 3935,
      "bon": 3936,
      "fight": 3937,
      "pfl": 3938,
      "stelle": 3939,
      "eingesetzt": 3940,
      "deren": 3941,
      "secret": 3942,
      "uments": 3943,
      "älter": 3944,
      "upper": 3945,
      "scheinlich": 3946,
      "believe": 3947,
      "Bil": 3948,
      "Dire": 3949,
      "stamm": 3950,
      "ellow": 3951,
      "sports": 3952,
      "Versuch": 3953,
      "buried": 3954,
      "musik": 3955,
      "bisher": 3956,
      "electric": 3957,
      "Ol": 3958,
      "Rot": 3959,
      "cup": 3960,
      "fund": 3961,
      "watch": 3962,
      "stern": 3963,
      "towards": 3964,
      "terms": 3965,
      "Alter": 3966,
      "stands": 3967,
      "minutes": 3968,
      "Karriere": 3969,
      "Frauen": 3970,
      "initially": 3971,
      "extrem": 3972,
      "Bro": 3973,
      "itar": 3974,
      "aren": 3975,
      "arms": 3976,
      "heut": 3977,
      "abo": 3978,
      "blue": 3979,
      "hören": 3980,
      "knows": 3981,
      "richtet": 3982,
      "uppe": 3983,
      "hausen": 3984,
      "seems": 3985,
      "correct": 3986,
      "Sor": 3987,
      "ials": 3988,
      "erklär": 3989,
      "befinden": 3990,
      "dents": 3991,
      "usion": 3992,
      "hours": 3993,
      "doc": 3994,
      "iziert": 3995,
      "komp": 3996,
      "burn": 3997,
      "ganze": 3998,
      "Nachbar": 3999,
      "speed": 4000,
      "destro": 4001,
      "Sommer": 4002,
      "Due": 4003,
      "Olymp": 4004,
      "Uhr": 4005,
      "either": 4006,
      "gain": 4007,
      "jahr": 4008,
      "path": 4009,
      "va": 4010,
      "track": 4011,
      "attle": 4012,
      "Boden": 4013,
      "Minuten": 4014,
      "Gold": 4015,
      "story": 4016,
      "ural": 4017,
      "rab": 4018,
      "exhib": 4019,
      "boy": 4020,
      "goal": 4021,
      "posit": 4022,
      "director": 4023,
      "occur": 4024,
      "County": 4025,
      "suffer": 4026,
      "Heinrich": 4027,
      "französ": 4028,
      "Fort": 4029,
      "Get": 4030,
      "card": 4031,
      "living": 4032,
      "van": 4033,
      "völker": 4034,
      "orient": 4035,
      "anderer": 4036,
      "Forsch": 4037,
      "names": 4038,
      "Region": 4039,
      "Kurz": 4040,
      "Sprache": 4041,
      "Wilhelm": 4042,
      "Amt": 4043,
      "Ke": 4044,
      "enden": 4045,
      "iegel": 4046,
      "annte": 4047,
      "werde": 4048,
      "Heil": 4049,
      "boten": 4050,
      "Kirchen": 4051,
      "Foto": 4052,
      "Morgen": 4053,
      "teacher": 4054,
      "closed": 4055,
      "Hen": 4056,
      "nä": 4057,
      "chair": 4058,
      "Seiten": 4059,
      "independent": 4060,
      "ilometer": 4061,
      "education": 4062,
      "Martin": 4063,
      "Lang": 4064,
      "Yes": 4065,
      "ften": 4066,
      "given": 4067,
      "uppen": 4068,
      "women": 4069,
      "Ins": 4070,
      "ements": 4071,
      "ktiv": 4072,
      "überhaupt": 4073,
      "Team": 4074,
      "Gren": 4075,
      "iction": 4076,
      "bereich": 4077,
      "wait": 4078,
      "Europa": 4079,
      "Dienst": 4080,
      "stammt": 4081,
      "Bu": 4082,
      "mist": 4083,
      "wing": 4084,
      "verk": 4085,
      "Schü": 4086,
      "gelang": 4087,
      "tax": 4088,
      "weniger": 4089,
      "Franz": 4090,
      "professional": 4091,
      "Rhein": 4092,
      "Bruder": 4093,
      "Fle": 4094,
      "Fried": 4095,
      "Kreuz": 4096,
      "Nun": 4097,
      "Ter": 4098,
      "Wes": 4099,
      "fell": 4100,
      "late": 4101,
      "invest": 4102,
      "health": 4103,
      "counter": 4104,
      "Grö": 4105,
      "deutsche": 4106,
      "Darüber": 4107,
      "Vielleicht": 4108,
      "Möglich": 4109,
      "Eig": 4110,
      "dark": 4111,
      "sleep": 4112,
      "öll": 4113,
      "irl": 4114,
      "forder": 4115,
      "spl": 4116,
      "condition": 4117,
      "expla": 4118,
      "Therefore": 4119,
      "Werke": 4120,
      "Daneben": 4121,
      "groups": 4122,
      "Hin": 4123,
      "Pap": 4124,
      "risk": 4125,
      "außer": 4126,
      "ilities": 4127,
      "rare": 4128,
      "sogar": 4129,
      "method": 4130,
      "Schre": 4131,
      "plat": 4132,
      "unsere": 4133,
      "gegenüber": 4134,
      "wichtig": 4135,
      "Trotz": 4136,
      "Kloster": 4137,
      "Colle": 4138,
      "meiner": 4139,
      "urg": 4140,
      "seh": 4141,
      "ola": 4142,
      "log": 4143,
      "iffe": 4144,
      "gers": 4145,
      "alley": 4146,
      "üsse": 4147,
      "stood": 4148,
      "onym": 4149,
      "äume": 4150,
      "British": 4151,
      "Mel": 4152,
      "nature": 4153,
      "raum": 4154,
      "ingly": 4155,
      "verfü": 4156,
      "haft": 4157,
      "serve": 4158,
      "suit": 4159,
      "iale": 4160,
      "fluss": 4161,
      "astery": 4162,
      "operation": 4163,
      "kosten": 4164,
      "gelegt": 4165,
      "approach": 4166,
      "purpose": 4167,
      "August": 4168,
      "exactly": 4169,
      "kre": 4170,
      "nut": 4171,
      "erne": 4172,
      "atic": 4173,
      "zeichen": 4174,
      "function": 4175,
      "funktion": 4176,
      "richtig": 4177,
      "particularly": 4178,
      "established": 4179,
      "Hast": 4180,
      "Ton": 4181,
      "action": 4182,
      "kar": 4183,
      "sand": 4184,
      "lebte": 4185,
      "ume": 4186,
      "Verkehr": 4187,
      "Union": 4188,
      "klein": 4189,
      "weiteren": 4190,
      "brachte": 4191,
      "krat": 4192,
      "transl": 4193,
      "voice": 4194,
      "Bal": 4195,
      "fem": 4196,
      "ri": 4197,
      "Schne": 4198,
      "mitted": 4199,
      "gerne": 4200,
      "words": 4201,
      "access": 4202,
      "lines": 4203,
      "jects": 4204,
      "Deutschen": 4205,
      "Saison": 4206,
      "dienst": 4207,
      "Zentr": 4208,
      "fän": 4209,
      "kap": 4210,
      "respe": 4211,
      "gegeben": 4212,
      "wers": 4213,
      "Weit": 4214,
      "scheint": 4215,
      "pression": 4216,
      "England": 4217,
      "Back": 4218,
      "Fen": 4219,
      "Mid": 4220,
      "lass": 4221,
      "lungen": 4222,
      "ring": 4223,
      "rück": 4224,
      "tin": 4225,
      "bevor": 4226,
      "Strom": 4227,
      "Leip": 4228,
      "Arme": 4229,
      "anyone": 4230,
      "Wieso": 4231,
      "setzung": 4232,
      "floor": 4233,
      "connection": 4234,
      "größten": 4235,
      "Nam": 4236,
      "Sing": 4237,
      "lik": 4238,
      "gewä": 4239,
      "andid": 4240,
      "ico": 4241,
      "Ern": 4242,
      "playing": 4243,
      "Thom": 4244,
      "Mensch": 4245,
      "bilden": 4246,
      "Sax": 4247,
      "China": 4248,
      "Pres": 4249,
      "schrieb": 4250,
      "Verbind": 4251,
      "mern": 4252,
      "princ": 4253,
      "sollen": 4254,
      "ski": 4255,
      "official": 4256,
      "Partei": 4257,
      "Lud": 4258,
      "Mir": 4259,
      "Off": 4260,
      "Sm": 4261,
      "wald": 4262,
      "umm": 4263,
      "spa": 4264,
      "kept": 4265,
      "agre": 4266,
      "gern": 4267,
      "lett": 4268,
      "Geschä": 4269,
      "volution": 4270,
      "gave": 4271,
      "mnas": 4272,
      "Ok": 4273,
      "Sc": 4274,
      "Tage": 4275,
      "zerst": 4276,
      "ino": 4277,
      "urop": 4278,
      "commen": 4279,
      "ufact": 4280,
      "kleinen": 4281,
      "radio": 4282,
      "welche": 4283,
      "Schrift": 4284,
      "municipality": 4285,
      "Dav": 4286,
      "Eben": 4287,
      "Kultur": 4288,
      "Turn": 4289,
      "caus": 4290,
      "mess": 4291,
      "material": 4292,
      "invol": 4293,
      "atory": 4294,
      "teile": 4295,
      "extens": 4296,
      "besuchte": 4297,
      "letter": 4298,
      "More": 4299,
      "founded": 4300,
      "surv": 4301,
      "Offen": 4302,
      "administrative": 4303,
      "Profess": 4304,
      "companies": 4305,
      "International": 4306,
      "immediately": 4307,
      "Gy": 4308,
      "Mat": 4309,
      "kamen": 4310,
      "nör": 4311,
      "othe": 4312,
      "total": 4313,
      "icy": 4314,
      "ending": 4315,
      "ousand": 4316,
      "starb": 4317,
      "Richtung": 4318,
      "Hist": 4319,
      "Preis": 4320,
      "gon": 4321,
      "ka": 4322,
      "rä": 4323,
      "attra": 4324,
      "igten": 4325,
      "ford": 4326,
      "pper": 4327,
      "Regen": 4328,
      "Frage": 4329,
      "Lö": 4330,
      "Text": 4331,
      "divid": 4332,
      "table": 4333,
      "uh": 4334,
      "aler": 4335,
      "tom": 4336,
      "imme": 4337,
      "extra": 4338,
      "wiesen": 4339,
      "finally": 4340,
      "hands": 4341,
      "gradu": 4342,
      "Polize": 4343,
      "bildet": 4344,
      "couple": 4345,
      "Munich": 4346,
      "Its": 4347,
      "games": 4348,
      "mund": 4349,
      "sec": 4350,
      "manufact": 4351,
      "drink": 4352,
      "location": 4353,
      "direkt": 4354,
      "Bahnhof": 4355,
      "reached": 4356,
      "fortunately": 4357,
      "Oder": 4358,
      "jud": 4359,
      "uni": 4360,
      "aught": 4361,
      "icts": 4362,
      "Instead": 4363,
      "Anfang": 4364,
      "izes": 4365,
      "gebil": 4366,
      "Demo": 4367,
      "Markt": 4368,
      "Priv": 4369,
      "industry": 4370,
      "Di": 4371,
      "Wann": 4372,
      "Wahr": 4373,
      "cold": 4374,
      "psych": 4375,
      "sau": 4376,
      "slow": 4377,
      "vere": 4378,
      "verlie": 4379,
      "itions": 4380,
      "favor": 4381,
      "konnten": 4382,
      "students": 4383,
      "magaz": 4384,
      "Michael": 4385,
      "metery": 4386,
      "Furthermore": 4387,
      "Fä": 4388,
      "Gast": 4389,
      "bul": 4390,
      "Rei": 4391,
      "rief": 4392,
      "garden": 4393,
      "Maybe": 4394,
      "Ano": 4395,
      "Bor": 4396,
      "Federal": 4397,
      "Krit": 4398,
      "altern": 4399,
      "isierung": 4400,
      "bewer": 4401,
      "usst": 4402,
      "liches": 4403,
      "Schloss": 4404,
      "assist": 4405,
      "wenige": 4406,
      "damals": 4407,
      "direction": 4408,
      "ception": 4409,
      "Bundesliga": 4410,
      "Staats": 4411,
      "protection": 4412,
      "effect": 4413,
      "discuss": 4414,
      "outside": 4415,
      "date": 4416,
      "glichen": 4417,
      "ias": 4418,
      "laufen": 4419,
      "etter": 4420,
      "doctor": 4421,
      "Beg": 4422,
      "teilung": 4423,
      "altung": 4424,
      "Besuch": 4425,
      "Syn": 4426,
      "Mrs": 4427,
      "Vienna": 4428,
      "Bus": 4429,
      "Frei": 4430,
      "Gö": 4431,
      "keiner": 4432,
      "ov": 4433,
      "wed": 4434,
      "Österreich": 4435,
      "inne": 4436,
      "atives": 4437,
      "ential": 4438,
      "sowohl": 4439,
      "idel": 4440,
      "Erd": 4441,
      "ibility": 4442,
      "Einzel": 4443,
      "Immer": 4444,
      "sprech": 4445,
      "leads": 4446,
      "danach": 4447,
      "Salz": 4448,
      "Italien": 4449,
      "Which": 4450,
      "primarily": 4451,
      "critic": 4452,
      "eyes": 4453,
      "cities": 4454,
      "ws": 4455,
      "zus": 4456,
      "thousand": 4457,
      "rec": 4458,
      "altet": 4459,
      "einigen": 4460,
      "Indu": 4461,
      "subst": 4462,
      "izin": 4463,
      "Nacht": 4464,
      "attention": 4465,
      "älte": 4466,
      "visit": 4467,
      "ckey": 4468,
      "Look": 4469,
      "wendung": 4470,
      "buch": 4471,
      "chst": 4472,
      "rop": 4473,
      "oman": 4474,
      "serious": 4475,
      "accept": 4476,
      "type": 4477,
      "Max": 4478,
      "bestimmt": 4479,
      "stitution": 4480,
      "Everyone": 4481,
      "Staat": 4482,
      "zeugen": 4483,
      "Fenster": 4484,
      "Ludwig": 4485,
      "Sam": 4486,
      "pair": 4487,
      "runs": 4488,
      "integr": 4489,
      "recommen": 4490,
      "urer": 4491,
      "achten": 4492,
      "ada": 4493,
      "prü": 4494,
      "folger": 4495,
      "pressure": 4496,
      "carried": 4497,
      "Kle": 4498,
      "Län": 4499,
      "Ve": 4500,
      "dom": 4501,
      "fru": 4502,
      "instr": 4503,
      "determin": 4504,
      "flug": 4505,
      "Programm": 4506,
      "southern": 4507,
      "Hy": 4508,
      "Jan": 4509,
      "fut": 4510,
      "kle": 4511,
      "länd": 4512,
      "wine": 4513,
      "elf": 4514,
      "umb": 4515,
      "load": 4516,
      "focus": 4517,
      "applic": 4518,
      "Wirk": 4519,
      "vari": 4520,
      "tribut": 4521,
      "above": 4522,
      "Another": 4523,
      "cel": 4524,
      "kes": 4525,
      "yellow": 4526,
      "verein": 4527,
      "schreiben": 4528,
      "hervor": 4529,
      "ritten": 4530,
      "geschrieben": 4531,
      "France": 4532,
      "Minister": 4533,
      "Jahres": 4534,
      "Lehrer": 4535,
      "auptsächlich": 4536,
      "Otto": 4537,
      "Bir": 4538,
      "tu": 4539,
      "inhab": 4540,
      "lei": 4541,
      "lete": 4542,
      "neg": 4543,
      "ausend": 4544,
      "hot": 4545,
      "tru": 4546,
      "Ander": 4547,
      "gesamt": 4548,
      "trains": 4549,
      "acqu": 4550,
      "Arten": 4551,
      "prevent": 4552,
      "Grand": 4553,
      "Woche": 4554,
      "consists": 4555,
      "nahe": 4556,
      "zweiten": 4557,
      "Austria": 4558,
      "Schauspieler": 4559,
      "mnasium": 4560,
      "Mill": 4561,
      "Nik": 4562,
      "eat": 4563,
      "krit": 4564,
      "erwar": 4565,
      "entstanden": 4566,
      "aft": 4567,
      "Bezir": 4568,
      "ienen": 4569,
      "Never": 4570,
      "monastery": 4571,
      "symbol": 4572,
      "Besides": 4573,
      "farm": 4574,
      "München": 4575,
      "divided": 4576,
      "Eing": 4577,
      "Kla": 4578,
      "bott": 4579,
      "lle": 4580,
      "mis": 4581,
      "wide": 4582,
      "ication": 4583,
      "plants": 4584,
      "daran": 4585,
      "relation": 4586,
      "gehend": 4587,
      "leader": 4588,
      "Fer": 4589,
      "Song": 4590,
      "Would": 4591,
      "civil": 4592,
      "girl": 4593,
      "ux": 4594,
      "ware": 4595,
      "erreich": 4596,
      "warded": 4597,
      "pped": 4598,
      "Bevölker": 4599,
      "anyway": 4600,
      "deutsch": 4601,
      "Have": 4602,
      "Post": 4603,
      "Motor": 4604,
      "Han": 4605,
      "Oper": 4606,
      "gress": 4607,
      "ios": 4608,
      "nice": 4609,
      "thus": 4610,
      "stet": 4611,
      "une": 4612,
      "schlä": 4613,
      "condu": 4614,
      "demand": 4615,
      "atholic": 4616,
      "Allerdings": 4617,
      "Kno": 4618,
      "Künstler": 4619,
      "Meine": 4620,
      "ires": 4621,
      "chron": 4622,
      "report": 4623,
      "defen": 4624,
      "bew": 4625,
      "bestehen": 4626,
      "force": 4627,
      "Statt": 4628,
      "Stunden": 4629,
      "Einen": 4630,
      "jedes": 4631,
      "Prinz": 4632,
      "setzte": 4633,
      "Addition": 4634,
      "ipped": 4635,
      "Emp": 4636,
      "Sometimes": 4637,
      "jün": 4638,
      "ox": 4639,
      "pite": 4640,
      "tut": 4641,
      "leist": 4642,
      "ros": 4643,
      "roof": 4644,
      "denen": 4645,
      "apart": 4646,
      "idea": 4647,
      "consist": 4648,
      "niemand": 4649,
      "Gener": 4650,
      "Familien": 4651,
      "attended": 4652,
      "higher": 4653,
      "ograph": 4654,
      "rent": 4655,
      "tree": 4656,
      "atures": 4657,
      "hear": 4658,
      "lake": 4659,
      "Stutt": 4660,
      "gesagt": 4661,
      "Recht": 4662,
      "prison": 4663,
      "months": 4664,
      "gewesen": 4665,
      "brown": 4666,
      "zähl": 4667,
      "fährt": 4668,
      "birth": 4669,
      "neighbor": 4670,
      "federal": 4671,
      "ny": 4672,
      "zess": 4673,
      "anks": 4674,
      "reten": 4675,
      "heat": 4676,
      "School": 4677,
      "notice": 4678,
      "Rest": 4679,
      "beide": 4680,
      "brit": 4681,
      "finished": 4682,
      "lesen": 4683,
      "Maria": 4684,
      "deutlich": 4685,
      "zweite": 4686,
      "Studium": 4687,
      "Leipzig": 4688,
      "Baum": 4689,
      "Baden": 4690,
      "City": 4691,
      "Gut": 4692,
      "Kol": 4693,
      "Qual": 4694,
      "Samm": 4695,
      "cases": 4696,
      "site": 4697,
      "til": 4698,
      "arf": 4699,
      "aries": 4700,
      "heart": 4701,
      "beer": 4702,
      "bekommen": 4703,
      "tot": 4704,
      "Stelle": 4705,
      "gericht": 4706,
      "perfe": 4707,
      "Wegen": 4708,
      "across": 4709,
      "liament": 4710,
      "distrib": 4711,
      "Graf": 4712,
      "gelegen": 4713,
      "houses": 4714,
      "department": 4715,
      "King": 4716,
      "Kilometer": 4717,
      "tschafts": 4718,
      "zz": 4719,
      "ched": 4720,
      "anken": 4721,
      "seits": 4722,
      "tended": 4723,
      "Stil": 4724,
      "hood": 4725,
      "check": 4726,
      "ganzen": 4727,
      "geschichte": 4728,
      "looking": 4729,
      "council": 4730,
      "bietet": 4731,
      "Eigen": 4732,
      "Gar": 4733,
      "Pfer": 4734,
      "fass": 4735,
      "kür": 4736,
      "mes": 4737,
      "mas": 4738,
      "stage": 4739,
      "theless": 4740,
      "league": 4741,
      "Their": 4742,
      "Projekt": 4743,
      "Spieler": 4744,
      "decided": 4745,
      "economic": 4746,
      "multiple": 4747,
      "citiz": 4748,
      "performance": 4749,
      "Blüten": 4750,
      "mig": 4751,
      "asion": 4752,
      "istischen": 4753,
      "oul": 4754,
      "youth": 4755,
      "Anton": 4756,
      "teilweise": 4757,
      "lernen": 4758,
      "Kä": 4759,
      "ination": 4760,
      "hrt": 4761,
      "adays": 4762,
      "Innen": 4763,
      "simple": 4764,
      "completed": 4765,
      "sentences": 4766,
      "switch": 4767,
      "directly": 4768,
      "Thomas": 4769,
      "Fel": 4770,
      "Saint": 4771,
      "kilome": 4772,
      "sum": 4773,
      "ond": 4774,
      "arently": 4775,
      "gezogen": 4776,
      "entran": 4777,
      "anti": 4778,
      "Gebur": 4779,
      "bruch": 4780,
      "führung": 4781,
      "intro": 4782,
      "läss": 4783,
      "arbeiter": 4784,
      "Amts": 4785,
      "nieder": 4786,
      "correspon": 4787,
      "System": 4788,
      "sprache": 4789,
      "Strecke": 4790,
      "Entwicklung": 4791,
      "ju": 4792,
      "ining": 4793,
      "anc": 4794,
      "schwe": 4795,
      "cost": 4796,
      "ufe": 4797,
      "endlich": 4798,
      "vorher": 4799,
      "preserved": 4800,
      "graf": 4801,
      "bekannte": 4802,
      "taking": 4803,
      "kirche": 4804,
      "Irgend": 4805,
      "influ": 4806,
      "happened": 4807,
      "itäten": 4808,
      "Kraft": 4809,
      "Tiere": 4810,
      "oil": 4811,
      "sn": 4812,
      "edge": 4813,
      "getr": 4814,
      "weisen": 4815,
      "gesetz": 4816,
      "Alles": 4817,
      "Album": 4818,
      "änden": 4819,
      "Essen": 4820,
      "contact": 4821,
      "ölf": 4822,
      "müsste": 4823,
      "beschäft": 4824,
      "stitute": 4825,
      "circ": 4826,
      "Hor": 4827,
      "awarded": 4828,
      "ciety": 4829,
      "diver": 4830,
      "eye": 4831,
      "kla": 4832,
      "pil": 4833,
      "sweise": 4834,
      "Stat": 4835,
      "Sche": 4836,
      "exe": 4837,
      "gesellschaft": 4838,
      "aving": 4839,
      "Herz": 4840,
      "opened": 4841,
      "occup": 4842,
      "settlement": 4843,
      "released": 4844,
      "energy": 4845,
      "Dach": 4846,
      "High": 4847,
      "Tru": 4848,
      "rän": 4849,
      "vierte": 4850,
      "onze": 4851,
      "teid": 4852,
      "weather": 4853,
      "spar": 4854,
      "mechan": 4855,
      "Stell": 4856,
      "host": 4857,
      "Angel": 4858,
      "Republic": 4859,
      "places": 4860,
      "elektr": 4861,
      "reek": 4862,
      "fahrt": 4863,
      "ledge": 4864,
      "valu": 4865,
      "sequently": 4866,
      "Joseph": 4867,
      "Literatur": 4868,
      "kilometers": 4869,
      "Bach": 4870,
      "Wol": 4871,
      "bag": 4872,
      "hauptsächlich": 4873,
      "stück": 4874,
      "schlag": 4875,
      "schlagen": 4876,
      "sozial": 4877,
      "steigen": 4878,
      "ills": 4879,
      "bridge": 4880,
      "blind": 4881,
      "insbesondere": 4882,
      "Ausbildung": 4883,
      "tail": 4884,
      "newspa": 4885,
      "mäß": 4886,
      "blood": 4887,
      "prägt": 4888,
      "connected": 4889,
      "significant": 4890,
      "Archite": 4891,
      "university": 4892,
      "rules": 4893,
      "planned": 4894,
      "riage": 4895,
      "Schüler": 4896,
      "fres": 4897,
      "ffe": 4898,
      "hom": 4899,
      "kan": 4900,
      "entscheiden": 4901,
      "laim": 4902,
      "ibli": 4903,
      "code": 4904,
      "ünd": 4905,
      "ossen": 4906,
      "jedem": 4907,
      "Maß": 4908,
      "folgte": 4909,
      "motor": 4910,
      "bedeutet": 4911,
      "Drei": 4912,
      "Ide": 4913,
      "Kal": 4914,
      "Sof": 4915,
      "cat": 4916,
      "gold": 4917,
      "ikt": 4918,
      "ris": 4919,
      "decl": 4920,
      "gency": 4921,
      "iffen": 4922,
      "sert": 4923,
      "points": 4924,
      "Real": 4925,
      "finan": 4926,
      "idet": 4927,
      "standard": 4928,
      "kleiner": 4929,
      "mehreren": 4930,
      "guy": 4931,
      "ösung": 4932,
      "belonged": 4933,
      "beginnt": 4934,
      "contract": 4935,
      "ehmen": 4936,
      "Heimat": 4937,
      "jeweils": 4938,
      "scientific": 4939,
      "Druck": 4940,
      "Gas": 4941,
      "Hund": 4942,
      "gift": 4943,
      "listen": 4944,
      "”,": 4945,
      "imp": 4946,
      "iffer": 4947,
      "Schön": 4948,
      "exc": 4949,
      "iken": 4950,
      "streng": 4951,
      "scr": 4952,
      "Blut": 4953,
      "Norden": 4954,
      "Freib": 4955,
      "folgten": 4956,
      "aktiv": 4957,
      "administration": 4958,
      "dürfen": 4959,
      "Middle": 4960,
      "Sätze": 4961,
      "echt": 4962,
      "fäl": 4963,
      "engl": 4964,
      "aner": 4965,
      "refle": 4966,
      "older": 4967,
      "entfern": 4968,
      "true": 4969,
      "mention": 4970,
      "driver": 4971,
      "science": 4972,
      "experience": 4973,
      "zeuge": 4974,
      "fläche": 4975,
      "rupt": 4976,
      "Dom": 4977,
      "Jeder": 4978,
      "base": 4979,
      "central": 4980,
      "gung": 4981,
      "mie": 4982,
      "völl": 4983,
      "wider": 4984,
      "ziert": 4985,
      "übr": 4986,
      "inken": 4987,
      "ima": 4988,
      "hrer": 4989,
      "State": 4990,
      "results": 4991,
      "travel": 4992,
      "partner": 4993,
      "osition": 4994,
      "saw": 4995,
      "study": 4996,
      "changes": 4997,
      "Fußball": 4998,
      "Weitere": 4999,
      "Ehren": 5000,
      "Vier": 5001,
      "cultural": 5002,
      "som": 5003,
      "sinn": 5004,
      "instead": 5005,
      "elve": 5006,
      "istische": 5007,
      "schließen": 5008,
      "advert": 5009,
      "maß": 5010,
      "Brü": 5011,
      "Meer": 5012,
      "countries": 5013,
      "Kriegs": 5014,
      "described": 5015,
      "involved": 5016,
      "Stuttg": 5017,
      "dy": 5018,
      "ifor": 5019,
      "oth": 5020,
      "itär": 5021,
      "vergessen": 5022,
      "neuer": 5023,
      "soph": 5024,
      "mem": 5025,
      "Schiff": 5026,
      "movie": 5027,
      "coat": 5028,
      "offiz": 5029,
      "früh": 5030,
      "Teile": 5031,
      "Blick": 5032,
      "Besonder": 5033,
      "western": 5034,
      "Arbeits": 5035,
      "Grab": 5036,
      "ützen": 5037,
      "Deshalb": 5038,
      "tempt": 5039,
      "Vogel": 5040,
      "included": 5041,
      "Op": 5042,
      "oben": 5043,
      "ply": 5044,
      "hest": 5045,
      "deten": 5046,
      "deck": 5047,
      "allel": 5048,
      "Ener": 5049,
      "Flor": 5050,
      "shoot": 5051,
      "einzige": 5052,
      "languages": 5053,
      "ikanischen": 5054,
      "Autor": 5055,
      "Haben": 5056,
      "Nähe": 5057,
      "Cour": 5058,
      "Köl": 5059,
      "Lass": 5060,
      "hit": 5061,
      "aschen": 5062,
      "demo": 5063,
      "geord": 5064,
      "sex": 5065,
      "irt": 5066,
      "excl": 5067,
      "shop": 5068,
      "ipl": 5069,
      "computer": 5070,
      "musical": 5071,
      "Frü": 5072,
      "stream": 5073,
      "technology": 5074,
      "writer": 5075,
      "Gruppen": 5076,
      "problems": 5077,
      "College": 5078,
      "future": 5079,
      "Kant": 5080,
      "Mad": 5081,
      "Over": 5082,
      "Ther": 5083,
      "fred": 5084,
      "gute": 5085,
      "laut": 5086,
      "yr": 5087,
      "schieden": 5088,
      "genug": 5089,
      "Schle": 5090,
      "Best": 5091,
      "habt": 5092,
      "weiterhin": 5093,
      "Regierung": 5094,
      "starts": 5095,
      "passed": 5096,
      "Fragen": 5097,
      "happy": 5098,
      "Stuttgart": 5099,
      "Dres": 5100,
      "Hör": 5101,
      "mst": 5102,
      "pick": 5103,
      "uel": 5104,
      "ato": 5105,
      "schla": 5106,
      "race": 5107,
      "ably": 5108,
      "akes": 5109,
      "broad": 5110,
      "northern": 5111,
      "situation": 5112,
      "hängt": 5113,
      "shaped": 5114,
      "sources": 5115,
      "Problem": 5116,
      "Polizei": 5117,
      "Kas": 5118,
      "Rud": 5119,
      "River": 5120,
      "Sat": 5121,
      "bish": 5122,
      "fif": 5123,
      "pian": 5124,
      "winter": 5125,
      "woman": 5126,
      "asen": 5127,
      "derung": 5128,
      "lichkeit": 5129,
      "Start": 5130,
      "compo": 5131,
      "commer": 5132,
      "herself": 5133,
      "gelassen": 5134,
      "gebie": 5135,
      "standing": 5136,
      "answer": 5137,
      "Euro": 5138,
      "teams": 5139,
      "verbunden": 5140,
      "literature": 5141,
      "Kindern": 5142,
      "expect": 5143,
      "gesamte": 5144,
      "völlig": 5145,
      "Fisch": 5146,
      "Gibt": 5147,
      "Jack": 5148,
      "fehl": 5149,
      "ändert": 5150,
      "bringt": 5151,
      "afterwards": 5152,
      "Robert": 5153,
      "zieh": 5154,
      "Without": 5155,
      "Common": 5156,
      "transfer": 5157,
      "Mannschaft": 5158,
      "Mitglieder": 5159,
      "historical": 5160,
      "easily": 5161,
      "Fernseh": 5162,
      "designed": 5163,
      "Personen": 5164,
      "Provinz": 5165,
      "introdu": 5166,
      "ibliothe": 5167,
      "iforn": 5168,
      "Bab": 5169,
      "Dor": 5170,
      "Our": 5171,
      "bom": 5172,
      "passt": 5173,
      "raus": 5174,
      "army": 5175,
      "geist": 5176,
      "lieber": 5177,
      "exam": 5178,
      "detail": 5179,
      "klass": 5180,
      "musst": 5181,
      "cream": 5182,
      "trees": 5183,
      "publik": 5184,
      "value": 5185,
      "paper": 5186,
      "distance": 5187,
      "Radio": 5188,
      "contains": 5189,
      "appointed": 5190,
      "Abend": 5191,
      "Lok": 5192,
      "Tages": 5193,
      "nt": 5194,
      "phen": 5195,
      "tur": 5196,
      "üss": 5197,
      "erfolgt": 5198,
      "chnet": 5199,
      "derzeit": 5200,
      "ctors": 5201,
      "spell": 5202,
      "warm": 5203,
      "iens": 5204,
      "gruppe": 5205,
      "Gesellschaft": 5206,
      "Kommun": 5207,
      "öffnet": 5208,
      "Funktion": 5209,
      "Auss": 5210,
      "Bank": 5211,
      "Kran": 5212,
      "Nutz": 5213,
      "ai": 5214,
      "lungs": 5215,
      "mouth": 5216,
      "vic": 5217,
      "enburg": 5218,
      "touch": 5219,
      "istisch": 5220,
      "ickt": 5221,
      "ierig": 5222,
      "annten": 5223,
      "poor": 5224,
      "sely": 5225,
      "United": 5226,
      "vorhand": 5227,
      "trade": 5228,
      "kannt": 5229,
      "print": 5230,
      "teilen": 5231,
      "zeichnen": 5232,
      "Glas": 5233,
      "Präs": 5234,
      "flows": 5235,
      "Bav": 5236,
      "Catholic": 5237,
      "God": 5238,
      "Kauf": 5239,
      "Pan": 5240,
      "Tele": 5241,
      "loud": 5242,
      "masch": 5243,
      "ogen": 5244,
      "sco": 5245,
      "wün": 5246,
      "onen": 5247,
      "reign": 5248,
      "orie": 5249,
      "bestand": 5250,
      "imens": 5251,
      "zudem": 5252,
      "ausschließlich": 5253,
      "Ersten": 5254,
      "performed": 5255,
      "Sied": 5256,
      "brand": 5257,
      "blätter": 5258,
      "earth": 5259,
      "anderes": 5260,
      "twice": 5261,
      "höher": 5262,
      "Frankreich": 5263,
      "Voice": 5264,
      "Dafür": 5265,
      "Wag": 5266,
      "Wetter": 5267,
      "kathol": 5268,
      "tar": 5269,
      "zweit": 5270,
      "errichtet": 5271,
      "inv": 5272,
      "stic": 5273,
      "escap": 5274,
      "asche": 5275,
      "asten": 5276,
      "clock": 5277,
      "Süden": 5278,
      "besitzt": 5279,
      "stammte": 5280,
      "Armee": 5281,
      "Bauch": 5282,
      "Hung": 5283,
      "ibe": 5284,
      "rum": 5285,
      "onment": 5286,
      "vertreten": 5287,
      "umst": 5288,
      "spread": 5289,
      "Stück": 5290,
      "compl": 5291,
      "Ergeb": 5292,
      "promot": 5293,
      "Geor": 5294,
      "League": 5295,
      "Gericht": 5296,
      "Origin": 5297,
      "grave": 5298,
      "marriage": 5299,
      "Manche": 5300,
      "America": 5301,
      "province": 5302,
      "Italian": 5303,
      "employe": 5304,
      "schuld": 5305,
      "Indian": 5306,
      "Hilfe": 5307,
      "grenzt": 5308,
      "entrance": 5309,
      "Jur": 5310,
      "Mos": 5311,
      "Nob": 5312,
      "Tier": 5313,
      "libr": 5314,
      "rt": 5315,
      "intens": 5316,
      "anger": 5317,
      "isieren": 5318,
      "veröffent": 5319,
      "berger": 5320,
      "ikel": 5321,
      "Veranst": 5322,
      "Westen": 5323,
      "ption": 5324,
      "actor": 5325,
      "sons": 5326,
      "getting": 5327,
      "twelve": 5328,
      "nehmer": 5329,
      "piece": 5330,
      "Glau": 5331,
      "lor": 5332,
      "ses": 5333,
      "ston": 5334,
      "stopp": 5335,
      "gem": 5336,
      "Star": 5337,
      "peratur": 5338,
      "links": 5339,
      "wegung": 5340,
      "simply": 5341,
      "morning": 5342,
      "majority": 5343,
      "regelmäßig": 5344,
      "failed": 5345,
      "Cup": 5346,
      "Macht": 5347,
      "Nein": 5348,
      "fine": 5349,
      "fließ": 5350,
      "kinder": 5351,
      "üter": 5352,
      "ites": 5353,
      "geber": 5354,
      "beck": 5355,
      "verhin": 5356,
      "Schla": 5357,
      "ikum": 5358,
      "finanz": 5359,
      "speaking": 5360,
      "schlecht": 5361,
      "wärts": 5362,
      "sofort": 5363,
      "gebildet": 5364,
      "TV": 5365,
      "Zus": 5366,
      "äte": 5367,
      "verbre": 5368,
      "Stimme": 5369,
      "wirkt": 5370,
      "coach": 5371,
      "perman": 5372,
      "ufer": 5373,
      "cles": 5374,
      "prep": 5375,
      "events": 5376,
      "returned": 5377,
      "Russian": 5378,
      "itäts": 5379,
      "Friedhof": 5380,
      "Gymnasium": 5381,
      "Cast": 5382,
      "Pla": 5383,
      "aver": 5384,
      "fon": 5385,
      "lier": 5386,
      "tick": 5387,
      "äre": 5388,
      "attet": 5389,
      "iglich": 5390,
      "novel": 5391,
      "ares": 5392,
      "benöt": 5393,
      "Früh": 5394,
      "Church": 5395,
      "schools": 5396,
      "situ": 5397,
      "prakt": 5398,
      "asked": 5399,
      "kauft": 5400,
      "concern": 5401,
      "advant": 5402,
      "whether": 5403,
      "ehemaligen": 5404,
      "reasons": 5405,
      "Geschäfts": 5406,
      "Privat": 5407,
      "Ca": 5408,
      "Kampf": 5409,
      "Satz": 5410,
      "aß": 5411,
      "nungen": 5412,
      "ante": 5413,
      "isn": 5414,
      "ingu": 5415,
      "section": 5416,
      "verstehen": 5417,
      "schätz": 5418,
      "wash": 5419,
      "wart": 5420,
      "Schutz": 5421,
      "unterstütz": 5422,
      "iertel": 5423,
      "agegen": 5424,
      "Mitte": 5425,
      "weile": 5426,
      "surface": 5427,
      "Bett": 5428,
      "technical": 5429,
      "Studien": 5430,
      "destroyed": 5431,
      "iplom": 5432,
      "Hu": 5433,
      "Liste": 5434,
      "Mund": 5435,
      "Ros": 5436,
      "Tim": 5437,
      "Zust": 5438,
      "bell": 5439,
      "fit": 5440,
      "hu": 5441,
      "udes": 5442,
      "heil": 5443,
      "neten": 5444,
      "Init": 5445,
      "werke": 5446,
      "Spre": 5447,
      "gebung": 5448,
      "surpr": 5449,
      "Darauf": 5450,
      "morgen": 5451,
      "Sonne": 5452,
      "Great": 5453,
      "supported": 5454,
      "Apr": 5455,
      "Van": 5456,
      "öhn": 5457,
      "ille": 5458,
      "sea": 5459,
      "zeiten": 5460,
      "flu": 5461,
      "Sek": 5462,
      "ären": 5463,
      "eleg": 5464,
      "inside": 5465,
      "network": 5466,
      "bedingt": 5467,
      "Klasse": 5468,
      "Among": 5469,
      "schnitt": 5470,
      "nächste": 5471,
      "Pflanzen": 5472,
      "Verwaltungs": 5473,
      "vehicle": 5474,
      "Zwischen": 5475,
      "gewählt": 5476,
      "Additionally": 5477,
      "Could": 5478,
      "Ear": 5479,
      "Kenn": 5480,
      "Pet": 5481,
      "Rein": 5482,
      "Rund": 5483,
      "Sau": 5484,
      "isher": 5485,
      "unbe": 5486,
      "roman": 5487,
      "oldest": 5488,
      "iced": 5489,
      "ades": 5490,
      "management": 5491,
      "ifik": 5492,
      "const": 5493,
      "compar": 5494,
      "hinzu": 5495,
      "content": 5496,
      "products": 5497,
      "schriften": 5498,
      "collection": 5499,
      "movement": 5500,
      "vironment": 5501,
      "according": 5502,
      "systems": 5503,
      "Et": 5504,
      "Glo": 5505,
      "Kö": 5506,
      "craft": 5507,
      "fro": 5508,
      "says": 5509,
      "theast": 5510,
      "ables": 5511,
      "interess": 5512,
      "Gesicht": 5513,
      "bereit": 5514,
      "plement": 5515,
      "difference": 5516,
      "richtung": 5517,
      "innerhalb": 5518,
      "abhängig": 5519,
      "Histor": 5520,
      "Letz": 5521,
      "Mach": 5522,
      "Rat": 5523,
      "Rem": 5524,
      "Rücken": 5525,
      "Tö": 5526,
      "journal": 5527,
      "vice": 5528,
      "wahl": 5529,
      "weight": 5530,
      "iful": 5531,
      "prom": 5532,
      "antwort": 5533,
      "Vertre": 5534,
      "quant": 5535,
      "taste": 5536,
      "helfen": 5537,
      "zwölf": 5538,
      "vention": 5539,
      "Italy": 5540,
      "songs": 5541,
      "pieces": 5542,
      "double": 5543,
      "Eisenbahn": 5544,
      "Grenze": 5545,
      "Freiburg": 5546,
      "Ball": 5547,
      "Hart": 5548,
      "Mont": 5549,
      "Tu": 5550,
      "guten": 5551,
      "ns": 5552,
      "ored": 5553,
      "video": 5554,
      "rechts": 5555,
      "unced": 5556,
      "deal": 5557,
      "befand": 5558,
      "ability": 5559,
      "ätten": 5560,
      "Sozial": 5561,
      "hingegen": 5562,
      "führer": 5563,
      "Through": 5564,
      "ologne": 5565,
      "Rock": 5566,
      "decision": 5567,
      "voc": 5568,
      "enthält": 5569,
      "friends": 5570,
      "Seitdem": 5571,
      "gespielt": 5572,
      "ursprünglich": 5573,
      "Zentrum": 5574,
      "Central": 5575,
      "tig": 5576,
      "remember": 5577,
      "territ": 5578,
      "netz": 5579,
      "ischof": 5580,
      "deshalb": 5581,
      "proced": 5582,
      "ipe": 5583,
      "überwiegend": 5584,
      "apt": 5585,
      "acy": 5586,
      "ears": 5587,
      "shot": 5588,
      "hardly": 5589,
      "Switzer": 5590,
      "animal": 5591,
      "quarter": 5592,
      "Portug": 5593,
      "television": 5594,
      "Punkt": 5595,
      "sprechend": 5596,
      "Switzerland": 5597,
      "Cologne": 5598,
      "Feld": 5599,
      "Has": 5600,
      "Sit": 5601,
      "Vom": 5602,
      "pal": 5603,
      "tor": 5604,
      "tast": 5605,
      "zone": 5606,
      "ories": 5607,
      "editor": 5608,
      "opin": 5609,
      "ulpt": 5610,
      "ida": 5611,
      "artist": 5612,
      "Gew": 5613,
      "Aufgabe": 5614,
      "takt": 5615,
      "solution": 5616,
      "sucht": 5617,
      "zweif": 5618,
      "höch": 5619,
      "increas": 5620,
      "Bücher": 5621,
      "susp": 5622,
      "Namens": 5623,
      "Nevertheless": 5624,
      "Bevölkerung": 5625,
      "Bi": 5626,
      "För": 5627,
      "Pf": 5628,
      "Runde": 5629,
      "Sö": 5630,
      "fix": 5631,
      "hope": 5632,
      "außerdem": 5633,
      "veget": 5634,
      "managed": 5635,
      "hafen": 5636,
      "übernahm": 5637,
      "gelten": 5638,
      "regul": 5639,
      "curity": 5640,
      "testant": 5641,
      "Exper": 5642,
      "größer": 5643,
      "specific": 5644,
      "daraufhin": 5645,
      "offers": 5646,
      "achieved": 5647,
      "principle": 5648,
      ".”": 5649,
      "Hot": 5650,
      "Liga": 5651,
      "Play": 5652,
      "Sub": 5653,
      "Tex": 5654,
      "las": 5655,
      "heard": 5656,
      "geprägt": 5657,
      "sper": 5658,
      "Stift": 5659,
      "mov": 5660,
      "step": 5661,
      "Bezeichnung": 5662,
      "resist": 5663,
      "fehlt": 5664,
      "sele": 5665,
      "Weil": 5666,
      "complete": 5667,
      "prefer": 5668,
      "news": 5669,
      "brechen": 5670,
      "Associ": 5671,
      "Deutsche": 5672,
      "diente": 5673,
      "making": 5674,
      "questions": 5675,
      "Austral": 5676,
      "entwickelt": 5677,
      "viol": 5678,
      "Professor": 5679,
      "Court": 5680,
      "Cur": 5681,
      "Garten": 5682,
      "Hall": 5683,
      "Wa": 5684,
      "nation": 5685,
      "nord": 5686,
      "sive": 5687,
      "zwar": 5688,
      "erweise": 5689,
      "leitet": 5690,
      "defe": 5691,
      "betr": 5692,
      "iron": 5693,
      "entstand": 5694,
      "cemetery": 5695,
      "keits": 5696,
      "indic": 5697,
      "compla": 5698,
      "Erde": 5699,
      "artic": 5700,
      "teils": 5701,
      "buy": 5702,
      "atsächlich": 5703,
      "offered": 5704,
      "verloren": 5705,
      "source": 5706,
      "relatively": 5707,
      "temperature": 5708,
      "document": 5709,
      "offiziel": 5710,
      "Energie": 5711,
      "veröffentlicht": 5712,
      "Bonn": 5713,
      "Det": 5714,
      "Hum": 5715,
      "Por": 5716,
      "Sind": 5717,
      "Wert": 5718,
      "kraft": 5719,
      "rights": 5720,
      "röm": 5721,
      "task": 5722,
      "bekommt": 5723,
      "uses": 5724,
      "Information": 5725,
      "zeigen": 5726,
      "Anne": 5727,
      "sterday": 5728,
      "autiful": 5729,
      "Landwirtschaft": 5730,
      "knowledge": 5731,
      "Betrieb": 5732,
      "fields": 5733,
      "meistens": 5734,
      "weeks": 5735,
      "writing": 5736,
      "Firma": 5737,
      "enthalten": 5738,
      "suggest": 5739,
      "temberg": 5740,
      "Beginn": 5741,
      "Kamer": 5742,
      "Lied": 5743,
      "Send": 5744,
      "fs": 5745,
      "fie": 5746,
      "fassen": 5747,
      "ering": 5748,
      "deep": 5749,
      "Thema": 5750,
      "entsprechen": 5751,
      "ierungen": 5752,
      "costs": 5753,
      "driving": 5754,
      "match": 5755,
      "quality": 5756,
      "highest": 5757,
      "Johannes": 5758,
      "Dreh": 5759,
      "lösen": 5760,
      "Ernst": 5761,
      "Reihe": 5762,
      "Mex": 5763,
      "Netz": 5764,
      "cele": 5765,
      "galt": 5766,
      "jah": 5767,
      "ore": 5768,
      "sä": 5769,
      "zü": 5770,
      "üm": 5771,
      "erkennen": 5772,
      "erreicht": 5773,
      "environment": 5774,
      "gehalten": 5775,
      "verste": 5776,
      "combin": 5777,
      "lieben": 5778,
      "strict": 5779,
      "president": 5780,
      "Manchmal": 5781,
      "gleichzeitig": 5782,
      "Nothing": 5783,
      "Despite": 5784,
      "Luther": 5785,
      "Gegensatz": 5786,
      "clearly": 5787,
      "leading": 5788,
      "profession": 5789,
      "Militär": 5790,
      "initi": 5791,
      "offee": 5792,
      "David": 5793,
      "Ev": 5794,
      "Kam": 5795,
      "Kra": 5796,
      "Moder": 5797,
      "Tun": 5798,
      "gau": 5799,
      "lights": 5800,
      "ita": 5801,
      "unknown": 5802,
      "umin": 5803,
      "prop": 5804,
      "Nachfolger": 5805,
      "carry": 5806,
      "oppel": 5807,
      "running": 5808,
      "meaning": 5809,
      "tained": 5810,
      "horse": 5811,
      "silver": 5812,
      "Probleme": 5813,
      "Temperatur": 5814,
      "komplett": 5815,
      "Verbindung": 5816,
      "influence": 5817,
      "Dresden": 5818,
      "Come": 5819,
      "Dinge": 5820,
      "Hanno": 5821,
      "Last": 5822,
      "Pil": 5823,
      "dein": 5824,
      "eper": 5825,
      "ißen": 5826,
      "valley": 5827,
      "ona": 5828,
      "ref": 5829,
      "removed": 5830,
      "isation": 5831,
      "ausch": 5832,
      "beein": 5833,
      "spro": 5834,
      "industr": 5835,
      "commit": 5836,
      "Altern": 5837,
      "finde": 5838,
      "avoid": 5839,
      "mehrfach": 5840,
      "philo": 5841,
      "parish": 5842,
      "colors": 5843,
      "People": 5844,
      "limited": 5845,
      "Charakter": 5846,
      "practice": 5847,
      "Typ": 5848,
      "extremely": 5849,
      "vorhanden": 5850,
      "Dra": 5851,
      "Hir": 5852,
      "Osten": 5853,
      "Val": 5854,
      "Wen": 5855,
      "bak": 5856,
      "hell": 5857,
      "lu": 5858,
      "mine": 5859,
      "enk": 5860,
      "chap": 5861,
      "onom": 5862,
      "leitung": 5863,
      "betra": 5864,
      "lap": 5865,
      "manchmal": 5866,
      "auchen": 5867,
      "iko": 5868,
      "ätigkeit": 5869,
      "grown": 5870,
      "idents": 5871,
      "igned": 5872,
      "Champion": 5873,
      "langsam": 5874,
      "broken": 5875,
      "strecke": 5876,
      "Good": 5877,
      "agriculture": 5878,
      "April": 5879,
      "Bud": 5880,
      "Ven": 5881,
      "Voll": 5882,
      "division": 5883,
      "fat": 5884,
      "stammen": 5885,
      "deg": 5886,
      "ental": 5887,
      "tried": 5888,
      "gelöst": 5889,
      "ishing": 5890,
      "gemeinde": 5891,
      "zählen": 5892,
      "sentence": 5893,
      "joined": 5894,
      "danger": 5895,
      "professor": 5896,
      "advertis": 5897,
      "Arab": 5898,
      "Düssel": 5899,
      "hip": 5900,
      "sser": 5901,
      "enor": 5902,
      "verm": 5903,
      "tend": 5904,
      "consequ": 5905,
      "iences": 5906,
      "feed": 5907,
      "angs": 5908,
      "treat": 5909,
      "frage": 5910,
      "Swed": 5911,
      "generally": 5912,
      "films": 5913,
      "require": 5914,
      "thirty": 5915,
      "female": 5916,
      "Indust": 5917,
      "Mäd": 5918,
      "Tüb": 5919,
      "lad": 5920,
      "sister": 5921,
      "sides": 5922,
      "äfte": 5923,
      "ini": 5924,
      "thedr": 5925,
      "weak": 5926,
      "ktions": 5927,
      "Klaus": 5928,
      "store": 5929,
      "straight": 5930,
      "Fehler": 5931,
      "additional": 5932,
      "choir": 5933,
      "personal": 5934,
      "zunehmen": 5935,
      "quarters": 5936,
      "Party": 5937,
      "Maschinen": 5938,
      "amount": 5939,
      "Ass": 5940,
      "Haf": 5941,
      "hart": 5942,
      "iation": 5943,
      "jump": 5944,
      "krank": 5945,
      "körper": 5946,
      "ror": 5947,
      "slo": 5948,
      "zimmer": 5949,
      "stro": 5950,
      "onnen": 5951,
      "attempt": 5952,
      "hem": 5953,
      "wear": 5954,
      "ety": 5955,
      "ausgest": 5956,
      "empt": 5957,
      "stellungen": 5958,
      "Brun": 5959,
      "Chor": 5960,
      "struktur": 5961,
      "visible": 5962,
      "trotz": 5963,
      "missing": 5964,
      "gemeinsam": 5965,
      "block": 5966,
      "Niemand": 5967,
      "fasste": 5968,
      "Entscheid": 5969,
      "Swiss": 5970,
      "öffentlichen": 5971,
      "iminal": 5972,
      "competition": 5973,
      "Computer": 5974,
      "Distr": 5975,
      "Fass": 5976,
      "Hard": 5977,
      "Kaffe": 5978,
      "ba": 5979,
      "cies": 5980,
      "horn": 5981,
      "might": 5982,
      "wit": 5983,
      "leider": 5984,
      "geworden": 5985,
      "beteil": 5986,
      "weap": 5987,
      "flat": 5988,
      "below": 5989,
      "Besitz": 5990,
      "holt": 5991,
      "zahlreichen": 5992,
      "trained": 5993,
      "basic": 5994,
      "bloß": 5995,
      "präsent": 5996,
      "seitig": 5997,
      "verwenden": 5998,
      "Glück": 5999,
      "Kaiser": 6000,
      "Club": 6001,
      "Super": 6002,
      "heutigen": 6003,
      "Hannover": 6004,
      "Del": 6005,
      "Gib": 6006,
      "Greek": 6007,
      "Sach": 6008,
      "Tisch": 6009,
      "bein": 6010,
      "bread": 6011,
      "thre": 6012,
      "atom": 6013,
      "verd": 6014,
      "implement": 6015,
      "rael": 6016,
      "memor": 6017,
      "Until": 6018,
      "drauf": 6019,
      "flight": 6020,
      "create": 6021,
      "baro": 6022,
      "itting": 6023,
      "background": 6024,
      "Kompon": 6025,
      "Darf": 6026,
      "Betrie": 6027,
      "Gemeinden": 6028,
      "popul": 6029,
      "Folgen": 6030,
      "östlich": 6031,
      "measure": 6032,
      "square": 6033,
      "Bist": 6034,
      "Dro": 6035,
      "Wett": 6036,
      "Wappen": 6037,
      "dish": 6038,
      "hurt": 6039,
      "tie": 6040,
      "istik": 6041,
      "miteinander": 6042,
      "lief": 6043,
      "poet": 6044,
      "Einwohner": 6045,
      "lerweile": 6046,
      "markt": 6047,
      "dreißig": 6048,
      "fällig": 6049,
      "digital": 6050,
      "appears": 6051,
      "bieten": 6052,
      "Verwaltung": 6053,
      "Richard": 6054,
      "conditions": 6055,
      "Industrie": 6056,
      "Cre": 6057,
      "Hoff": 6058,
      "Mes": 6059,
      "Rö": 6060,
      "bike": 6061,
      "cable": 6062,
      "dagegen": 6063,
      "size": 6064,
      "uell": 6065,
      "vior": 6066,
      "erlau": 6067,
      "ente": 6068,
      "ano": 6069,
      "ichter": 6070,
      "beautiful": 6071,
      "verband": 6072,
      "impro": 6073,
      "entstehen": 6074,
      "cting": 6075,
      "spent": 6076,
      "spot": 6077,
      "meters": 6078,
      "hour": 6079,
      "Verfahren": 6080,
      "worfen": 6081,
      "vorbei": 6082,
      "Weise": 6083,
      "vielleicht": 6084,
      "waste": 6085,
      "äußer": 6086,
      "zahlen": 6087,
      "verbind": 6088,
      "definit": 6089,
      "staat": 6090,
      "newspaper": 6091,
      "Bier": 6092,
      "Los": 6093,
      "Sicht": 6094,
      "Wur": 6095,
      "bten": 6096,
      "zi": 6097,
      "throw": 6098,
      "onent": 6099,
      "arrow": 6100,
      "istry": 6101,
      "imag": 6102,
      "forgot": 6103,
      "laden": 6104,
      "Any": 6105,
      "änger": 6106,
      "Weiß": 6107,
      "plate": 6108,
      "versuch": 6109,
      "landsc": 6110,
      "End": 6111,
      "elected": 6112,
      "prec": 6113,
      "phones": 6114,
      "Thus": 6115,
      "Moz": 6116,
      "student": 6117,
      "districts": 6118,
      "gede": 6119,
      "communities": 6120,
      "profit": 6121,
      "rooms": 6122,
      "Staaten": 6123,
      "Jewish": 6124,
      "Philipp": 6125,
      "temporary": 6126,
      "fruit": 6127,
      "mentioned": 6128,
      "commercial": 6129,
      "Association": 6130,
      "Division": 6131,
      "Kern": 6132,
      "Sig": 6133,
      "Wand": 6134,
      "cceed": 6135,
      "claim": 6136,
      "iar": 6137,
      "pfen": 6138,
      "summer": 6139,
      "ugen": 6140,
      "erhe": 6141,
      "replaced": 6142,
      "theory": 6143,
      "gefähr": 6144,
      "verse": 6145,
      "image": 6146,
      "rag": 6147,
      "bers": 6148,
      "ifiz": 6149,
      "percent": 6150,
      "succeed": 6151,
      "ihres": 6152,
      "importance": 6153,
      "originally": 6154,
      "represented": 6155,
      "sounds": 6156,
      "Suche": 6157,
      "Alexander": 6158,
      "Männer": 6159,
      "Gött": 6160,
      "erreichte": 6161,
      "celebr": 6162,
      "Jer": 6163,
      "battle": 6164,
      "cult": 6165,
      "dach": 6166,
      "ots": 6167,
      "ttemberg": 6168,
      "uelle": 6169,
      "repe": 6170,
      "union": 6171,
      "bear": 6172,
      "beispiel": 6173,
      "tomor": 6174,
      "security": 6175,
      "verz": 6176,
      "verläuft": 6177,
      "wasn": 6178,
      "Stamm": 6179,
      "mitglie": 6180,
      "mosp": 6181,
      "Vertrag": 6182,
      "feature": 6183,
      "Record": 6184,
      "Einfluss": 6185,
      "upon": 6186,
      "ccer": 6187,
      "breit": 6188,
      "spring": 6189,
      "bestimm": 6190,
      "braun": 6191,
      "Spezial": 6192,
      "expand": 6193,
      "Sonnen": 6194,
      "Milch": 6195,
      "kirchen": 6196,
      "emergency": 6197,
      "Städte": 6198,
      "opinion": 6199,
      "Tübingen": 6200,
      "tomorrow": 6201,
      "-,": 6202,
      "bö": 6203,
      "kit": 6204,
      "slight": 6205,
      "erster": 6206,
      "anne": 6207,
      "element": 6208,
      "lect": 6209,
      "verlassen": 6210,
      "omer": 6211,
      "abzu": 6212,
      "hosp": 6213,
      "coast": 6214,
      "uster": 6215,
      "assum": 6216,
      "rule": 6217,
      "Außen": 6218,
      "Daher": 6219,
      "Wirtschafts": 6220,
      "basis": 6221,
      "kurze": 6222,
      "vollständig": 6223,
      "lawyer": 6224,
      "write": 6225,
      "mutlich": 6226,
      "entwickelte": 6227,
      "Müller": 6228,
      "influen": 6229,
      "significantly": 6230,
      "software": 6231,
      "rarely": 6232,
      "inhabit": 6233,
      "Software": 6234,
      "Apart": 6235,
      "Fal": 6236,
      "Gal": 6237,
      "Gust": 6238,
      "Pfe": 6239,
      "Wagen": 6240,
      "bürger": 6241,
      "zern": 6242,
      "infe": 6243,
      "stret": 6244,
      "Schließ": 6245,
      "bles": 6246,
      "Thereby": 6247,
      "Hermann": 6248,
      "crete": 6249,
      "hört": 6250,
      "parliament": 6251,
      "posite": 6252,
      "evening": 6253,
      "gemeinschaft": 6254,
      "hängen": 6255,
      "opping": 6256,
      "trieb": 6257,
      "Sprachen": 6258,
      "fertig": 6259,
      "Personal": 6260,
      "effects": 6261,
      "wahrscheinlich": 6262,
      "glaube": 6263,
      "Latin": 6264,
      "Politik": 6265,
      "Schwarz": 6266,
      "einzelnen": 6267,
      "Kranken": 6268,
      "Aca": 6269,
      "Moment": 6270,
      "Sold": 6271,
      "Show": 6272,
      "Walter": 6273,
      "coffee": 6274,
      "deinen": 6275,
      "gül": 6276,
      "killed": 6277,
      "äischen": 6278,
      "außen": 6279,
      "schloss": 6280,
      "spann": 6281,
      "hose": 6282,
      "quer": 6283,
      "blick": 6284,
      "Aufgrund": 6285,
      "understood": 6286,
      "ksam": 6287,
      "serves": 6288,
      "owned": 6289,
      "Elis": 6290,
      "possess": 6291,
      "immel": 6292,
      "westlich": 6293,
      "highly": 6294,
      "wissenschaften": 6295,
      "Bremen": 6296,
      "Austrian": 6297,
      "Linie": 6298,
      "irgendwie": 6299,
      "betrieb": 6300,
      "safe": 6301,
      "schmeckt": 6302,
      "movies": 6303,
      "Academ": 6304,
      "Open": 6305,
      "Rand": 6306,
      "camer": 6307,
      "dance": 6308,
      "ech": 6309,
      "fliegen": 6310,
      "iö": 6311,
      "män": 6312,
      "ral": 6313,
      "ras": 6314,
      "sort": 6315,
      "weder": 6316,
      "zip": 6317,
      "audien": 6318,
      "bezir": 6319,
      "ilen": 6320,
      "schuss": 6321,
      "nose": 6322,
      "fordert": 6323,
      "Bevor": 6324,
      "Albert": 6325,
      "schaffen": 6326,
      "gebäude": 6327,
      "konstru": 6328,
      "poses": 6329,
      "mannschaft": 6330,
      "freien": 6331,
      "foundation": 6332,
      "holen": 6333,
      "milk": 6334,
      "dienen": 6335,
      "brauchen": 6336,
      "Schluss": 6337,
      "numbers": 6338,
      "gründet": 6339,
      "Sprach": 6340,
      "wechselte": 6341,
      "accident": 6342,
      "absolvierte": 6343,
      "property": 6344,
      "neighb": 6345,
      "Africa": 6346,
      "investig": 6347,
      "Köln": 6348,
      "Act": 6349,
      "Ban": 6350,
      "Cr": 6351,
      "Cap": 6352,
      "Koch": 6353,
      "Sä": 6354,
      "Sinn": 6355,
      "ku": 6356,
      "kne": 6357,
      "kaufen": 6358,
      "lant": 6359,
      "pure": 6360,
      "sah": 6361,
      "vin": 6362,
      "orange": 6363,
      "iling": 6364,
      "entlichen": 6365,
      "Heidel": 6366,
      "programm": 6367,
      "Under": 6368,
      "Gest": 6369,
      "previous": 6370,
      "ritz": 6371,
      "Herren": 6372,
      "Island": 6373,
      "marked": 6374,
      "Können": 6375,
      "Serie": 6376,
      "includes": 6377,
      "Council": 6378,
      "absolut": 6379,
      "required": 6380,
      "activities": 6381,
      "regularly": 6382,
      "Paar": 6383,
      "Hann": 6384,
      "Ner": 6385,
      "Que": 6386,
      "Zun": 6387,
      "aim": 6388,
      "god": 6389,
      "gner": 6390,
      "golden": 6391,
      "iate": 6392,
      "rate": 6393,
      "za": 6394,
      "ßt": 6395,
      "erhö": 6396,
      "tha": 6397,
      "told": 6398,
      "verstanden": 6399,
      "adow": 6400,
      "idi": 6401,
      "illustr": 6402,
      "Unfortunately": 6403,
      "mathemat": 6404,
      "grad": 6405,
      "smaller": 6406,
      "Regional": 6407,
      "bauen": 6408,
      "shown": 6409,
      "Steuer": 6410,
      "Arbeiten": 6411,
      "decis": 6412,
      "Lux": 6413,
      "listed": 6414,
      "White": 6415,
      "types": 6416,
      "vehicles": 6417,
      "Relig": 6418,
      "Prinzip": 6419,
      "Nobody": 6420,
      "fließt": 6421,
      "Bot": 6422,
      "Ehr": 6423,
      "Fig": 6424,
      "Ker": 6425,
      "Oft": 6426,
      "Pfar": 6427,
      "Position": 6428,
      "Rie": 6429,
      "Sco": 6430,
      "cake": 6431,
      "dor": 6432,
      "gor": 6433,
      "kal": 6434,
      "wesen": 6435,
      "Öl": 6436,
      "österreich": 6437,
      "erreichen": 6438,
      "städ": 6439,
      "unte": 6440,
      "aub": 6441,
      "denken": 6442,
      "icke": 6443,
      "enten": 6444,
      "idden": 6445,
      "concept": 6446,
      "gerichtet": 6447,
      "merken": 6448,
      "Web": 6449,
      "Engel": 6450,
      "Social": 6451,
      "könnten": 6452,
      "intell": 6453,
      "media": 6454,
      "smell": 6455,
      "Tradition": 6456,
      "Trainer": 6457,
      "Kosten": 6458,
      "Donau": 6459,
      "balance": 6460,
      "aurant": 6461,
      "...": 6462,
      "betrieben": 6463,
      "entfernt": 6464,
      "ibliothek": 6465,
      "Düsseldorf": 6466,
      "inhabitants": 6467,
      "Kiel": 6468,
      "Lim": 6469,
      "Like": 6470,
      "Lake": 6471,
      "hst": 6472,
      "iro": 6473,
      "pull": 6474,
      "rig": 6475,
      "samm": 6476,
      "vant": 6477,
      "vac": 6478,
      "thro": 6479,
      "states": 6480,
      "reag": 6481,
      "itzen": 6482,
      "tober": 6483,
      "spiele": 6484,
      "confl": 6485,
      "hockey": 6486,
      "hero": 6487,
      "dry": 6488,
      "reiber": 6489,
      "darüber": 6490,
      "cars": 6491,
      "looked": 6492,
      "trying": 6493,
      "crown": 6494,
      "shape": 6495,
      "painting": 6496,
      "Bereits": 6497,
      "erfolgte": 6498,
      "Schwester": 6499,
      "Müll": 6500,
      "Welche": 6501,
      "Turm": 6502,
      "interested": 6503,
      "doubt": 6504,
      "issue": 6505,
      "issues": 6506,
      "pictures": 6507,
      "windows": 6508,
      "behavior": 6509,
      "escape": 6510,
      "neighbors": 6511,
      "Disk": 6512,
      "Jes": 6513,
      "Li": 6514,
      "Ster": 6515,
      "Wicht": 6516,
      "Wander": 6517,
      "blich": 6518,
      "bass": 6519,
      "batter": 6520,
      "nes": 6521,
      "ote": 6522,
      "ula": 6523,
      "onstr": 6524,
      "iche": 6525,
      "urance": 6526,
      "tourn": 6527,
      "undzwanzig": 6528,
      "achtet": 6529,
      "ierungs": 6530,
      "werfen": 6531,
      "trug": 6532,
      "Alten": 6533,
      "founder": 6534,
      "akte": 6535,
      "Several": 6536,
      "somehow": 6537,
      "linge": 6538,
      "consum": 6539,
      "ativen": 6540,
      "signal": 6541,
      "authorities": 6542,
      "Philo": 6543,
      "thinks": 6544,
      "suitable": 6545,
      "funktioniert": 6546,
      "Verkehrs": 6547,
      "memory": 6548,
      "bishop": 6549,
      "George": 6550,
      "\"-": 6551,
      "Edu": 6552,
      "Junge": 6553,
      "Laut": 6554,
      "Mem": 6555,
      "Mik": 6556,
      "Sign": 6557,
      "Vir": 6558,
      "cru": 6559,
      "ügen": 6560,
      "inal": 6561,
      "thick": 6562,
      "tex": 6563,
      "schiff": 6564,
      "umfasst": 6565,
      "added": 6566,
      "ünft": 6567,
      "rub": 6568,
      "ierende": 6569,
      "estim": 6570,
      "discovered": 6571,
      "ologischen": 6572,
      "medal": 6573,
      "needed": 6574,
      "factory": 6575,
      "Karls": 6576,
      "jährigen": 6577,
      "Technik": 6578,
      "expected": 6579,
      "Maschine": 6580,
      "picture": 6581,
      "situated": 6582,
      "audience": 6583,
      "House": 6584,
      "Pop": 6585,
      "Ram": 6586,
      "Zahn": 6587,
      "latter": 6588,
      "phal": 6589,
      "era": 6590,
      "isierte": 6591,
      "tea": 6592,
      "adel": 6593,
      "agog": 6594,
      "illen": 6595,
      "quid": 6596,
      "leichter": 6597,
      "monument": 6598,
      "cript": 6599,
      "owner": 6600,
      "Bauern": 6601,
      "passiert": 6602,
      "azz": 6603,
      "starting": 6604,
      "ühle": 6605,
      "rolled": 6606,
      "depends": 6607,
      "Gleichzeitig": 6608,
      "falsch": 6609,
      "measures": 6610,
      "Jedoch": 6611,
      "Dok": 6612,
      "Eck": 6613,
      "Hit": 6614,
      "Vie": 6615,
      "dise": 6616,
      "dunk": 6617,
      "gliche": 6618,
      "klo": 6619,
      "langen": 6620,
      "def": 6621,
      "gefallen": 6622,
      "schne": 6623,
      "Themen": 6624,
      "weite": 6625,
      "lying": 6626,
      "lager": 6627,
      "ausen": 6628,
      "opposite": 6629,
      "hagen": 6630,
      "fehlen": 6631,
      "ference": 6632,
      "ören": 6633,
      "rants": 6634,
      "geblich": 6635,
      "füll": 6636,
      "complex": 6637,
      "register": 6638,
      "wächst": 6639,
      "product": 6640,
      "familie": 6641,
      "charge": 6642,
      "ault": 6643,
      "occasion": 6644,
      "igesetzt": 6645,
      "klärt": 6646,
      "Höhe": 6647,
      "ademie": 6648,
      "religious": 6649,
      "Kritik": 6650,
      "exclus": 6651,
      "library": 6652,
      "Daraufhin": 6653,
      "Hände": 6654,
      "Ihren": 6655,
      "Journal": 6656,
      "Las": 6657,
      "Lou": 6658,
      "Mur": 6659,
      "Wider": 6660,
      "fing": 6661,
      "ilet": 6662,
      "nommen": 6663,
      "rical": 6664,
      "wild": 6665,
      "ötz": 6666,
      "stin": 6667,
      "stuff": 6668,
      "iso": 6669,
      "leiter": 6670,
      "legs": 6671,
      "destens": 6672,
      "gekommen": 6673,
      "weist": 6674,
      "ify": 6675,
      "Schlag": 6676,
      "sens": 6677,
      "composition": 6678,
      "Sieg": 6679,
      "blau": 6680,
      "interpret": 6681,
      "mussten": 6682,
      "jede": 6683,
      "Gesetz": 6684,
      "foreign": 6685,
      "Pruss": 6686,
      "treffen": 6687,
      "damage": 6688,
      "sprung": 6689,
      "hys": 6690,
      "organization": 6691,
      "Flughafen": 6692,
      "gänger": 6693,
      "referred": 6694,
      "learned": 6695,
      "unterschiedlich": 6696,
      "football": 6697,
      "Spanish": 6698,
      "relationship": 6699,
      "Ring": 6700,
      "cas": 6701,
      "coll": 6702,
      "chain": 6703,
      "ora": 6704,
      "eds": 6705,
      "teuer": 6706,
      "imar": 6707,
      "aret": 6708,
      "aufgenommen": 6709,
      "Hey": 6710,
      "Verband": 6711,
      "ialog": 6712,
      "großer": 6713,
      "eleven": 6714,
      "Brenn": 6715,
      "services": 6716,
      "struct": 6717,
      "suchen": 6718,
      "brow": 6719,
      "corner": 6720,
      "holid": 6721,
      "italien": 6722,
      "plane": 6723,
      "Short": 6724,
      "wohnt": 6725,
      "fanden": 6726,
      "Belg": 6727,
      "stories": 6728,
      "Kühl": 6729,
      "waiting": 6730,
      "caused": 6731,
      "instrument": 6732,
      "Söhne": 6733,
      "degree": 6734,
      "Fred": 6735,
      "Put": 6736,
      "Wern": 6737,
      "dauer": 6738,
      "rix": 6739,
      "taught": 6740,
      "tatsächlich": 6741,
      "vict": 6742,
      "chtet": 6743,
      "heav": 6744,
      "tool": 6745,
      "usual": 6746,
      "abgesch": 6747,
      "Stellen": 6748,
      "ktro": 6749,
      "core": 6750,
      "gelesen": 6751,
      "boden": 6752,
      "Landkreis": 6753,
      "Umgebung": 6754,
      "letzter": 6755,
      "ziemlich": 6756,
      "guitar": 6757,
      "successor": 6758,
      "expens": 6759,
      "provided": 6760,
      "separate": 6761,
      "Stock": 6762,
      "screen": 6763,
      "flächen": 6764,
      "William": 6765,
      "Nachbarn": 6766,
      "Eigentlich": 6767,
      "Rudolf": 6768,
      "industrial": 6769,
      "Mädchen": 6770,
      "Bischof": 6771,
      "Cont": 6772,
      "Fein": 6773,
      "Kunden": 6774,
      "Lä": 6775,
      "Szen": 6776,
      "oret": 6777,
      "push": 6778,
      "enzen": 6779,
      "itive": 6780,
      "heavy": 6781,
      "utage": 6782,
      "having": 6783,
      "hase": 6784,
      "baren": 6785,
      "Zeitpunkt": 6786,
      "führten": 6787,
      "gleichnam": 6788,
      "airport": 6789,
      "Mail": 6790,
      "verschl": 6791,
      "Weltmeister": 6792,
      "fourth": 6793,
      "Fahrrad": 6794,
      "increased": 6795,
      "contrast": 6796,
      "employed": 6797,
      "Regeln": 6798,
      "happens": 6799,
      "korre": 6800,
      "teeth": 6801,
      "abeth": 6802,
      "magazine": 6803,
      "execut": 6804,
      "piano": 6805,
      "Give": 6806,
      "Lar": 6807,
      "Old": 6808,
      "Ohren": 6809,
      "Stern": 6810,
      "bour": 6811,
      "belt": 6812,
      "cin": 6813,
      "effic": 6814,
      "jun": 6815,
      "endet": 6816,
      "elements": 6817,
      "becomes": 6818,
      "sech": 6819,
      "utch": 6820,
      "meat": 6821,
      "Stich": 6822,
      "Schä": 6823,
      "ielten": 6824,
      "ibung": 6825,
      "shopping": 6826,
      "acting": 6827,
      "ordnung": 6828,
      "frist": 6829,
      "jected": 6830,
      "Gesamt": 6831,
      "iedelt": 6832,
      "Unterschied": 6833,
      "servation": 6834,
      "zweimal": 6835,
      "atively": 6836,
      "flowers": 6837,
      "finds": 6838,
      "trieben": 6839,
      "lernte": 6840,
      "representative": 6841,
      "automatisch": 6842,
      "zerstört": 6843,
      "bottle": 6844,
      "financial": 6845,
      "Finger": 6846,
      "Rum": 6847,
      "fill": 6848,
      "gingen": 6849,
      "ua": 6850,
      "wander": 6851,
      "stir": 6852,
      "stick": 6853,
      "schte": 6854,
      "noise": 6855,
      "ischt": 6856,
      "Institute": 6857,
      "auszu": 6858,
      "Ange": 6859,
      "Anlage": 6860,
      "pool": 6861,
      "überall": 6862,
      "earlier": 6863,
      "fühl": 6864,
      "durchgeführt": 6865,
      "format": 6866,
      "frame": 6867,
      "players": 6868,
      "betre": 6869,
      "namen": 6870,
      "lautet": 6871,
      "aille": 6872,
      "county": 6873,
      "presented": 6874,
      "Lower": 6875,
      "Artikel": 6876,
      "Carl": 6877,
      "Streit": 6878,
      "evangel": 6879,
      "evidence": 6880,
      "wichtige": 6881,
      "blieben": 6882,
      "status": 6883,
      "draw": 6884,
      "protect": 6885,
      "equipped": 6886,
      "Braun": 6887,
      "regarded": 6888,
      "schwarz": 6889,
      "erneut": 6890,
      "broadcast": 6891,
      "permanent": 6892,
      "Aust": 6893,
      "Bunde": 6894,
      "Mand": 6895,
      "Roll": 6896,
      "Soll": 6897,
      "Ye": 6898,
      "bast": 6899,
      "bru": 6900,
      "bird": 6901,
      "cu": 6902,
      "gal": 6903,
      "ki": 6904,
      "ports": 6905,
      "wann": 6906,
      "enjo": 6907,
      "stad": 6908,
      "eremon": 6909,
      "soccer": 6910,
      "afr": 6911,
      "ield": 6912,
      "express": 6913,
      "Vergleich": 6914,
      "plans": 6915,
      "Vorsitzen": 6916,
      "link": 6917,
      "Unterstütz": 6918,
      "Wird": 6919,
      "headquarters": 6920,
      "Münster": 6921,
      "increase": 6922,
      "Vereins": 6923,
      "Reichs": 6924,
      "eastern": 6925,
      "ähnlich": 6926,
      "französischen": 6927,
      "stopped": 6928,
      "Ages": 6929,
      "Black": 6930,
      "Nahr": 6931,
      "Ra": 6932,
      "Var": 6933,
      "bat": 6934,
      "lingen": 6935,
      "oss": 6936,
      "rund": 6937,
      "tief": 6938,
      "uert": 6939,
      "yl": 6940,
      "Öff": 6941,
      "erinner": 6942,
      "rechte": 6943,
      "thet": 6944,
      "esch": 6945,
      "einiger": 6946,
      "isters": 6947,
      "verständ": 6948,
      "raid": 6949,
      "sogen": 6950,
      "hohe": 6951,
      "hoben": 6952,
      "Bestand": 6953,
      "Dass": 6954,
      "acken": 6955,
      "Sep": 6956,
      "gebro": 6957,
      "firm": 6958,
      "graben": 6959,
      "Royal": 6960,
      "erstmals": 6961,
      "Israel": 6962,
      "lediglich": 6963,
      "Gebie": 6964,
      "Syste": 6965,
      "Monate": 6966,
      "fragt": 6967,
      "harm": 6968,
      "diag": 6969,
      "stayed": 6970,
      "meantime": 6971,
      "architect": 6972,
      "verfügt": 6973,
      "Aster": 6974,
      "Camp": 6975,
      "Naz": 6976,
      "Rome": 6977,
      "Vi": 6978,
      "culture": 6979,
      "gone": 6980,
      "mün": 6981,
      "nöt": 6982,
      "rist": 6983,
      "snow": 6984,
      "anzu": 6985,
      "itur": 6986,
      "decor": 6987,
      "ami": 6988,
      "schalten": 6989,
      "Schmid": 6990,
      "mote": 6991,
      "Anal": 6992,
      "ems": 6993,
      "Beit": 6994,
      "examin": 6995,
      "Verfü": 6996,
      "geln": 6997,
      "ruhe": 6998,
      "account": 6999,
      "Mitarbeiter": 7000,
      "election": 7001,
      "scene": 7002,
      "weitgehend": 7003,
      "cratic": 7004,
      "Music": 7005,
      "organiz": 7006,
      "organized": 7007,
      "Westphal": 7008,
      "Finally": 7009,
      "Finanz": 7010,
      "militär": 7011,
      "Apparently": 7012,
      "birds": 7013,
      "schreibt": 7014,
      "automatically": 7015,
      "Saxony": 7016,
      "determined": 7017,
      "composer": 7018,
      "procedure": 7019,
      "Gustav": 7020,
      "Schließlich": 7021,
      "Brief": 7022,
      "Golden": 7023,
      "Pak": 7024,
      "ae": 7025,
      "aktion": 7026,
      "bing": 7027,
      "categ": 7028,
      "mater": 7029,
      "ächt": 7030,
      "orche": 7031,
      "etten": 7032,
      "Instr": 7033,
      "benutzt": 7034,
      "iking": 7035,
      "Sea": 7036,
      "bisschen": 7037,
      "medical": 7038,
      "ziehung": 7039,
      "ysis": 7040,
      "idential": 7041,
      "reality": 7042,
      "liste": 7043,
      "biggest": 7044,
      "Medien": 7045,
      "kaufs": 7046,
      "glauben": 7047,
      "recognized": 7048,
      "judge": 7049,
      "definitely": 7050,
      "Göttingen": 7051,
      "Pau": 7052,
      "Ren": 7053,
      "Sant": 7054,
      "Tanz": 7055,
      "crow": 7056,
      "europ": 7057,
      "finger": 7058,
      "jüd": 7059,
      "lust": 7060,
      "uble": 7061,
      "anlage": 7062,
      "ieß": 7063,
      "unbedingt": 7064,
      "asks": 7065,
      "bezeichnen": 7066,
      "amed": 7067,
      "abin": 7068,
      "note": 7069,
      "genie": 7070,
      "States": 7071,
      "ürn": 7072,
      "agent": 7073,
      "astron": 7074,
      "selbe": 7075,
      "grie": 7076,
      "griffen": 7077,
      "shut": 7078,
      "bling": 7079,
      "male": 7080,
      "applied": 7081,
      "altungen": 7082,
      "Rosen": 7083,
      "weiterer": 7084,
      "Zukunft": 7085,
      "Ortste": 7086,
      "ützt": 7087,
      "daughters": 7088,
      "zentrum": 7089,
      "Württemberg": 7090,
      "wheel": 7091,
      "agricultural": 7092,
      "meeting": 7093,
      "Forschungs": 7094,
      "slightly": 7095,
      "Dank": 7096,
      "Hug": 7097,
      "Krank": 7098,
      "Zimmer": 7099,
      "div": 7100,
      "jet": 7101,
      "leng": 7102,
      "pig": 7103,
      "sac": 7104,
      "ties": 7105,
      "erk": 7106,
      "onto": 7107,
      "release": 7108,
      "bey": 7109,
      "beigesetzt": 7110,
      "verme": 7111,
      "ached": 7112,
      "utzen": 7113,
      "concl": 7114,
      "Ann": 7115,
      "hnung": 7116,
      "price": 7117,
      "Army": 7118,
      "ahmen": 7119,
      "acted": 7120,
      "avig": 7121,
      "Zeitung": 7122,
      "pleas": 7123,
      "volume": 7124,
      "kehrte": 7125,
      "Minute": 7126,
      "Saar": 7127,
      "calcul": 7128,
      "wechseln": 7129,
      "Partner": 7130,
      "frequently": 7131,
      "guest": 7132,
      "Schwerpunkt": 7133,
      "Größe": 7134,
      "alternative": 7135,
      "Andere": 7136,
      "defense": 7137,
      "somit": 7138,
      "empty": 7139,
      "Academy": 7140,
      "expensive": 7141,
      "Jazz": 7142,
      "Lage": 7143,
      "Mary": 7144,
      "Sus": 7145,
      "Sah": 7146,
      "Wall": 7147,
      "Zie": 7148,
      "Zoll": 7149,
      "aun": 7150,
      "eth": 7151,
      "ming": 7152,
      "obl": 7153,
      "sätzlich": 7154,
      "wonder": 7155,
      "enem": 7156,
      "invent": 7157,
      "aria": 7158,
      "istan": 7159,
      "verwalt": 7160,
      "imit": 7161,
      "manager": 7162,
      "ürgen": 7163,
      "mobil": 7164,
      "hohen": 7165,
      "Einer": 7166,
      "iped": 7167,
      "gely": 7168,
      "bow": 7169,
      "drug": 7170,
      "Auge": 7171,
      "Meter": 7172,
      "bereitet": 7173,
      "utzutage": 7174,
      "trainer": 7175,
      "Someone": 7176,
      "secondary": 7177,
      "constructed": 7178,
      "receive": 7179,
      "Elektr": 7180,
      "Otherwise": 7181,
      "branch": 7182,
      "thesis": 7183,
      "recently": 7184,
      "Klavier": 7185,
      "perfect": 7186,
      "Geburt": 7187,
      "erlaubt": 7188,
      "beispielsweise": 7189,
      "Haut": 7190,
      "Les": 7191,
      "Mess": 7192,
      "Mär": 7193,
      "ligh": 7194,
      "räum": 7195,
      "tä": 7196,
      "thal": 7197,
      "alone": 7198,
      "edom": 7199,
      "leiden": 7200,
      "zuerst": 7201,
      "moon": 7202,
      "except": 7203,
      "bogen": 7204,
      "Arm": 7205,
      "Arn": 7206,
      "landwirtschaft": 7207,
      "stron": 7208,
      "Bronze": 7209,
      "Prü": 7210,
      "shouldn": 7211,
      "couldn": 7212,
      "engines": 7213,
      "largely": 7214,
      "laugh": 7215,
      "mittelbar": 7216,
      "expert": 7217,
      "sequent": 7218,
      "painter": 7219,
      "clubs": 7220,
      "Halb": 7221,
      "Schauspiel": 7222,
      "requires": 7223,
      "Silber": 7224,
      "honorary": 7225,
      "Olympic": 7226,
      "chairman": 7227,
      "slowly": 7228,
      "Zunächst": 7229,
      "Hause": 7230,
      "Jung": 7231,
      "bay": 7232,
      "din": 7233,
      "fär": 7234,
      "phe": 7235,
      "rier": 7236,
      "rasch": 7237,
      "injur": 7238,
      "thr": 7239,
      "alische": 7240,
      "ilien": 7241,
      "ragen": 7242,
      "Institut": 7243,
      "Bewegung": 7244,
      "grü": 7245,
      "Uns": 7246,
      "angele": 7247,
      "okay": 7248,
      "Prozent": 7249,
      "Prozess": 7250,
      "insurance": 7251,
      "presents": 7252,
      "älfte": 7253,
      "Once": 7254,
      "skin": 7255,
      "lessons": 7256,
      "stars": 7257,
      "würden": 7258,
      "Stefan": 7259,
      "showed": 7260,
      "festival": 7261,
      "include": 7262,
      "Fernsehen": 7263,
      "views": 7264,
      "walls": 7265,
      "affected": 7266,
      "herrscht": 7267,
      "egal": 7268,
      "Baby": 7269,
      "kitchen": 7270,
      "browser": 7271,
      "Eier": 7272,
      "Kolle": 7273,
      "Natürlich": 7274,
      "Rail": 7275,
      "Wies": 7276,
      "award": 7277,
      "candid": 7278,
      "dimens": 7279,
      "flag": 7280,
      "lif": 7281,
      "mic": 7282,
      "nomin": 7283,
      "singer": 7284,
      "wach": 7285,
      "inten": 7286,
      "inzwischen": 7287,
      "stum": 7288,
      "auber": 7289,
      "denburg": 7290,
      "neur": 7291,
      "demonstr": 7292,
      "comment": 7293,
      "notwend": 7294,
      "exists": 7295,
      "präch": 7296,
      "mail": 7297,
      "peace": 7298,
      "ssy": 7299,
      "fühle": 7300,
      "Nachrichten": 7301,
      "Zeug": 7302,
      "Flä": 7303,
      "Abschluss": 7304,
      "breed": 7305,
      "wouldn": 7306,
      "hydro": 7307,
      "supply": 7308,
      "Schulen": 7309,
      "Medizin": 7310,
      "Englisch": 7311,
      "concentr": 7312,
      "announced": 7313,
      "recognize": 7314,
      "fuel": 7315,
      "Modell": 7316,
      "smoke": 7317,
      "Version": 7318,
      "Californ": 7319,
      "surrounded": 7320,
      "Wahrscheinlich": 7321,
      "citizens": 7322,
      "erinnert": 7323,
      "Bä": 7324,
      "Güter": 7325,
      "Nation": 7326,
      "Nummer": 7327,
      "Rang": 7328,
      "Sache": 7329,
      "narrow": 7330,
      "russ": 7331,
      "Är": 7332,
      "sting": 7333,
      "stom": 7334,
      "itude": 7335,
      "beste": 7336,
      "roles": 7337,
      "amber": 7338,
      "versteht": 7339,
      "imper": 7340,
      "forces": 7341,
      "afraid": 7342,
      "hole": 7343,
      "therap": 7344,
      "Anschluss": 7345,
      "anton": 7346,
      "Verhalten": 7347,
      "Verwendung": 7348,
      "daily": 7349,
      "estate": 7350,
      "mont": 7351,
      "sym": 7352,
      "solved": 7353,
      "Kontro": 7354,
      "medium": 7355,
      "hyth": 7356,
      "Kommt": 7357,
      "broke": 7358,
      "engag": 7359,
      "legte": 7360,
      "Should": 7361,
      "yesterday": 7362,
      "fertigt": 7363,
      "Produktion": 7364,
      "Wiener": 7365,
      "extensive": 7366,
      "favorite": 7367,
      "application": 7368,
      "Irgendwie": 7369,
      "September": 7370,
      "Lösung": 7371,
      "Ox": 7372,
      "Sum": 7373,
      "Wik": 7374,
      "bill": 7375,
      "frie": 7376,
      "stal": 7377,
      "ordent": 7378,
      "lets": 7379,
      "dear": 7380,
      "ician": 7381,
      "veröffentlich": 7382,
      "aufgrund": 7383,
      "keeper": 7384,
      "conver": 7385,
      "command": 7386,
      "artific": 7387,
      "ibl": 7388,
      "mente": 7389,
      "Reise": 7390,
      "shor": 7391,
      "Weimar": 7392,
      "halte": 7393,
      "fühlt": 7394,
      "insgesamt": 7395,
      "mindestens": 7396,
      "month": 7397,
      "Three": 7398,
      "capt": 7399,
      "sichtlich": 7400,
      "talent": 7401,
      "Meinung": 7402,
      "frühen": 7403,
      "fördert": 7404,
      "primary": 7405,
      "Zusammenhang": 7406,
      "Gelände": 7407,
      "Führ": 7408,
      "Bayern": 7409,
      "wesentlich": 7410,
      "nörd": 7411,
      "tastes": 7412,
      "Luxem": 7413,
      "exclusively": 7414,
      "ötzlich": 7415,
      "Cle": 7416,
      "Doppel": 7417,
      "Fritz": 7418,
      "Jag": 7419,
      "Jürgen": 7420,
      "Länder": 7421,
      "Zä": 7422,
      "gives": 7423,
      "hmen": 7424,
      "kop": 7425,
      "nu": 7426,
      "zed": 7427,
      "erhält": 7428,
      "teten": 7429,
      "bege": 7430,
      "cklen": 7431,
      "spor": 7432,
      "Schu": 7433,
      "artists": 7434,
      "pole": 7435,
      "nowadays": 7436,
      "spect": 7437,
      "speech": 7438,
      "Deck": 7439,
      "matic": 7440,
      "Marg": 7441,
      "solid": 7442,
      "Wirtschaft": 7443,
      "funk": 7444,
      "funny": 7445,
      "visited": 7446,
      "cycl": 7447,
      "kräft": 7448,
      "gedacht": 7449,
      "troops": 7450,
      "operated": 7451,
      "gypt": 7452,
      "paint": 7453,
      "wechselt": 7454,
      "Gedanken": 7455,
      "persön": 7456,
      "Brandenburg": 7457,
      "Sicherheits": 7458,
      "sugar": 7459,
      "Zusätzlich": 7460,
      "verbreitet": 7461,
      "advantage": 7462,
      "Hafen": 7463,
      "landscape": 7464,
      "Records": 7465,
      "Ble": 7466,
      "Gab": 7467,
      "Kein": 7468,
      "Sachsen": 7469,
      "Varian": 7470,
      "map": 7471,
      "ners": 7472,
      "pft": 7473,
      "tür": 7474,
      "xis": 7475,
      "stände": 7476,
      "elten": 7477,
      "igr": 7478,
      "igent": 7479,
      "aming": 7480,
      "schung": 7481,
      "admit": 7482,
      "society": 7483,
      "layer": 7484,
      "aufs": 7485,
      "ibly": 7486,
      "hnte": 7487,
      "gelb": 7488,
      "gebot": 7489,
      "sterben": 7490,
      "stren": 7491,
      "machines": 7492,
      "hörden": 7493,
      "portra": 7494,
      "Doktor": 7495,
      "daraus": 7496,
      "Zucker": 7497,
      "borders": 7498,
      "Berliner": 7499,
      "Kirch": 7500,
      "ville": 7501,
      "operating": 7502,
      "Volk": 7503,
      "gangs": 7504,
      "orgung": 7505,
      "filter": 7506,
      "storm": 7507,
      "Solche": 7508,
      "tags": 7509,
      "abrik": 7510,
      "characterized": 7511,
      "participated": 7512,
      "fuhr": 7513,
      "activity": 7514,
      "Leistung": 7515,
      "Initially": 7516,
      "Vertreter": 7517,
      "cklenburg": 7518,
      ".’’": 7519,
      "Aachen": 7520,
      "Bein": 7521,
      "Bol": 7522,
      "Cha": 7523,
      "Keine": 7524,
      "Waffen": 7525,
      "Zuf": 7526,
      "wich": 7527,
      "zon": 7528,
      "zte": 7529,
      "öne": 7530,
      "inno": 7531,
      "thor": 7532,
      "online": 7533,
      "schützen": 7534,
      "entspricht": 7535,
      "raised": 7536,
      "forget": 7537,
      "spät": 7538,
      "cean": 7539,
      "Stunde": 7540,
      "sende": 7541,
      "Anna": 7542,
      "covers": 7543,
      "Verteid": 7544,
      "geld": 7545,
      "ava": 7546,
      "preis": 7547,
      "Ord": 7548,
      "Orche": 7549,
      "Thanks": 7550,
      "sculpt": 7551,
      "Konzer": 7552,
      "Mathemat": 7553,
      "Geschle": 7554,
      "larger": 7555,
      "Dennoch": 7556,
      "opening": 7557,
      "Schlacht": 7558,
      "Musiker": 7559,
      "baby": 7560,
      "Mittelalter": 7561,
      "approxim": 7562,
      "officer": 7563,
      "electron": 7564,
      "eggs": 7565,
      "including": 7566,
      "Japanese": 7567,
      "näher": 7568,
      "Angeles": 7569,
      "Wagner": 7570,
      "Werner": 7571,
      "Acht": 7572,
      "Halle": 7573,
      "Mas": 7574,
      "Pho": 7575,
      "Wär": 7576,
      "ahead": 7577,
      "bla": 7578,
      "gig": 7579,
      "pes": 7580,
      "sage": 7581,
      "sitting": 7582,
      "äste": 7583,
      "instru": 7584,
      "anlagen": 7585,
      "staff": 7586,
      "unken": 7587,
      "leaf": 7588,
      "beach": 7589,
      "anda": 7590,
      "ilian": 7591,
      "icine": 7592,
      "entde": 7593,
      "beruf": 7594,
      "zuvor": 7595,
      "steig": 7596,
      "trust": 7597,
      "merksam": 7598,
      "ipfel": 7599,
      "Leon": 7600,
      "dram": 7601,
      "partially": 7602,
      "nerv": 7603,
      "somewhere": 7604,
      "gewöhn": 7605,
      "functions": 7606,
      "volle": 7607,
      "ebenso": 7608,
      "kräfte": 7609,
      "politische": 7610,
      "motiv": 7611,
      "occurs": 7612,
      "Everything": 7613,
      "shortly": 7614,
      "sowieso": 7615,
      "saying": 7616,
      "Nichts": 7617,
      "records": 7618,
      "typical": 7619,
      "gerechnet": 7620,
      "figure": 7621,
      "bedeutend": 7622,
      "suffered": 7623,
      "Besucher": 7624,
      "älteste": 7625,
      "apartment": 7626,
      "diverse": 7627,
      "thedral": 7628,
      "Pfarr": 7629,
      "Verfügung": 7630,
      "!,": 7631,
      "Corn": 7632,
      "Emil": 7633,
      "Effe": 7634,
      "Fund": 7635,
      "Fünf": 7636,
      "Kong": 7637,
      "Ms": 7638,
      "Tat": 7639,
      "Tab": 7640,
      "fought": 7641,
      "jour": 7642,
      "kill": 7643,
      "nennt": 7644,
      "wein": 7645,
      "inth": 7646,
      "eland": 7647,
      "eingesch": 7648,
      "auben": 7649,
      "urban": 7650,
      "gebe": 7651,
      "ingungen": 7652,
      "istics": 7653,
      "seid": 7654,
      "forward": 7655,
      "Stru": 7656,
      "hotel": 7657,
      "comfort": 7658,
      "Verhält": 7659,
      "gruppen": 7660,
      "liber": 7661,
      "Nachdem": 7662,
      "beln": 7663,
      "iders": 7664,
      "save": 7665,
      "öffnen": 7666,
      "Interesse": 7667,
      "geleitet": 7668,
      "Schlüssel": 7669,
      "Liebe": 7670,
      "Ursprün": 7671,
      "magnet": 7672,
      "choice": 7673,
      "centur": 7674,
      "patient": 7675,
      "ficient": 7676,
      "growing": 7677,
      "weekend": 7678,
      "Städten": 7679,
      "Männ": 7680,
      "ynast": 7681,
      "positive": 7682,
      "Möglichkeit": 7683,
      "karte": 7684,
      "employees": 7685,
      "territory": 7686,
      "gebrochen": 7687,
      "Differ": 7688,
      "Num": 7689,
      "Ohr": 7690,
      "Py": 7691,
      "Up": 7692,
      "bought": 7693,
      "iqu": 7694,
      "junge": 7695,
      "ky": 7696,
      "knew": 7697,
      "kulture": 7698,
      "pha": 7699,
      "rü": 7700,
      "rand": 7701,
      "vio": 7702,
      "chner": 7703,
      "stress": 7704,
      "lehrer": 7705,
      "igkeiten": 7706,
      "ifft": 7707,
      "bene": 7708,
      "benef": 7709,
      "trig": 7710,
      "resc": 7711,
      "extended": 7712,
      "Wehr": 7713,
      "örter": 7714,
      "maxim": 7715,
      "spekt": 7716,
      "frau": 7717,
      "hinein": 7718,
      "Test": 7719,
      "barkeit": 7720,
      "viet": 7721,
      "üssen": 7722,
      "solchen": 7723,
      "hydr": 7724,
      "motion": 7725,
      "fragen": 7726,
      "Christoph": 7727,
      "Herrschaft": 7728,
      "purposes": 7729,
      "verlor": 7730,
      "recorded": 7731,
      "Schnitt": 7732,
      "unterschiedliche": 7733,
      "mountains": 7734,
      "Jeden": 7735,
      "copy": 7736,
      "Sicherheit": 7737,
      "Bilder": 7738,
      "Schriftsteller": 7739,
      "Demokrat": 7740,
      "maschine": 7741,
      "Töchter": 7742,
      "Wettbewer": 7743,
      "hospital": 7744,
      "griech": 7745,
      "Cze": 7746,
      "Fie": 7747,
      "Jak": 7748,
      "Sinne": 7749,
      "Züge": 7750,
      "dadurch": 7751,
      "lat": 7752,
      "lers": 7753,
      "mmer": 7754,
      "institut": 7755,
      "anced": 7756,
      "amb": 7757,
      "verbr": 7758,
      "schm": 7759,
      "neues": 7760,
      "Schles": 7761,
      "idung": 7762,
      "send": 7763,
      "Although": 7764,
      "griffe": 7765,
      "gelern": 7766,
      "disappeared": 7767,
      "Meist": 7768,
      "Konfl": 7769,
      "gewinn": 7770,
      "Islam": 7771,
      "sky": 7772,
      "fäh": 7773,
      "ausgezeichnet": 7774,
      "dream": 7775,
      "windigkeit": 7776,
      "Quellen": 7777,
      "arranged": 7778,
      "Elektro": 7779,
      "appearance": 7780,
      "Schnell": 7781,
      "childhood": 7782,
      "facilities": 7783,
      "circle": 7784,
      "Rhine": 7785,
      "models": 7786,
      "Filme": 7787,
      "Laufe": 7788,
      "kämpfen": 7789,
      "device": 7790,
      "Wissenschaft": 7791,
      "Wolfgang": 7792,
      "distribution": 7793,
      "Letzter": 7794,
      "oblig": 7795,
      "Hon": 7796,
      "Hälfte": 7797,
      "Out": 7798,
      "Phys": 7799,
      "Rede": 7800,
      "fla": 7801,
      "gment": 7802,
      "kern": 7803,
      "mur": 7804,
      "tip": 7805,
      "ande": 7806,
      "ella": 7807,
      "einheit": 7808,
      "gegangen": 7809,
      "denke": 7810,
      "seud": 7811,
      "iments": 7812,
      "entliche": 7813,
      "abgeschlossen": 7814,
      "neut": 7815,
      "lov": 7816,
      "Invest": 7817,
      "contribut": 7818,
      "affel": 7819,
      "cow": 7820,
      "grau": 7821,
      "academ": 7822,
      "komme": 7823,
      "Brig": 7824,
      "wenigen": 7825,
      "Untersuch": 7826,
      "Konzept": 7827,
      "colon": 7828,
      "zeichnungen": 7829,
      "Franc": 7830,
      "busy": 7831,
      "shock": 7832,
      "valid": 7833,
      "Fahrt": 7834,
      "mayor": 7835,
      "Gründung": 7836,
      "campa": 7837,
      "Publikum": 7838,
      "erklärt": 7839,
      "Offiz": 7840,
      "übrig": 7841,
      "Situation": 7842,
      "Evangel": 7843,
      "stomach": 7844,
      "Live": 7845,
      "Rahmen": 7846,
      "dome": 7847,
      "hus": 7848,
      "hunt": 7849,
      "hielten": 7850,
      "künstler": 7851,
      "pin": 7852,
      "reform": 7853,
      "beob": 7854,
      "entsteht": 7855,
      "forced": 7856,
      "warum": 7857,
      "Erz": 7858,
      "gerät": 7859,
      "hlung": 7860,
      "Einkaufs": 7861,
      "ongue": 7862,
      "ples": 7863,
      "Hohen": 7864,
      "linder": 7865,
      "schech": 7866,
      "scheidet": 7867,
      "iums": 7868,
      "Mecklenburg": 7869,
      "Atlant": 7870,
      "Blätter": 7871,
      "Maxim": 7872,
      "cycle": 7873,
      "sitzt": 7874,
      "ippe": 7875,
      "metal": 7876,
      "appropr": 7877,
      "dauert": 7878,
      "package": 7879,
      "younger": 7880,
      "error": 7881,
      "explained": 7882,
      "recommended": 7883,
      "Präsident": 7884,
      "beeinfl": 7885,
      "Kaffee": 7886,
      "Philosoph": 7887,
      "Bundestag": 7888,
      "Czech": 7889,
      "Cas": 7890,
      "Next": 7891,
      "Sänger": 7892,
      "Wunder": 7893,
      "md": 7894,
      "ned": 7895,
      "natür": 7896,
      "pfe": 7897,
      "tö": 7898,
      "uum": 7899,
      "witz": 7900,
      "züge": 7901,
      "stimmen": 7902,
      "recent": 7903,
      "ales": 7904,
      "unch": 7905,
      "schir": 7906,
      "web": 7907,
      "achim": 7908,
      "neck": 7909,
      "spok": 7910,
      "Inn": 7911,
      "oped": 7912,
      "agree": 7913,
      "concrete": 7914,
      "wirkte": 7915,
      "ändern": 7916,
      "Republik": 7917,
      "ipment": 7918,
      "Aufgaben": 7919,
      "medizin": 7920,
      "Joachim": 7921,
      "mögen": 7922,
      "flower": 7923,
      "Group": 7924,
      "Graz": 7925,
      "communication": 7926,
      "Fahrzeug": 7927,
      "träge": 7928,
      "ütze": 7929,
      "statement": 7930,
      "ikanische": 7931,
      "besitzen": 7932,
      "Trotzdem": 7933,
      "cultiv": 7934,
      "length": 7935,
      "Brot": 7936,
      "Face": 7937,
      "Hals": 7938,
      "Lange": 7939,
      "Slow": 7940,
      "Tätigkeit": 7941,
      "Video": 7942,
      "Wach": 7943,
      "diale": 7944,
      "felt": 7945,
      "hill": 7946,
      "hätten": 7947,
      "künst": 7948,
      "lord": 7949,
      "pit": 7950,
      "yes": 7951,
      "chance": 7952,
      "stätte": 7953,
      "request": 7954,
      "isol": 7955,
      "edition": 7956,
      "getragen": 7957,
      "verboten": 7958,
      "schu": 7959,
      "uted": 7960,
      "hergestellt": 7961,
      "residential": 7962,
      "ennung": 7963,
      "boat": 7964,
      "actress": 7965,
      "aval": 7966,
      "predomin": 7967,
      "Protestant": 7968,
      "geschlagen": 7969,
      "myself": 7970,
      "ologische": 7971,
      "contro": 7972,
      "ammlung": 7973,
      "damal": 7974,
      "Blatt": 7975,
      "dedicated": 7976,
      "Handels": 7977,
      "Denkmal": 7978,
      "villa": 7979,
      "kostet": 7980,
      "gründete": 7981,
      "distingu": 7982,
      "pursu": 7983,
      "settled": 7984,
      "Reser": 7985,
      "tempor": 7986,
      "achieve": 7987,
      "gained": 7988,
      "Schreib": 7989,
      "neighboring": 7990,
      "getrennt": 7991,
      "Opfer": 7992,
      "verhindern": 7993,
      "consequences": 7994,
      "repeated": 7995,
      "Shortly": 7996,
      "vermeiden": 7997,
      "verwaltung": 7998,
      "Big": 7999,
      "Finn": 8000,
      "Ill": 8001,
      "Kart": 8002,
      "Lad": 8003,
      "Material": 8004,
      "Nürn": 8005,
      "Soph": 8006,
      "Upper": 8007,
      "Zy": 8008,
      "dicht": 8009,
      "dün": 8010,
      "haust": 8011,
      "pel": 8012,
      "pher": 8013,
      "wjet": 8014,
      "yard": 8015,
      "stimm": 8016,
      "theoret": 8017,
      "isst": 8018,
      "unsch": 8019,
      "unten": 8020,
      "aspe": 8021,
      "einzu": 8022,
      "aux": 8023,
      "entgegen": 8024,
      "umes": 8025,
      "mob": 8026,
      "wirken": 8027,
      "Erste": 8028,
      "mensch": 8029,
      "shar": 8030,
      "share": 8031,
      "vorwiegend": 8032,
      "gelaufen": 8033,
      "Wechsel": 8034,
      "ishment": 8035,
      "speziel": 8036,
      "previously": 8037,
      "Metho": 8038,
      "helps": 8039,
      "Stadtteil": 8040,
      "zeichnete": 8041,
      "ändig": 8042,
      "Todes": 8043,
      "Together": 8044,
      "marks": 8045,
      "remaining": 8046,
      "experiment": 8047,
      "pattern": 8048,
      "Benannt": 8049,
      "weltweit": 8050,
      "südlich": 8051,
      "Häuser": 8052,
      "Schweizer": 8053,
      "Schneider": 8054,
      "Knochen": 8055,
      "Besonders": 8056,
      "Telefon": 8057,
      "Four": 8058,
      "Mang": 8059,
      "Take": 8060,
      "Vict": 8061,
      "bud": 8062,
      "dress": 8063,
      "mu": 8064,
      "vit": 8065,
      "onents": 8066,
      "eingestellt": 8067,
      "beat": 8068,
      "verantwort": 8069,
      "ckte": 8070,
      "berries": 8071,
      "spitze": 8072,
      "aufzu": 8073,
      "alleine": 8074,
      "manchen": 8075,
      "iding": 8076,
      "Angst": 8077,
      "ema": 8078,
      "merkt": 8079,
      "ugel": 8080,
      "alsozial": 8081,
      "ernannt": 8082,
      "upid": 8083,
      "Spiegel": 8084,
      "izing": 8085,
      "finale": 8086,
      "interior": 8087,
      "elev": 8088,
      "linie": 8089,
      "object": 8090,
      "Frucht": 8091,
      "athlet": 8092,
      "Mountain": 8093,
      "niedr": 8094,
      "follows": 8095,
      "kehrt": 8096,
      "Urs": 8097,
      "welcher": 8098,
      "hilft": 8099,
      "wertung": 8100,
      "sales": 8101,
      "Würz": 8102,
      "Bürgermeister": 8103,
      "relevant": 8104,
      "brothers": 8105,
      "umente": 8106,
      "mixed": 8107,
      "exhibition": 8108,
      "Eigent": 8109,
      "translated": 8110,
      "Offenbar": 8111,
      "negative": 8112,
      "männ": 8113,
      "controvers": 8114,
      "Dutch": 8115,
      "Guten": 8116,
      "James": 8117,
      "Kabel": 8118,
      "Psych": 8119,
      "dit": 8120,
      "dict": 8121,
      "ffer": 8122,
      "poll": 8123,
      "öder": 8124,
      "üse": 8125,
      "erscheint": 8126,
      "ständen": 8127,
      "leaving": 8128,
      "icious": 8129,
      "advis": 8130,
      "steuer": 8131,
      "composed": 8132,
      "wurf": 8133,
      "Beam": 8134,
      "oted": 8135,
      "Spaß": 8136,
      "spective": 8137,
      "identen": 8138,
      "policy": 8139,
      "gewinnen": 8140,
      "meint": 8141,
      "differently": 8142,
      "entered": 8143,
      "goods": 8144,
      "kochen": 8145,
      "punkte": 8146,
      "eignet": 8147,
      "Bahnstrecke": 8148,
      "singing": 8149,
      "continue": 8150,
      "distin": 8151,
      "existiert": 8152,
      "limit": 8153,
      "economy": 8154,
      "Festival": 8155,
      "address": 8156,
      "Fleisch": 8157,
      "likely": 8158,
      "Smart": 8159,
      "nördlich": 8160,
      "praktisch": 8161,
      "philoso": 8162,
      "succeeded": 8163,
      "materials": 8164,
      "Sachen": 8165,
      "Tel": 8166,
      "actions": 8167,
      "dur": 8168,
      "diplom": 8169,
      "hes": 8170,
      "ients": 8171,
      "mü": 8172,
      "sav": 8173,
      "sätze": 8174,
      "tes": 8175,
      "täu": 8176,
      "vater": 8177,
      "wunder": 8178,
      "“,": 8179,
      "erwä": 8180,
      "ense": 8181,
      "sters": 8182,
      "alarm": 8183,
      "gemeinen": 8184,
      "denten": 8185,
      "usste": 8186,
      "wegs": 8187,
      "span": 8188,
      "Inzwischen": 8189,
      "desert": 8190,
      "antwor": 8191,
      "essel": 8192,
      "endorf": 8193,
      "brä": 8194,
      "ssitz": 8195,
      "ideas": 8196,
      "jekte": 8197,
      "glück": 8198,
      "newly": 8199,
      "spruch": 8200,
      "freie": 8201,
      "related": 8202,
      "corpor": 8203,
      "streets": 8204,
      "politics": 8205,
      "richtungen": 8206,
      "Herrn": 8207,
      "technik": 8208,
      "amerikanischen": 8209,
      "Often": 8210,
      "Lebensmittel": 8211,
      "Kais": 8212,
      "Ruhe": 8213,
      "Chinese": 8214,
      "analysis": 8215,
      "Farben": 8216,
      "installed": 8217,
      "criticism": 8218,
      "girls": 8219,
      "umstritten": 8220,
      "Heidelberg": 8221,
      "Karlsruhe": 8222,
      "fingers": 8223,
      "Schmidt": 8224,
      "Bade": 8225,
      "Dein": 8226,
      "Ris": 8227,
      "Wild": 8228,
      "deiner": 8229,
      "kalt": 8230,
      "luck": 8231,
      "stil": 8232,
      "stücke": 8233,
      "rejected": 8234,
      "orgt": 8235,
      "arzt": 8236,
      "acher": 8237,
      "vember": 8238,
      "haven": 8239,
      "tsdam": 8240,
      "hob": 8241,
      "comot": 8242,
      "lieb": 8243,
      "ikes": 8244,
      "ienced": 8245,
      "vorne": 8246,
      "drin": 8247,
      "peten": 8248,
      "liquid": 8249,
      "Soviet": 8250,
      "Zeichen": 8251,
      "specially": 8252,
      "disk": 8253,
      "ension": 8254,
      "kontro": 8255,
      "symp": 8256,
      "wäl": 8257,
      "gestern": 8258,
      "Normal": 8259,
      "November": 8260,
      "renov": 8261,
      "politischen": 8262,
      "thinking": 8263,
      "krieg": 8264,
      "liegenden": 8265,
      "chosen": 8266,
      "licherweise": 8267,
      "verbot": 8268,
      "historischen": 8269,
      "roads": 8270,
      "Somit": 8271,
      "unterschiedlichen": 8272,
      "honor": 8273,
      "Weiteren": 8274,
      "certainly": 8275,
      "spirit": 8276,
      "Berufs": 8277,
      "Moreover": 8278,
      "Stattdessen": 8279,
      "prepared": 8280,
      "average": 8281,
      "increasingly": 8282,
      "Elisabeth": 8283,
      "Jakob": 8284,
      "campaign": 8285,
      "Akt": 8286,
      "Ba": 8287,
      "Bul": 8288,
      "Bäume": 8289,
      "Gran": 8290,
      "Gele": 8291,
      "Gatt": 8292,
      "Lis": 8293,
      "Log": 8294,
      "Renn": 8295,
      "bath": 8296,
      "baden": 8297,
      "jungen": 8298,
      "meinem": 8299,
      "sth": 8300,
      "ersetzt": 8301,
      "anges": 8302,
      "ancy": 8303,
      "stol": 8304,
      "derived": 8305,
      "gewiesen": 8306,
      "ington": 8307,
      "rap": 8308,
      "ado": 8309,
      "Infan": 8310,
      "artistic": 8311,
      "proceed": 8312,
      "antas": 8313,
      "shell": 8314,
      "ferenz": 8315,
      "Geheim": 8316,
      "bled": 8317,
      "drücken": 8318,
      "Argent": 8319,
      "parallel": 8320,
      "darunter": 8321,
      "polar": 8322,
      "plex": 8323,
      "Regie": 8324,
      "bekannten": 8325,
      "Darm": 8326,
      "subsequently": 8327,
      "lotte": 8328,
      "voller": 8329,
      "Western": 8330,
      "Potsdam": 8331,
      "Zweck": 8332,
      "beliebt": 8333,
      "connections": 8334,
      "Goe": 8335,
      "aneously": 8336,
      "historic": 8337,
      "specialist": 8338,
      "internationalen": 8339,
      "Flugzeug": 8340,
      "equipment": 8341,
      "Law": 8342,
      "Jedes": 8343,
      "universities": 8344,
      "Basis": 8345,
      "wichtigsten": 8346,
      "respect": 8347,
      "respective": 8348,
      "fresh": 8349,
      "victim": 8350,
      "promoted": 8351,
      "Informationen": 8352,
      "ausgestattet": 8353,
      "Entscheidung": 8354,
      "dunkel": 8355,
      "California": 8356,
      "Facebook": 8357,
      "Aktiv": 8358,
      "Bres": 8359,
      "Gün": 8360,
      "Kron": 8361,
      "Long": 8362,
      "gler": 8363,
      "kids": 8364,
      "pap": 8365,
      "ermö": 8366,
      "stür": 8367,
      "aled": 8368,
      "urz": 8369,
      "outer": 8370,
      "verpf": 8371,
      "verbrachte": 8372,
      "wet": 8373,
      "adjust": 8374,
      "warning": 8375,
      "Schall": 8376,
      "agne": 8377,
      "herunter": 8378,
      "trinken": 8379,
      "proof": 8380,
      "Bewohner": 8381,
      "residents": 8382,
      "exchange": 8383,
      "angle": 8384,
      "maßen": 8385,
      "unterricht": 8386,
      "partly": 8387,
      "acts": 8388,
      "Sound": 8389,
      "hinten": 8390,
      "regions": 8391,
      "teilte": 8392,
      "Brust": 8393,
      "Thank": 8394,
      "useful": 8395,
      "wenden": 8396,
      "grab": 8397,
      "Mean": 8398,
      "begins": 8399,
      "Umwelt": 8400,
      "studio": 8401,
      "beschrieben": 8402,
      "explo": 8403,
      "Sonst": 8404,
      "freiwill": 8405,
      "tunnel": 8406,
      "growth": 8407,
      "Bernhard": 8408,
      "Zahlen": 8409,
      "massive": 8410,
      "devices": 8411,
      "flying": 8412,
      "planning": 8413,
      "Richter": 8414,
      "dioces": 8415,
      "pulled": 8416,
      "Fällen": 8417,
      "visitors": 8418,
      "Brüder": 8419,
      "chapel": 8420,
      "Dokument": 8421,
      "veröffentlichte": 8422,
      "Struktur": 8423,
      "husband": 8424,
      "Ep": 8425,
      "Gitar": 8426,
      "Kath": 8427,
      "Lager": 8428,
      "Rau": 8429,
      "Wart": 8430,
      "cen": 8431,
      "dates": 8432,
      "hur": 8433,
      "label": 8434,
      "äm": 8435,
      "ón": 8436,
      "inse": 8437,
      "stoffe": 8438,
      "stupid": 8439,
      "reserv": 8440,
      "repair": 8441,
      "arrest": 8442,
      "sector": 8443,
      "ouver": 8444,
      "veranst": 8445,
      "verkauft": 8446,
      "schrank": 8447,
      "umge": 8448,
      "etball": 8449,
      "zuletzt": 8450,
      "Still": 8451,
      "Schwä": 8452,
      "Anzahl": 8453,
      "coal": 8454,
      "iency": 8455,
      "endar": 8456,
      "sud": 8457,
      "Spann": 8458,
      "assess": 8459,
      "Leg": 8460,
      "Arzt": 8461,
      "flash": 8462,
      "Mitt": 8463,
      "Aufbau": 8464,
      "Brücke": 8465,
      "matik": 8466,
      "Außer": 8467,
      "Klassen": 8468,
      "laub": 8469,
      "Ortes": 8470,
      "Grafen": 8471,
      "opponent": 8472,
      "ätzen": 8473,
      "joint": 8474,
      "Justus": 8475,
      "settle": 8476,
      "India": 8477,
      "talking": 8478,
      "graphic": 8479,
      "Insgesamt": 8480,
      "methods": 8481,
      "Salzburg": 8482,
      "seriously": 8483,
      "Truppen": 8484,
      "Satell": 8485,
      "Bavaria": 8486,
      "Siedlung": 8487,
      "complicated": 8488,
      "Stiftung": 8489,
      "assumed": 8490,
      "Francis": 8491,
      "Abl": 8492,
      "Aud": 8493,
      "Deine": 8494,
      "Ereign": 8495,
      "Jon": 8496,
      "Luf": 8497,
      "Pu": 8498,
      "Sonder": 8499,
      "Vis": 8500,
      "catch": 8501,
      "gin": 8502,
      "hors": 8503,
      "ruf": 8504,
      "ero": 8505,
      "erziel": 8506,
      "enken": 8507,
      "christ": 8508,
      "anschließend": 8509,
      "eless": 8510,
      "auern": 8511,
      "iles": 8512,
      "nest": 8513,
      "locomot": 8514,
      "Station": 8515,
      "warf": 8516,
      "convent": 8517,
      "prohib": 8518,
      "exhaust": 8519,
      "Vergangen": 8520,
      "Veröffentlich": 8521,
      "Spiele": 8522,
      "brid": 8523,
      "bright": 8524,
      "acid": 8525,
      "Leider": 8526,
      "plic": 8527,
      "geblieben": 8528,
      "apprent": 8529,
      "prem": 8530,
      "minute": 8531,
      "reading": 8532,
      "Konkur": 8533,
      "stuhl": 8534,
      "chnung": 8535,
      "tests": 8536,
      "paid": 8537,
      "Christmas": 8538,
      "turns": 8539,
      "Holly": 8540,
      "classic": 8541,
      "Found": 8542,
      "harmon": 8543,
      "mbH": 8544,
      "teaching": 8545,
      "Bildung": 8546,
      "successfully": 8547,
      "egg": 8548,
      "figur": 8549,
      "Unternehmens": 8550,
      "industrie": 8551,
      "Feuerwehr": 8552,
      "Josef": 8553,
      "regarding": 8554,
      "Trans": 8555,
      "million": 8556,
      "gesamten": 8557,
      "bücher": 8558,
      "fundament": 8559,
      "explain": 8560,
      "Ergebnis": 8561,
      "benötigt": 8562,
      "Hotel": 8563,
      "enorm": 8564,
      "District": 8565,
      "Hugo": 8566,
      "Unsere": 8567,
      "sudden": 8568,
      "Aktion": 8569,
      "Dir": 8570,
      "Each": 8571,
      "Grad": 8572,
      "Lind": 8573,
      "Pir": 8574,
      "Ti": 8575,
      "baut": 8576,
      "gun": 8577,
      "gle": 8578,
      "gate": 8579,
      "iße": 8580,
      "kin": 8581,
      "kampf": 8582,
      "sag": 8583,
      "tongue": 8584,
      "ube": 8585,
      "zlich": 8586,
      "üste": 8587,
      "ücht": 8588,
      "erts": 8589,
      "stations": 8590,
      "unit": 8591,
      "tei": 8592,
      "gezeigt": 8593,
      "bekam": 8594,
      "seien": 8595,
      "tenance": 8596,
      "noble": 8597,
      "nobody": 8598,
      "nee": 8599,
      "zuständig": 8600,
      "Inner": 8601,
      "opport": 8602,
      "Schild": 8603,
      "mole": 8604,
      "tram": 8605,
      "prob": 8606,
      "änge": 8607,
      "pron": 8608,
      "dritte": 8609,
      "interpre": 8610,
      "Sebast": 8611,
      "kommun": 8612,
      "klasse": 8613,
      "getreten": 8614,
      "sheim": 8615,
      "matches": 8616,
      "solo": 8617,
      "gewicht": 8618,
      "Geschw": 8619,
      "knock": 8620,
      "brake": 8621,
      "musician": 8622,
      "restaurant": 8623,
      "fleisch": 8624,
      "easier": 8625,
      "Strand": 8626,
      "characters": 8627,
      "grows": 8628,
      "modell": 8629,
      "pretty": 8630,
      "surrounding": 8631,
      "Hintergrund": 8632,
      "einzelne": 8633,
      "Bezirk": 8634,
      "Bezirks": 8635,
      "Original": 8636,
      "Castle": 8637,
      "Soldaten": 8638,
      "bezirk": 8639,
      "Diskuss": 8640,
      "Ursprünglich": 8641,
      "opportun": 8642,
      "Bart": 8643,
      "Ce": 8644,
      "GmbH": 8645,
      "Jör": 8646,
      "Rauch": 8647,
      "Tauch": 8648,
      "Tast": 8649,
      "Those": 8650,
      "Wä": 8651,
      "Water": 8652,
      "ao": 8653,
      "caught": 8654,
      "eist": 8655,
      "messen": 8656,
      "pas": 8657,
      "sick": 8658,
      "ti": 8659,
      "ya": 8660,
      "äub": 8661,
      "chief": 8662,
      "anwalt": 8663,
      "stall": 8664,
      "reve": 8665,
      "una": 8666,
      "gegründet": 8667,
      "ads": 8668,
      "berüh": 8669,
      "spons": 8670,
      "aufgestellt": 8671,
      "Erfolge": 8672,
      "dosten": 8673,
      "ibilities": 8674,
      "Antw": 8675,
      "Angaben": 8676,
      "projects": 8677,
      "ained": 8678,
      "ateur": 8679,
      "voraus": 8680,
      "übertragen": 8681,
      "gelt": 8682,
      "geladen": 8683,
      "bound": 8684,
      "compared": 8685,
      "Gerät": 8686,
      "ungsmittel": 8687,
      "prev": 8688,
      "Formen": 8689,
      "scen": 8690,
      "wässer": 8691,
      "medicine": 8692,
      "vierzig": 8693,
      "farmer": 8694,
      "Adolf": 8695,
      "Danke": 8696,
      "geleg": 8697,
      "topic": 8698,
      "größere": 8699,
      "grundsätzlich": 8700,
      "rolle": 8701,
      "wirkungen": 8702,
      "protected": 8703,
      "Vereinigten": 8704,
      "kirch": 8705,
      "titles": 8706,
      "Mainz": 8707,
      "Inseln": 8708,
      "championship": 8709,
      "unserer": 8710,
      "sweet": 8711,
      "customs": 8712,
      "ländischen": 8713,
      "Millionen": 8714,
      "switched": 8715,
      "fälle": 8716,
      "introduced": 8717,
      "finanziel": 8718,
      "unterstützt": 8719,
      "surprised": 8720,
      "influenced": 8721,
      "gültig": 8722,
      "verpflich": 8723,
      "Meanwhile": 8724,
      "Vergangenheit": 8725,
      "Antwort": 8726,
      "Cam": 8727,
      "Hü": 8728,
      "Job": 8729,
      "Mis": 8730,
      "Rü": 8731,
      "Tar": 8732,
      "dat": 8733,
      "lament": 8734,
      "ride": 8735,
      "sight": 8736,
      "wag": 8737,
      "ögel": 8738,
      "erweiter": 8739,
      "stair": 8740,
      "rear": 8741,
      "unmittelbar": 8742,
      "edy": 8743,
      "leitete": 8744,
      "heißen": 8745,
      "heutzutage": 8746,
      "ilfe": 8747,
      "oles": 8748,
      "verg": 8749,
      "verwand": 8750,
      "formen": 8751,
      "etic": 8752,
      "sole": 8753,
      "laid": 8754,
      "Schritt": 8755,
      "steam": 8756,
      "contemporary": 8757,
      "Angriff": 8758,
      "seln": 8759,
      "gover": 8760,
      "applies": 8761,
      "Zeiten": 8762,
      "angeboten": 8763,
      "obviously": 8764,
      "everywhere": 8765,
      "Klass": 8766,
      "fahrer": 8767,
      "Komm": 8768,
      "towns": 8769,
      "bahnhof": 8770,
      "häuf": 8771,
      "patron": 8772,
      "humans": 8773,
      "Nowadays": 8774,
      "concert": 8775,
      "tourism": 8776,
      "irgendwo": 8777,
      "Autoren": 8778,
      "stabil": 8779,
      "climate": 8780,
      "satell": 8781,
      "Insbesondere": 8782,
      "recommend": 8783,
      "Ländern": 8784,
      "shooting": 8785,
      "kindergarten": 8786,
      "expanded": 8787,
      "conflict": 8788,
      "battery": 8789,
      "comfortable": 8790,
      "gelernt": 8791,
      "Ath": 8792,
      "Flo": 8793,
      "Il": 8794,
      "Sund": 8795,
      "Vit": 8796,
      "Yo": 8797,
      "bann": 8798,
      "dare": 8799,
      "diction": 8800,
      "nissen": 8801,
      "nitten": 8802,
      "sis": 8803,
      "sell": 8804,
      "tausend": 8805,
      "zert": 8806,
      "inary": 8807,
      "angesehen": 8808,
      "ieb": 8809,
      "reden": 8810,
      "reli": 8811,
      "unce": 8812,
      "edt": 8813,
      "legend": 8814,
      "hett": 8815,
      "beeren": 8816,
      "severe": 8817,
      "verhält": 8818,
      "hrte": 8819,
      "forty": 8820,
      "spac": 8821,
      "lax": 8822,
      "manage": 8823,
      "context": 8824,
      "demol": 8825,
      "Erfahr": 8826,
      "hens": 8827,
      "cock": 8828,
      "exception": 8829,
      "Reformation": 8830,
      "Revolution": 8831,
      "Geist": 8832,
      "Leiter": 8833,
      "parties": 8834,
      "kompl": 8835,
      "Neum": 8836,
      "Zeich": 8837,
      "ärten": 8838,
      "Front": 8839,
      "myth": 8840,
      "scale": 8841,
      "ghan": 8842,
      "Box": 8843,
      "weiteres": 8844,
      "gehörten": 8845,
      "Französ": 8846,
      "Besatz": 8847,
      "Komment": 8848,
      "Polish": 8849,
      "Handy": 8850,
      "kennung": 8851,
      "Gebir": 8852,
      "haltung": 8853,
      "möglichst": 8854,
      "Königs": 8855,
      "wenigstens": 8856,
      "Augsburg": 8857,
      "strongly": 8858,
      "frequen": 8859,
      "heutige": 8860,
      "correctly": 8861,
      "kostenlos": 8862,
      "accepted": 8863,
      "totally": 8864,
      "citizen": 8865,
      "transferred": 8866,
      "Sprecher": 8867,
      "weapons": 8868,
      "Messer": 8869,
      "absolutely": 8870,
      "tournament": 8871,
      "texts": 8872,
      "Victor": 8873,
      ".\"": 8874,
      "Bon": 8875,
      "Dör": 8876,
      "Farbe": 8877,
      "Himmel": 8878,
      "Ihm": 8879,
      "Kro": 8880,
      "Keller": 8881,
      "Ritter": 8882,
      "cann": 8883,
      "ceremon": 8884,
      "fein": 8885,
      "hte": 8886,
      "mort": 8887,
      "sitz": 8888,
      "inform": 8889,
      "stö": 8890,
      "stones": 8891,
      "unfortunately": 8892,
      "ela": 8893,
      "leer": 8894,
      "leisten": 8895,
      "geplant": 8896,
      "dence": 8897,
      "ausgesprochen": 8898,
      "aging": 8899,
      "desired": 8900,
      "trip": 8901,
      "Beste": 8902,
      "Bekann": 8903,
      "gerissen": 8904,
      "grä": 8905,
      "shops": 8906,
      "goals": 8907,
      "Neust": 8908,
      "Neue": 8909,
      "uded": 8910,
      "display": 8911,
      "maintenance": 8912,
      "arbeitung": 8913,
      "marine": 8914,
      "autonom": 8915,
      "Plane": 8916,
      "gegenseitig": 8917,
      "Northern": 8918,
      "Regisse": 8919,
      "bauten": 8920,
      "Trau": 8921,
      "possibility": 8922,
      "Kindergarten": 8923,
      "destination": 8924,
      "operations": 8925,
      "positions": 8926,
      "mittelalter": 8927,
      "pfel": 8928,
      "Carol": 8929,
      "Lieber": 8930,
      "painted": 8931,
      "internationale": 8932,
      "Autobahn": 8933,
      "Weltkriegs": 8934,
      "drop": 8935,
      "Wohnung": 8936,
      "associated": 8937,
      "Tourismus": 8938,
      "mittlerweile": 8939,
      "Transport": 8940,
      "Smith": 8941,
      "agreement": 8942,
      "survived": 8943,
      "nahezu": 8944,
      "occupied": 8945,
      "gebiete": 8946,
      "Schlaf": 8947,
      "beteiligt": 8948,
      "disease": 8949,
      "Award": 8950,
      "Bald": 8951,
      "Eind": 8952,
      "Fro": 8953,
      "Hom": 8954,
      "Len": 8955,
      "Mass": 8956,
      "Mauer": 8957,
      "Plä": 8958,
      "Tit": 8959,
      "fter": 8960,
      "filled": 8961,
      "jen": 8962,
      "kund": 8963,
      "pom": 8964,
      "salt": 8965,
      "wan": 8966,
      "reffen": 8967,
      "units": 8968,
      "eler": 8969,
      "elig": 8970,
      "andal": 8971,
      "routes": 8972,
      "istin": 8973,
      "verteid": 8974,
      "allein": 8975,
      "Stahl": 8976,
      "ulate": 8977,
      "ifel": 8978,
      "aggress": 8979,
      "aghett": 8980,
      "moving": 8981,
      "resol": 8982,
      "ikation": 8983,
      "features": 8984,
      "besetzt": 8985,
      "kommst": 8986,
      "actors": 8987,
      "stellten": 8988,
      "Society": 8989,
      "lowing": 8990,
      "Vorder": 8991,
      "butter": 8992,
      "ows": 8993,
      "ächs": 8994,
      "colored": 8995,
      "gewachsen": 8996,
      "erstre": 8997,
      "aircraft": 8998,
      "Karten": 8999,
      "owners": 9000,
      "volunt": 9001,
      "Andreas": 9002,
      "Code": 9003,
      "stored": 9004,
      "Daniel": 9005,
      "trouble": 9006,
      "angenommen": 9007,
      "classical": 9008,
      "drehen": 9009,
      "Willst": 9010,
      "sicherung": 9011,
      "behaup": 9012,
      "Obwohl": 9013,
      "schneller": 9014,
      "Jean": 9015,
      "Greif": 9016,
      "Russia": 9017,
      "Akademie": 9018,
      "keyboard": 9019,
      "separated": 9020,
      "traditional": 9021,
      "Weiterhin": 9022,
      "championships": 9023,
      "safety": 9024,
      "Lübeck": 9025,
      "Direkt": 9026,
      "erklären": 9027,
      "nutzen": 9028,
      "gonna": 9029,
      "target": 9030,
      "höchste": 9031,
      "occasionally": 9032,
      "färbt": 9033,
      "artificial": 9034,
      "entdeckt": 9035,
      "phabet": 9036,
      "verantwortlich": 9037,
      "Würzburg": 9038,
      "Breslau": 9039,
      "Foundation": 9040,
      "Dur": 9041,
      "Jede": 9042,
      "Ku": 9043,
      "Net": 9044,
      "Rä": 9045,
      "Ray": 9046,
      "Win": 9047,
      "eating": 9048,
      "hein": 9049,
      "mally": 9050,
      "rust": 9051,
      "tan": 9052,
      "erer": 9053,
      "atoren": 9054,
      "unbekannt": 9055,
      "oral": 9056,
      "gefasst": 9057,
      "beut": 9058,
      "raw": 9059,
      "aben": 9060,
      "aband": 9061,
      "spun": 9062,
      "Ing": 9063,
      "mete": 9064,
      "Schm": 9065,
      "ido": 9066,
      "steel": 9067,
      "perspective": 9068,
      "Verfass": 9069,
      "Alfred": 9070,
      "mack": 9071,
      "unterscheiden": 9072,
      "rane": 9073,
      "ideal": 9074,
      "workers": 9075,
      "actual": 9076,
      "Aufnahme": 9077,
      "lette": 9078,
      "ffiz": 9079,
      "Abitur": 9080,
      "Marburg": 9081,
      "Konstru": 9082,
      "Konrad": 9083,
      "inkel": 9084,
      "bedarf": 9085,
      "anzer": 9086,
      "wave": 9087,
      "grees": 9088,
      "crime": 9089,
      "smart": 9090,
      "orenz": 9091,
      "familiar": 9092,
      "Add": 9093,
      "bildete": 9094,
      "kammer": 9095,
      "reuth": 9096,
      "existieren": 9097,
      "förmig": 9098,
      "container": 9099,
      "license": 9100,
      "sufficient": 9101,
      "Standard": 9102,
      "crazy": 9103,
      "mistake": 9104,
      "Schauspielerin": 9105,
      "jünger": 9106,
      "Kolon": 9107,
      "juice": 9108,
      "Idee": 9109,
      "Glauben": 9110,
      "huge": 9111,
      "Prussian": 9112,
      "Krankheit": 9113,
      "converted": 9114,
      "appropriate": 9115,
      "Sebastian": 9116,
      "Ful": 9117,
      "Flag": 9118,
      "Gang": 9119,
      "Muss": 9120,
      "Ruf": 9121,
      "Rath": 9122,
      "Sab": 9123,
      "dough": 9124,
      "eigh": 9125,
      "kreuz": 9126,
      "tasks": 9127,
      "winner": 9128,
      "yment": 9129,
      "chnen": 9130,
      "anstren": 9131,
      "stimmt": 9132,
      "unclear": 9133,
      "arischen": 9134,
      "degrees": 9135,
      "dennoch": 9136,
      "entschieden": 9137,
      "umgeben": 9138,
      "umfang": 9139,
      "losen": 9140,
      "soil": 9141,
      "sence": 9142,
      "afft": 9143,
      "residence": 9144,
      "grenz": 9145,
      "otten": 9146,
      "woo": 9147,
      "Gegend": 9148,
      "Gewicht": 9149,
      "prior": 9150,
      "brü": 9151,
      "brig": 9152,
      "cheese": 9153,
      "flügel": 9154,
      "dahin": 9155,
      "otherwise": 9156,
      "phon": 9157,
      "Herkunft": 9158,
      "overall": 9159,
      "darin": 9160,
      "Asia": 9161,
      "Klima": 9162,
      "captain": 9163,
      "Adels": 9164,
      "flood": 9165,
      "signed": 9166,
      "Spielen": 9167,
      "Fahrzeuge": 9168,
      "offenbar": 9169,
      "Strecken": 9170,
      "authors": 9171,
      "processing": 9172,
      "ikaner": 9173,
      "defined": 9174,
      "ography": 9175,
      "analy": 9176,
      "Kapit": 9177,
      "mittelt": 9178,
      "walking": 9179,
      "performances": 9180,
      "ehemalige": 9181,
      "soldiers": 9182,
      "Leistungen": 9183,
      "Forschung": 9184,
      "Fotos": 9185,
      "accessible": 9186,
      "rückt": 9187,
      "Eingang": 9188,
      "Generation": 9189,
      "schlafen": 9190,
      "katholischen": 9191,
      "committee": 9192,
      "dangerous": 9193,
      "trotzdem": 9194,
      "korrekt": 9195,
      "stadium": 9196,
      "Baro": 9197,
      "Bibliothek": 9198,
      "Cro": 9199,
      "Eich": 9200,
      "Gle": 9201,
      "Grie": 9202,
      "Gabr": 9203,
      "Hessen": 9204,
      "Rou": 9205,
      "Sag": 9206,
      "büt": 9207,
      "dick": 9208,
      "ek": 9209,
      "labor": 9210,
      "nick": 9211,
      "rang": 9212,
      "erforder": 9213,
      "asp": 9214,
      "bek": 9215,
      "weib": 9216,
      "wealth": 9217,
      "umn": 9218,
      "spend": 9219,
      "spark": 9220,
      "Sturm": 9221,
      "ulen": 9222,
      "Schach": 9223,
      "convers": 9224,
      "desc": 9225,
      "Anwalt": 9226,
      "cohol": 9227,
      "Beh": 9228,
      "existen": 9229,
      "gesucht": 9230,
      "Verlag": 9231,
      "hlte": 9232,
      "tracks": 9233,
      "Spain": 9234,
      "boss": 9235,
      "Leitung": 9236,
      "drück": 9237,
      "platten": 9238,
      "apply": 9239,
      "Aufnahmen": 9240,
      "Orient": 9241,
      "angegeben": 9242,
      "letters": 9243,
      "minor": 9244,
      "handeln": 9245,
      "handlung": 9246,
      "dargestellt": 9247,
      "innern": 9248,
      "Robo": 9249,
      "Rostock": 9250,
      "Boot": 9251,
      "Platten": 9252,
      "produz": 9253,
      "namens": 9254,
      "directed": 9255,
      "nummer": 9256,
      "holz": 9257,
      "Febru": 9258,
      "Genau": 9259,
      "guard": 9260,
      "missed": 9261,
      "hardt": 9262,
      "wollten": 9263,
      "Deswegen": 9264,
      "generation": 9265,
      "erschien": 9266,
      "Class": 9267,
      "jährige": 9268,
      "literary": 9269,
      "albums": 9270,
      "programs": 9271,
      "participate": 9272,
      "chemical": 9273,
      "Zahlreiche": 9274,
      "smooth": 9275,
      "branches": 9276,
      "Studenten": 9277,
      "electricity": 9278,
      "burned": 9279,
      "Wesentlichen": 9280,
      "agreed": 9281,
      "Pferde": 9282,
      "beschäftigt": 9283,
      "valuable": 9284,
      "fifth": 9285,
      "Betriebs": 9286,
      "heavily": 9287,
      "Gabriel": 9288,
      "Ama": 9289,
      "Day": 9290,
      "Ess": 9291,
      "Fab": 9292,
      "Funk": 9293,
      "Got": 9294,
      "Lord": 9295,
      "Mä": 9296,
      "Nase": 9297,
      "Ph": 9298,
      "Sur": 9299,
      "Sou": 9300,
      "Vul": 9301,
      "figh": 9302,
      "rural": 9303,
      "sang": 9304,
      "erzählt": 9305,
      "anen": 9306,
      "rechten": 9307,
      "isl": 9308,
      "itation": 9309,
      "decre": 9310,
      "ilität": 9311,
      "seats": 9312,
      "olo": 9313,
      "icans": 9314,
      "verbin": 9315,
      "iern": 9316,
      "zugleich": 9317,
      "peror": 9318,
      "gesell": 9319,
      "Derzeit": 9320,
      "feels": 9321,
      "shof": 9322,
      "enny": 9323,
      "formul": 9324,
      "Hersteller": 9325,
      "Ausdruck": 9326,
      "machten": 9327,
      "altar": 9328,
      "helped": 9329,
      "ienten": 9330,
      "producer": 9331,
      "beginnen": 9332,
      "freut": 9333,
      "setzungen": 9334,
      "stuck": 9335,
      "counts": 9336,
      "ausgeber": 9337,
      "Kohlen": 9338,
      "ständige": 9339,
      "stattung": 9340,
      "schwierig": 9341,
      "Kurt": 9342,
      "allows": 9343,
      "rollen": 9344,
      "entwickeln": 9345,
      "erschienen": 9346,
      "representatives": 9347,
      "schulen": 9348,
      "Chef": 9349,
      "bottom": 9350,
      "schießen": 9351,
      "barely": 9352,
      "Gottes": 9353,
      "cooking": 9354,
      "Presse": 9355,
      "strength": 9356,
      "script": 9357,
      "geordnet": 9358,
      "camera": 9359,
      "examination": 9360,
      "seudonym": 9361,
      "Hollywood": 9362,
      "Ecke": 9363,
      "Free": 9364,
      "Fert": 9365,
      "Hig": 9366,
      "Master": 9367,
      "Sar": 9368,
      "Villa": 9369,
      "Zür": 9370,
      "cam": 9371,
      "cards": 9372,
      "dut": 9373,
      "eure": 9374,
      "flie": 9375,
      "giving": 9376,
      "jok": 9377,
      "sed": 9378,
      "zing": 9379,
      "alive": 9380,
      "desto": 9381,
      "users": 9382,
      "abol": 9383,
      "wege": 9384,
      "steps": 9385,
      "werbe": 9386,
      "Angebot": 9387,
      "liefert": 9388,
      "gering": 9389,
      "übernommen": 9390,
      "assigned": 9391,
      "Gebrauch": 9392,
      "unternehmen": 9393,
      "chest": 9394,
      "stellungs": 9395,
      "avo": 9396,
      "prepar": 9397,
      "attached": 9398,
      "Orgel": 9399,
      "Depart": 9400,
      "Zeitschrift": 9401,
      "amps": 9402,
      "beendete": 9403,
      "publisher": 9404,
      "springen": 9405,
      "Universitäten": 9406,
      "throughout": 9407,
      "Karte": 9408,
      "richtete": 9409,
      "families": 9410,
      "starke": 9411,
      "Handel": 9412,
      "Beton": 9413,
      "Hierbei": 9414,
      "Haar": 9415,
      "Maler": 9416,
      "mando": 9417,
      "Holstein": 9418,
      "bsite": 9419,
      "swald": 9420,
      "explos": 9421,
      "Street": 9422,
      "breakfast": 9423,
      "Schriften": 9424,
      "Hochschule": 9425,
      "Linux": 9426,
      "Gründen": 9427,
      "potato": 9428,
      "Straßenbahn": 9429,
      "failure": 9430,
      "reduced": 9431,
      "documents": 9432,
      "Termin": 9433,
      "healthy": 9434,
      "Ferdin": 9435,
      "Maßnahmen": 9436,
      "comparison": 9437,
      "Sendung": 9438,
      "ziplin": 9439,
      "holidays": 9440,
      "fristig": 9441,
      "Braunschwe": 9442,
      "Unterstützung": 9443,
      "micro": 9444,
      "paintings": 9445,
      "predominantly": 9446,
      "controversial": 9447,
      "Beine": 9448,
      "Fire": 9449,
      "Gie": 9450,
      "Hell": 9451,
      "Litt": 9452,
      "Nimm": 9453,
      "Rett": 9454,
      "Rollen": 9455,
      "Sud": 9456,
      "Supp": 9457,
      "Ufer": 9458,
      "dt": 9459,
      "faster": 9460,
      "iant": 9461,
      "ique": 9462,
      "jan": 9463,
      "kick": 9464,
      "kopf": 9465,
      "nein": 9466,
      "sü": 9467,
      "inher": 9468,
      "stable": 9469,
      "orte": 9470,
      "orial": 9471,
      "derungen": 9472,
      "rob": 9473,
      "rose": 9474,
      "amaz": 9475,
      "verließ": 9476,
      "ierter": 9477,
      "Indien": 9478,
      "üren": 9479,
      "elled": 9480,
      "dogs": 9481,
      "expression": 9482,
      "gesund": 9483,
      "Verb": 9484,
      "ota": 9485,
      "Einfach": 9486,
      "Spar": 9487,
      "finish": 9488,
      "halts": 9489,
      "reihe": 9490,
      "klingt": 9491,
      "handed": 9492,
      "konzentr": 9493,
      "portion": 9494,
      "Marie": 9495,
      "issance": 9496,
      "Unterricht": 9497,
      "Landschaft": 9498,
      "iously": 9499,
      "Jahrzehn": 9500,
      "linear": 9501,
[...]
